, 1
. 1
▁và 1
▁của 1
▁có 1
▁là 1
▁các 1
▁được 1
▁trong 1
▁cho 1
▁một 1
▁với 1
▁đã 1
▁không 1
▁người 1
n 1
▁những 1
▁này 1
▁để 1
▁ 1
▁( 1
▁công 1
▁khi 1
▁ở 1
▁năm 1
▁về 1
▁đến 1
▁ra 1
: 1
▁- 1
▁tại 1
m 1
▁thể 1
▁vào 1
▁từ 1
▁đó 1
i 1
▁cũng 1
▁trên 1
▁sẽ 1
▁đầu 1
▁nhiều 1
▁bị 1
▁hiện 1
▁việc 1
▁như 1
▁làm 1
▁nhà 1
▁số 1
▁đồng 1
▁sự 1
▁nước 1
▁động 1
▁lại 1
▁thành 1
t 1
▁ngày 1
▁định 1
▁phải 1
o 1
ng 1
▁quan 1
▁" 1
▁gia 1
▁chỉ 1
▁ông 1
▁Nam 1
▁học 1
▁nhân 1
) 1
▁chính 1
▁hàng 1
▁Việt 1
▁hơn 1
▁trường 1
▁nhất 1
▁tôi 1
▁thời 1
▁cơ 1
▁thực 1
▁dân 1
▁còn 1
▁con 1
▁hợp 1
▁biết 1
▁thông 1
▁sau 1
▁nhưng 1
▁đi 1
▁hành 1
▁thì 1
▁đang 1
▁điều 1
a 1
▁mới 1
▁theo 1
▁phát 1
▁giá 1
▁viên 1
▁vụ 1
▁mà 1
▁sinh 1
y 1
u 1
▁thế 1
▁qua 1
▁cả 1
▁dụng 1
▁nhận 1
▁lý 1
▁hình 1
▁chức 1
▁cao 1
▁rất 1
▁sản 1
▁hội 1
▁cùng 1
▁mình 1
▁trình 1
▁bộ 1
▁đối 1
▁tế 1
- 1
▁trước 1
▁do 1
▁C 1
▁tin 1
▁nên 1
▁lên 1
▁xuất 1
▁Quốc 1
; 1
▁xe 1
▁anh 1
▁lượng 1
▁tác 1
h 1
▁tiếp 1
▁T 1
▁tư 1
▁bạn 1
▁nghiệp 1
▁điểm 1
▁đường 1
▁cấp 1
▁thu 1
▁vì 1
à 1
▁cuộc 1
▁kết 1
▁giải 1
▁đây 1
▁dự 1
▁tháng 1
▁tình 1
▁2 1
▁khác 1
▁án 1
▁cách 1
▁tới 1
▁cầu 1
▁Trung 1
▁đề 1
▁vẫn 1
▁chủ 1
▁nói 1
▁Hà 1
▁l 1
▁năng 1
▁báo 1
▁hai 1
▁tăng 1
▁họ 1
▁nay 1
ấ 1
▁lực 1
▁triển 1
▁Mỹ 1
ắ 1
▁kinh 1
▁Theo 1
▁giới 1
" 1
▁tiền 1
p 1
▁rằng 1
▁Công 1
▁lớn 1
▁tự 1
). 1
▁toàn 1
▁bảo 1
▁thống 1
▁H 1
▁m 1
▁quốc 1
▁cô 1
▁Bộ 1
▁ảnh 1
▁sử 1
▁khu 1
▁xã 1
▁tâm 1
▁nhiên 1
▁vị 1
▁độ 1
▁bản 1
▁thấy 1
▁thị 1
c 1
▁gian 1
▁3 1
▁tạo 1
▁1 1
▁diễn 1
▁mặt 1
▁bằng 1
▁phần 1
▁Trong 1
▁tỉnh 1
▁/ 1
▁ng 1
▁doanh 1
▁tài 1
▁thủ 1
ạ 1
▁thi 1
▁lần 1
▁B 1
▁Nguyễn 1
▁tổ 1
ỷ 1
▁cần 1
▁L 1
▁chưa 1
▁quy 1
▁an 1
▁quyết 1
▁Anh 1
▁ý 1
▁quả 1
▁giao 1
▁máy 1
▁nào 1
▁chúng 1
▁thường 1
▁đội 1
▁hệ 1
▁phương 1
▁khách 1
▁hay 1
▁địa 1
nh 1
▁đại 1
▁v 1
▁hoá 1
▁tính 1
▁x 1
▁liên 1
▁tập 1
▁phòng 1
▁đất 1
▁yêu 1
▁pháp 1
▁đạo 1
▁chiến 1
ầ 1
▁trở 1
▁quá 1
▁trọng 1
▁sống 1
▁Đ 1
▁vực 1
▁tiêu 1
▁thức 1
▁chất 1
▁triệu 1
▁bán 1
▁tuổi 1
▁hoạt 1
▁Nội 1
▁thương 1
? 1
▁hiệu 1
▁tra 1
▁ăn 1
▁tục 1
▁V 1
▁tham 1
▁em 1
▁dựng 1
▁điện 1
▁đưa 1
▁trị 1
▁quân 1
▁phẩm 1
g 1
▁ty 1
▁bố 1
▁bệnh 1
▁sĩ 1
▁trưởng 1
▁d 1
▁sở 1
▁loại 1
▁gần 1
▁quyền 1
▁thứ 1
▁khai 1
▁xây 1
▁tích 1
▁M 1
▁trung 1
▁cảm 1
▁trẻ 1
▁bất 1
▁ho 1
▁phố 1
▁khiến 1
▁biệt 1
▁vừa 1
▁mạnh 1
▁đấu 1
▁giờ 1
▁đổi 1
▁bà 1
▁cá 1
ả 1
▁thiết 1
▁tỷ 1
▁bắt 1
▁khoảng 1
▁ta 1
▁Tuy 1
▁đình 1
▁r 1
▁đơn 1
▁văn 1
▁chế 1
▁khó 1
▁đều 1
s 1
▁trang 1
▁sát 1
▁đánh 1
▁4 1
▁gì 1
▁Văn 1
▁ngoài 1
▁tiên 1
▁hoàn 1
▁kiến 1
▁chuyển 1
▁5 1
▁nhiệm 1
▁giúp 1
Đ 1
▁vấn 1
▁tốt 1
▁vậy 1
▁dịch 1
▁TP 1
▁n 1
▁hoặc 1
▁b 1
▁lập 1
▁diện 1
▁gây 1
▁tay 1
▁khá 1
), 1
▁dùng 1
▁Th 1
▁chí 1
▁cảnh 1
▁sách 1
▁thuộc 1
▁tên 1
... 1
▁nhau 1
▁mua 1
▁nghệ 1
▁cứu 1
▁bên 1
▁muốn 1
▁giảm 1
▁nữ 1
▁trí 1
▁chi 1
▁tìm 1
▁tiếng 1
▁bàn 1
e 1
▁dẫn 1
▁cáo 1
▁mang 1
▁thêm 1
▁sáng 1
▁tượng 1
▁Các 1
▁đặc 1
▁vật 1
▁từng 1
▁giữa 1
▁kỳ 1
▁ứng 1
▁S 1
▁k 1
▁mức 1
▁truyền 1
▁chiếc 1
▁N 1
▁kiểm 1
▁Tổng 1
▁kế 1
▁phục 1
▁bao 1
▁vệ 1
▁nghị 1
▁giáo 1
▁bình 1
▁lịch 1
▁thân 1
▁trận 1
▁Sau 1
▁bay 1
▁phạm 1
▁vi 1
▁sức 1
▁bỏ 1
▁đ 1
▁huyện 1
▁phủ 1
▁mẹ 1
▁Thanh 1
▁lời 1
▁Bình 1
▁ban 1
▁đẹp 1
▁nơi 1
▁xử 1
▁phụ 1
▁10 1
▁đoàn 1
▁quản 1
▁tiến 1
▁Nga 1
▁Ông 1
▁bóng 1
▁hộ 1
▁rồi 1
▁trợ 1
▁cố 1
▁nhập 1
▁nếu 1
▁s 1
▁mạng 1
▁hết 1
▁chị 1
▁chuyện 1
▁Chính 1
▁khoa 1
▁Ảnh 1
▁cổ 1
▁Thu 1
▁Một 1
▁du 1
▁6 1
▁Minh 1
▁chuyên 1
▁kiện 1
▁sao 1
▁thay 1
▁chứng 1
▁ch 1
▁tranh 1
▁giữ 1
▁nguyên 1
▁biến 1
▁hướng 1
▁lợi 1
▁dài 1
▁biểu 1
▁chung 1
▁luật 1
▁xác 1
▁thuật 1
▁chia 1
▁c 1
▁to 1
▁liệu 1
ư 1
▁nó 1
▁lúc 1
▁hoạch 1
▁tịch 1
▁cái 1
▁phí 1
▁đạt 1
▁vùng 1
▁đá 1
ch 1
▁ca 1
▁biển 1
▁minh 1
▁Đại 1
▁nhỏ 1
▁Nhà 1
▁chọn 1
▁mọi 1
ẩ 1
▁gặp 1
▁mỗi 1
▁tử 1
▁giả 1
▁bởi 1
▁Chủ 1
▁ngành 1
▁xem 1
▁sân 1
▁' 1
▁Ho 1
▁tổng 1
▁khí 1
▁danh 1
▁t 1
▁nội 1
▁phân 1
▁U 1
▁phía 1
▁ký 1
▁chồng 1
▁đủ 1
▁tàu 1
▁thanh 1
▁vợ 1
▁mất 1
▁mục 1
▁xả 1
▁hạn 1
▁phim 1
▁Đức 1
▁gái 1
▁đặt 1
▁chương 1
▁vốn 1
▁viện 1
▁nguồn 1
▁Những 1
▁vô 1
▁Thị 1
▁tiết 1
▁cuối 1
▁Tôi 1
▁rõ 1
▁nh 1
▁g 1
▁mắt 1
▁thích 1
▁ngay 1
▁đa 1
▁la 1
▁luôn 1
▁tướng 1
▁so 1
▁Hải 1
▁nổi 1
▁đồ 1
▁khả 1
▁ấy 1
▁hoa 1
▁Đông 1
▁đời 1
▁dù 1
▁Thủ 1
▁trả 1
▁h 1
▁chơi 1
▁7 1
▁K 1
▁mở 1
▁A 1
▁tố 1
▁ít 1
▁vận 1
▁kể 1
▁đảm 1
▁Hoàng 1
▁nữa 1
▁hưởng 1
▁An 1
ọ 1
▁Bắc 1
▁Hồ 1
▁chuẩn 1
▁cây 1
▁hậu 1
▁USD 1
▁th 1
▁gọi 1
▁Thành 1
▁lãnh 1
▁D 1
ụ 1
▁Hội 1
▁Khi 1
▁lộ 1
▁8 1
▁trực 1
▁cứ 1
▁thư 1
ã 1
▁tương 1
▁Sơn 1
▁cạnh 1
▁gồm 1
ổ 1
▁sắc 1
▁luận 1
▁tấn 1
▁hỗ 1
▁phá 1
▁nạn 1
▁ai 1
▁chống 1
▁sang 1
▁sẻ 1
▁Không 1
' 1
▁xuống 1
▁đoạn 1
▁bài 1
▁trạng 1
▁đúng 1
▁phép 1
▁nhóm 1
▁đô 1
▁Phó 1
▁yếu 1
▁lấy 1
▁cửa 1
▁cung 1
▁chân 1
▁di 1
▁câu 1
▁nghiệm 1
▁Ban 1
▁bé 1
▁dưới 1
▁Tây 1
▁vòng 1
▁Lê 1
▁khẩu 1
ông 1
▁áp 1
▁dục 1
▁Người 1
▁9 1
▁đóng 1
T 1
▁nhanh 1
▁đàn 1
▁UBND 1
▁hỏi 1
▁nhằm 1
▁tất 1
▁đáng 1
▁mô 1
▁thắng 1
ệ 1
▁Thái 1
▁Nếu 1
▁lưu 1
▁Và 1
▁tinh 1
▁rộng 1
▁màu 1
▁trò 1
▁Trần 1
▁Nhật 1
▁hồ 1
▁mùa 1
ến 1
▁Nhưng 1
▁càng 1
▁trách 1
▁đốc 1
▁Đây 1
▁độc 1
▁cực 1
▁xét 1
▁hữu 1
▁khăn 1
▁Á 1
▁Ngày 1
▁Tr 1
▁cụ 1
▁nhạc 1
▁cư 1
▁Trước 1
▁tối 1
▁hồi 1
▁Ngọc 1
▁tuần 1
▁vàng 1
▁nghĩa 1
▁Có 1
▁thật 1
▁ba 1
▁lòng 1
▁G 1
ở 1
▁lệ 1
hẳng 1
ối 1
▁Hoa 1
▁đăng 1
▁kỹ 1
▁ghi 1
▁Điều 1
▁phong 1
▁góp 1
▁tuyển 1
▁phản 1
▁trái 1
▁nghiên 1
▁lo 1
ò 1
▁nhìn 1
▁Dương 1
▁20 1
▁căn 1
▁dung 1
▁tải 1
▁đảo 1
▁tu 1
▁chú 1
▁đầy 1
▁thần 1
▁nghĩ 1
▁mẫu 1
▁loài 1
▁dễ 1
▁da 1
▁riêng 1
▁12 1
▁Liên 1
▁sơ 1
▁ngoại 1
▁y 1
▁ngân 1
▁sư 1
▁Với 1
á 1
▁hiểu 1
▁Ngoài 1
▁Đồng 1
▁thuốc 1
▁tuyến 1
". 1
▁nông 1
▁nằm 1
▁đêm 1
▁lễ 1
▁vai 1
▁chiều 1
▁giám 1
ứ 1
▁trai 1
▁xa 1
▁kỷ 1
▁khoản 1
▁thiếu 1
▁Từ 1
▁X 1
▁châu 1
▁Trường 1
▁môi 1
▁Lan 1
▁ô 1
ẫ 1
▁cộng 1
▁chết 1
ân 1
an 1
ơ 1
▁chạy 1
▁cử 1
C 1
▁Long 1
▁u 1
H 1
▁vọng 1
▁thoại 1
▁khỏi 1
▁hôm 1
▁tr 1
▁đông 1
▁tưởng 1
ồng 1
ợ 1
▁hạ 1
▁phối 1
▁nguy 1
ĩ 1
▁dành 1
▁nâng 1
▁chịu 1
▁quận 1
ùng 1
▁30 1
ộ 1
▁đứng 1
B 1
▁Bản 1
▁Tại 1
▁đôi 1
▁Hiện 1
▁Sở 1
▁hại 1
▁thuận 1
▁Xuân 1
▁Đà 1
! 1
▁ngôi 1
▁chấp 1
▁lớp 1
ên 1
▁vài 1
▁vũ 1
▁tuyên 1
▁cán 1
▁bước 1
ỳ 1
▁toán 1
▁lĩnh 1
▁gửi 1
▁ngờ 1
▁lửa 1
▁R 1
▁môn 1
▁phiên 1
▁Năm 1
▁buổi 1
▁HCM 1
êm 1
▁mại 1
▁11 1
▁Kỳ 1
▁đẩy 1
ường 1
▁Pháp 1
▁phút 1
▁15 1
▁xúc 1
▁thiện 1
▁nghề 1
▁hiểm 1
▁tội 1
▁áo 1
▁giống 1
▁âm 1
oài 1
▁lâu 1
ỉ 1
▁Độ 1
▁khoẻ 1
▁vui 1
▁nam 1
▁vượt 1
▁cải 1
▁đào 1
▁nặng 1
▁Quảng 1
▁Phương 1
▁kéo 1
▁thấp 1
yên 1
▁Vũ 1
▁Bà 1
▁suất 1
ề 1
▁bổ 1
▁P 1
▁thuế 1
▁tiện 1
▁Vì 1
▁huy 1
ốc 1
▁soát 1
▁viết 1
▁nền 1
▁Giang 1
▁hút 1
▁tai 1
▁nuôi 1
▁phạt 1
▁hát 1
▁tô 1
▁thúc 1
N 1
ăng 1
▁cường 1
▁Hàn 1
▁nghiêm 1
▁niên 1
V 1
▁sông 1
▁Quang 1
▁xin 1
▁trao 1
▁nghe 1
▁miền 1
▁Nguyên 1
▁sâu 1
ù 1
▁phóng 1
iêu 1
▁Phú 1
▁biên 1
LV 1
▁thảo 1
▁Thế 1
▁bức 1
▁phù 1
VN 1
▁Ch 1
▁duy 1
▁Y 1
ĐT 1
▁tầng 1
▁tỏ 1
▁khởi 1
ý 1
▁bác 1
▁Đảng 1
▁món 1
▁& 1
▁kiếm 1
▁Nhiều 1
ế 1
▁sớm 1
▁xuyên 1
ớ 1
▁dòng 1
▁Ng 1
▁cha 1
▁Do 1
▁thí 1
▁làng 1
▁Nh 1
▁thưởng 1
▁dầu 1
▁Phạm 1
▁Kim 1
ết 1
▁tốc 1
▁Giám 1
▁Qu 1
iền 1
▁sai 1
▁thất 1
▁Chúng 1
▁mong 1
▁Hồng 1
▁mưa 1
▁Để 1
ống 1
▁tả 1
▁buộc 1
▁qu 1
▁nghi 1
▁tín 1
▁quý 1
▁kích 1
▁giấy 1
▁chiếm 1
▁thử 1
▁hạng 1
▁uống 1
2 1
▁chắc 1
▁Cô 1
▁mối 1
▁tho 1
ệt 1
▁thăm 1
▁cánh 1
ô 1
▁họp 1
▁bầu 1
▁đâu 1
ốt 1
▁đau 1
▁đỏ 1
ạch 1
▁quay 1
▁xanh 1
▁lạ 1
▁Tiên 1
▁Việc 1
▁Châu 1
▁nhớ 1
▁nhu 1
▁tức 1
▁nghỉ 1
▁ninh 1
▁thẩm 1
ỏ 1
▁mặc 1
▁phiếu 1
▁Tân 1
▁trì 1
▁cháu 1
", 1
đ 1
▁khủng 1
▁18 1
▁nóng 1
▁Chi 1
▁trời 1
▁vẻ 1
▁hôn 1
▁chẳng 1
ể 1
▁tránh 1
▁thuê 1
ương 1
▁quanh 1
▁khắc 1
▁thái 1
▁chỉnh 1
▁dưỡng 1
▁giành 1
▁Ph 1
▁tỉ 1
▁Tuấn 1
▁Dự 1
S 1
▁Thông 1
▁chỗ 1
▁ổn 1
▁dấu 1
▁màn 1
▁Linh 1
▁Chỉ 1
▁bảng 1
▁Âu 1
▁đổ 1
▁Phòng 1
▁giai 1
▁hạt 1
▁khoá 1
▁Bảo 1
▁chữa 1
▁hãng 1
▁chuyến 1
▁can 1
▁phê 1
▁Chí 1
ồn 1
▁quán 1
▁kho 1
▁Ninh 1
▁đáp 1
▁Luật 1
▁dư 1
▁siêu 1
▁thôn 1
▁nhờ 1
▁ương 1
▁Bên 1
▁chăm 1
▁luyện 1
▁bày 1
▁nhiệt 1
▁lá 1
▁binh 1
▁xếp 1
ạt 1
▁lựa 1
▁sợ 1
▁chứ 1
ủ 1
▁tộc 1
▁Mai 1
▁16 1
▁” 1
▁nối 1
▁Tài 1
▁tá 1
▁trồng 1
▁Ngh 1
▁loạt 1
ức 1
ừ 1
k 1
▁Gia 1
▁mật 1
▁phi 1
▁2017 1
▁Syria 1
▁trắng 1
▁rừng 1
▁thiên 1
▁phường 1
▁Ba 1
ẽ 1
▁Là 1
▁ưu 1
▁nợ 1
▁máu 1
ập 1
▁cũ 1
▁thẳng 1
▁sẵn 1
▁Đến 1
ố 1
▁Kh 1
▁ấn 1
▁tái 1
▁thú 1
▁thác 1
▁lạc 1
▁ngồi 1
▁thiệt 1
▁Nẵng 1
▁mắc 1
▁Đó 1
ử 1
▁Khu 1
▁quen 1
▁chờ 1
▁Phát 1
▁niệm 1
▁14 1
▁phổ 1
▁ánh 1
/ 1
▁Phi 1
▁đón 1
▁lương 1
▁Tết 1
▁Cục 1
▁biện 1
▁cân 1
▁mộ 1
▁cập 1
ải 1
▁nhiễm 1
▁kh 1
▁lẽ 1
▁tiểu 1
▁cú 1
▁tầm 1
▁km 1
▁thậm 1
▁Hai 1
ờ 1
ẻ 1
L 1
▁Tu 1
▁lượt 1
▁“ 1
▁coi 1
▁tạm 1
▁dạy 1
▁dạng 1
▁Ở 1
▁Còn 1
▁ngủ 1
▁khổ 1
▁cháy 1
▁Tổ 1
▁khám 1
ỵ 1
▁Hương 1
ặ 1
▁quần 1
ận 1
ẹ 1
▁sửa 1
▁Nghị 1
▁cắt 1
▁gắn 1
▁khối 1
▁may 1
▁thao 1
▁phúc 1
▁song 1
▁thịt 1
▁Triều 1
▁vay 1
▁tặng 1
▁Nhân 1
▁ích 1
▁Báo 1
▁lái 1
▁trải 1
▁Như 1
G 1
▁nhẹ 1
▁suốt 1
M 1
▁núi 1
▁Lý 1
ếu 1
ọc 1
▁100 1
ây 1
▁khảo 1
▁chóng 1
ới 1
▁ước 1
▁thầy 1
▁suy 1
ữ 1
▁Cơ 1
ễ 1
▁Du 1
▁sung 1
▁tồn 1
▁sạch 1
▁hải 1
▁cục 1
▁cầm 1
▁1. 1
Cũng 1
▁bánh 1
▁sắp 1
▁quê 1
▁gốc 1
▁La 1
▁13 1
▁nhấn 1
▁chợ 1
▁giác 1
ê 1
▁thừa 1
▁pha 1
▁Kinh 1
Ấ 1
▁rút 1
ậu 1
▁2018 1
▁lược 1
▁giản 1
▁chụp 1
▁gi 1
3 1
▁tờ 1
▁Về 1
▁17 1
en 1
▁lai 1
▁trú 1
▁chắn 1
▁tận 1
▁cận 1
▁kịp 1
▁chứa 1
▁sóng 1
▁Gi 1
▁Ngân 1
▁Quân 1
▁khô 1
▁Tiến 1
▁ngại 1
▁lỗi 1
▁đột 1
▁đích 1
▁ngăn 1
▁Lâm 1
▁Huy 1
▁tuyệt 1
▁Khánh 1
ảng 1
er 1
▁kém 1
▁25 1
▁xung 1
▁Sự 1
▁địch 1
▁ma 1
▁nghèo 1
ị 1
▁tắc 1
▁Đình 1
▁Hưng 1
ỹ 1
Ả 1
▁thụ 1
▁lệnh 1
è 1
▁hài 1
x 1
ực 1
▁Yên 1
▁24 1
▁dịp 1
▁Hùng 1
▁trụ 1
▁Đối 1
▁Na 1
▁Nha 1
▁khúc 1
▁trăm 1
▁ủng 1
▁trừ 1
▁đọc 1
▁I 1
ự 1
▁chặt 1
▁chu 1
▁bí 1
▁xu 1
▁Trang 1
▁bại 1
▁Thứ 1
óc 1
▁cà 1
▁thôi 1
▁Hiệp 1
▁Họ 1
▁đen 1
▁Dù 1
▁vững 1
ạc 1
▁Vi 1
▁thải 1
▁hấp 1
] 1
▁mời 1
ùi 1
ước 1
▁cậu 1
▁Tập 1
ượng 1
▁dần 1
▁kẻ 1
▁hạnh 1
▁liệt 1
▁dây 1
▁nổ 1
▁F 1
▁rơi 1
▁cấu 1
▁Dũng 1
A 1
▁50 1
▁ngắn 1
▁dừng 1
.000 1
▁The 1
▁Thời 1
▁nỗ 1
▁thoát 1
▁cự 1
▁chặn 1
▁chữ 1
ác 1
▁vé 1
▁Q 1
▁To 1
▁phận 1
▁hoàng 1
▁mấy 1
▁in 1
▁sóc 1
▁dữ 1
▁gà 1
▁cam 1
▁lạnh 1
▁sàng 1
▁Phong 1
▁Thương 1
▁đứa 1
▁Bí 1
▁kiểu 1
▁VN 1
▁hãy 1
▁bật 1
▁ph 1
▁nêu 1
▁đương 1
▁19 1
▁Ngoại 1
▁chục 1
▁súng 1
▁Đặc 1
▁Dân 1
▁hè 1
▁thầu 1
▁niềm 1
▁xấu 1
▁hơi 1
▁Cảnh 1
ỡ 1
▁Được 1
▁E 1
▁Đoàn 1
rà 1
▁Bạn 1
▁von 1
▁Di 1
▁hầu 1
▁Trump 1
▁bắn 1
▁truy 1
▁cười 1
D 1
▁Phan 1
▁gió 1
▁hương 1
▁xo 1
▁Ngay 1
▁cưới 1
▁Phúc 1
▁Ngô 1
▁O 1
▁kê 1
▁lục 1
▁bang 1
▁nghìn 1
▁Giá 1
ồi 1
▁thiệu 1
▁cấm 1
▁Vân 1
ND 1
▁nhắc 1
▁đám 1
d 1
▁bè 1
▁hư 1
▁quảng 1
ôn 1
▁+ 1
▁ĐH 1
ạnh 1
▁thù 1
▁Nghệ 1
▁phán 1
▁Bệnh 1
na 1
▁buồn 1
▁tạp 1
▁bạc 1
▁bão 1
b 1
▁21 1
▁bờ 1
▁lu 1
▁thơ 1
K 1
▁Hạ 1
▁đua 1
▁mã 1
▁trương 1
▁rau 1
X 1
ôi 1
th 1
▁mê 1
ằng 1
▁23 1
▁tim 1
▁cặp 1
▁tù 1
▁cuốn 1
▁đem 1
▁gắng 1
ật 1
▁sỹ 1
▁mái 1
▁Thiên 1
▁Con 1
▁bá 1
▁tôn 1
▁22 1
on 1
▁bãi 1
▁Viện 1
▁ràng 1
▁dạ 1
▁nắm 1
▁trấn 1
▁Vĩnh 1
▁– 1
▁băng 1
▁chàng 1
▁hu 1
▁Vinh 1
▁tuy 1
▁thua 1
▁Trên 1
▁lãi 1
▁mềm 1
▁thuyết 1
▁Trưởng 1
in 1
▁đảng 1
▁rời 1
át 1
▁kim 1
1 1
▁kính 1
▁Quy 1
▁mừng 1
▁> 1
▁tụ 1
▁dàng 1
▁Hi 1
ộc 1
▁khuyến 1
▁giàu 1
án 1
▁kịch 1
▁Giáo 1
▁sữa 1
▁chở 1
▁hy 1
ục 1
▁nhật 1
▁xong 1
▁chút 1
▁Cup 1
ành 1
▁Đào 1
▁DN 1
▁đòi 1
▁lắm 1
▁đỡ 1
▁Mặc 1
▁mẽ 1
▁Hàng 1
▁40 1
▁tóc 1
ớt 1
▁kg 1
▁lắng 1
òng 1
▁2. 1
▁liền 1
▁thổ 1
▁tấm 1
▁đoán 1
▁ngàn 1
▁sứ 1
▁lẫn 1
▁mu 1
▁nửa 1
▁tệ 1
▁sắt 1
TT 1
▁miễn 1
▁ngôn 1
▁Khoa 1
▁đàm 1
▁bào 1
TX 1
▁Tư 1
▁Giải 1
▁thai 1
▁rượu 1
▁Thực 1
▁duyệt 1
r 1
▁lũ 1
▁kêu 1
▁khắp 1
/9 1
▁ngữ 1
▁lưới 1
ũ 1
ỗ 1
▁Đầu 1
▁phó 1
▁dõi 1
▁2016 1
ốn 1
▁gương 1
▁ngược 1
▁Sài 1
▁Vụ 1
▁già 1
▁Cùng 1
▁Kết 1
▁chiếu 1
▁tươi 1
▁dáng 1
/5 1
▁chậm 1
▁nguyện 1
▁lú 1
LB 1
▁ly 1
▁hề 1
/6 1
▁mắn 1
▁nộp 1
▁quà 1
▁linh 1
▁Sa 1
▁mơ 1
ách 1
▁cơn 1
▁Cao 1
▁tri 1
▁Duy 1
ạp 1
▁PV 1
▁lối 1
▁trưng 1
▁Gòn 1
▁huấn 1
▁dựa 1
▁Cách 1
▁Nó 1
v 1
▁nạ 1
▁Định 1
▁mâ 1
▁Cần 1
iều 1
▁dứt 1
▁lan 1
▁Cuộc 1
▁Chương 1
▁bó 1
ội 1
rác 1
▁mỹ 1
▁28 1
▁trúc 1
com 1
▁Nhi 1
▁Chiến 1
▁Thắng 1
/8 1
ướng 1
▁bế 1
▁bồi 1
▁Li 1
l 1
▁đợi 1
▁ngang 1
▁Chị 1
▁26 1
▁đợt 1
▁27 1
▁cứng 1
▁bối 1
us 1
TC 1
▁Cho 1
▁nắng 1
▁Biên 1
▁Mỗ 1
▁xứ 1
ặc 1
▁thách 1
▁ki 1
▁Man 1
▁New 1
▁đo 1
▁hâ 1
▁vườn 1
XH 1
▁Ukraine 1
▁đỉnh 1
▁ngừng 1
▁kèm 1
▁quỹ 1
ừng 1
▁Vương 1
▁Em 1
▁khiển 1
▁iPhone 1
P 1
▁hiệp 1
Q 1
ích 1
▁tung 1
▁hào 1
▁bom 1
ing 1
▁gói 1
▁vỡ 1
▁gấp 1
ưỡng 1
▁GD 1
▁khấu 1
▁lô 1
▁thập 1
âm 1
▁Thuận 1
▁Hữu 1
▁Trương 1
êng 1
▁ấm 1
▁giết 1
▁đạn 1
▁ung 1
▁Quyết 1
▁Cộng 1
/4 1
/7 1
▁đèn 1
▁ngập 1
▁chấm 1
▁nỗi 1
▁căng 1
▁yên 1
▁nàng 1
▁kia 1
▁Thường 1
í 1
đe 1
▁dương 1
▁TPHCM 1
▁video 1
▁sú 1
▁Chu 1
▁ha 1
▁huyết 1
▁đài 1
ặng 1
▁ngon 1
▁thuyền 1
ho 1
▁khuôn 1
▁sạn 1
▁thẻ 1
▁nét 1
hơ 1
▁chào 1
▁dụ 1
NN 1
▁chấn 1
▁chó 1
/11 1
▁bền 1
▁sàn 1
▁Tiền 1
▁trùng 1
▁kênh 1
▁trạm 1
▁League 1
▁29 1
▁Điện 1
▁200 1
▁Xây 1
▁bù 1
▁Sáng 1
▁bậc 1
iện 1
▁Facebook 1
▁trào 1
▁hẹn 1
▁Đài 1
▁Đô 1
▁Bởi 1
▁Mi 1
▁su 1
▁Tâm 1
▁Cả 1
ne 1
▁ngũ 1
▁túi 1
▁Lương 1
▁góc 1
▁Trà 1
▁Hy 1
▁mạch 1
/3 1
▁xinh 1
vn 1
TV 1
▁gỡ 1
▁World 1
▁Huế 1
▁ngọt 1
▁đuổi 1
▁hô 1
▁chạm 1
▁gỗ 1
▁bò 1
ty 1
▁quên 1
▁xăng 1
▁trông 1
▁Trọng 1
▁Qua 1
▁60 1
Th 1
▁tre 1
▁khích 1
▁Thượng 1
▁ghế 1
▁tràn 1
▁IS 1
▁cu 1
/10 1
▁vết 1
▁Tất 1
▁bư 1
▁đáo 1
▁củ 1
▁Quản 1
▁kháng 1
▁Real 1
▁Hu 1
▁ép 1
▁Giao 1
õ 1
▁đẳng 1
▁cơm 1
▁dậy 1
▁hoảng 1
▁Apple 1
▁nhuận 1
▁hứng 1
ú 1
▁thận 1
▁rối 1
▁Đá 1
U 1
▁đoạt 1
▁Biển 1
▁a 1
GT 1
▁Tình 1
et 1
▁ơn 1
▁tán 1
▁3. 1
▁chảy 1
▁lắp 1
▁Ki 1
▁hẳn 1
▁mãi 1
▁buôn 1
▁Vietnam 1
▁khoán 1
▁bữa 1
▁giảng 1
▁mạc 1
▁Võ 1
▁bạo 1
▁Lúc 1
hắc 1
▁Cầu 1
▁dị 1
▁Toàn 1
▁[ 1
▁ghé 1
▁Thảo 1
▁khẩn 1
hiếp 1
▁Nông 1
▁Internet 1
▁bu 1
▁kiệm 1
▁hồng 1
un 1
ồ 1
▁Đường 1
▁Phước 1
▁dày 1
▁bây 1
▁GT 1
▁City 1
▁lẻ 1
hì 1
▁loạn 1
▁lâm 1
▁tiềm 1
▁khung 1
▁Cổ 1
▁thiểu 1
VT 1
4 1
▁trữ 1
ột 1
▁hiếm 1
The 1
▁tây 1
▁mai 1
▁trúng 1
▁miệng 1
▁bú 1
▁2015 1
▁Thơ 1
â 1
▁ngã 1
▁Đa 1
▁Lộc 1
▁phức 1
▁lành 1
▁Số 1
▁hoang 1
▁xưa 1
▁lí 1
▁vua 1
▁Học 1
▁rẻ 1
▁phú 1
▁BH 1
▁đấy 1
▁cướp 1
▁giọng 1
▁Lễ 1
▁làn 1
▁Hình 1
▁Mới 1
▁mưu 1
▁500 1
▁Su 1
▁gá 1
); 1
▁thờ 1
▁Hơn 1
da 1
▁bụng 1
▁Nữ 1
▁gạo 1
▁thả 1
ời 1
▁Iran 1
ă 1
▁nấu 1
óm 1
▁Thi 1
▁chì 1
▁đập 1
▁Mặt 1
▁Tin 1
▁Vậy 1
▁CS 1
▁xâm 1
▁khóc 1
▁sổ 1
▁Kiể 1
▁khen 1
7 1
▁trại 1
áp 1
▁thảm 1
▁ni 1
CP 1
▁vỏ 1
ặt 1
▁THPT 1
SN 1
▁Phụ 1
▁Tĩnh 1
▁đậu 1
▁non 1
▁Đỗ 1
▁huống 1
▁nhắn 1
ăm 1
▁Lưu 1
▁hùng 1
▁Khoản 1
/2017 1
▁hộp 1
ếp 1
▁lãm 1
▁Đề 1
▁che 1
▁nhảy 1
▁giỏi 1
▁hò 1
▁phấn 1
▁mát 1
▁chối 1
▁điển 1
Ư 1
▁Tàu 1
▁nhiêu 1
▁vá 1
/1 1
▁Ai 1
▁mùi 1
▁lỗ 1
▁diệt 1
▁trộm 1
▁ngộ 1
ưởng 1
▁Malaysia 1
▁dâu 1
▁Hoàn 1
▁thượng 1
▁Chelsea 1
đu 1
▁clip 1
▁kín 1
▁Nguồn 1
▁giáp 1
▁trứng 1
▁rửa 1
▁p 1
ình 1
▁tổn 1
▁Quá 1
▁thăng 1
▁dà 1
▁ngoái 1
▁mũi 1
▁trật 1
han 1
▁Loan 1
▁Thậ 1
▁Song 1
▁0 1
▁dã 1
▁giật 1
▁đừng 1
▁dám 1
▁nhi 1
▁Tháng 1
▁tường 1
▁phẫu 1
▁Hậu 1
▁trốn 1
▁TS 1
▁bốn 1
▁tiếc 1
▁ru 1
▁Trá 1
▁CP 1
▁đốt 1
▁Bài 1
▁Singapore 1
▁ASEAN 1
▁Hợp 1
▁Tú 1
gi 1
▁trục 1
▁chùa 1
/2 1
▁ga 1
▁Chiều 1
▁TNHH 1
àn 1
23 1
▁bột 1
▁thép 1
▁sa 1
▁uy 1
hã 1
▁huynh 1
▁hỏng 1
▁My 1
▁Bằng 1
▁tàng 1
▁cột 1
▁tan 1
▁Lai 1
▁ngo 1
▁phu 1
▁Philippines 1
▁Đinh 1
▁Bác 1
ỗi 1
▁cãi 1
▁Xã 1
▁thở 1
▁mực 1
▁Viet 1
▁Huỳnh 1
▁TH 1
ta 1
▁thang 1
▁300 1
ũng 1
▁quang 1
▁kiên 1
▁* 1
▁TT 1
▁viêm 1
iệu 1
▁Ri 1
▁lừa 1
▁31 1
▁nhượng 1
ì 1
▁70 1
▁Hãy 1
▁cờ 1
co 1
▁xương 1
▁hiến 1
▁tật 1
▁Bi 1
ỉnh 1
▁2010 1
▁túc 1
▁Mô 1
▁não 1
▁điệu 1
▁hứa 1
▁bê 1
▁gợi 1
es 1
▁ví 1
▁Z 1
▁vời 1
ịnh 1
áng 1
▁bếp 1
/12 1
ph 1
▁vinh 1
▁lưng 1
▁Indonesia 1
▁De 1
gu 1
▁dinh 1
▁game 1
▁trầm 1
▁Tỉnh 1
CN 1
▁mệnh 1
▁ôm 1
▁Al 1
Vi 1
▁Danh 1
TP 1
▁ngưỡng 1
▁să 1
ạo 1
▁hồn 1
▁đâ 1
▁Google 1
▁đức 1
ýt 1
▁trá 1
▁Quan 1
▁lãng 1
▁Kế 1
6 1
▁ruột 1
▁Tiếp 1
▁đắt 1
▁tắm 1
▁sắm 1
▁bạch 1
▁tháo 1
▁Lao 1
úc 1
ang 1
▁Lu 1
▁Reuters 1
▁sôi 1
▁Phần 1
5 1
PT 1
▁... 1
▁hi 1
▁phỏng 1
▁kì 1
▁Cà 1
▁đậm 1
hờ 1
▁Arsenal 1
ba 1
▁Nói 1
▁Tiểu 1
is 1
uổi 1
▁Bá 1
▁tiê 1
▁nhũng 1
▁Huyền 1
▁Tra 1
▁Thư 1
▁fan 1
/2016 1
▁Quý 1
▁đế 1
▁đỗ 1
▁cỏ 1
▁mãn 1
▁mệt 1
▁lồ 1
tô 1
▁Nhất 1
▁Chiếc 1
▁mồ 1
8 1
▁ro 1
/2018 1
▁lầm 1
▁4. 1
ó 1
▁hổ 1
▁Ý 1
▁giây 1
▁EU 1
ma 1
▁chúc 1
▁Ni 1
▁vương 1
▁Obama 1
▁nhé 1
qu 1
▁chăn 1
▁Madrid 1
▁nhánh 1
son 1
▁Israel 1
▁Ca 1
▁tân 1
▁tròn 1
▁Truyền 1
▁nhãn 1
▁thơm 1
▁mảnh 1
30 1
▁rủi 1
▁2011 1
▁trà 1
▁So 1
▁giấu 1
▁ảo 1
▁Hôm 1
▁dường 1
▁só 1
▁tông 1
▁Trin 1
▁gọn 1
▁Mã 1
▁mi 1
▁Cái 1
▁xuân 1
▁Diễn 1
bank 1
▁phái 1
▁Hành 1
▁ná 1
▁võ 1
▁cương 1
▁2014 1
ung 1
le 1
▁Dung 1
ằm 1
▁Mà 1
▁1.000 1
▁tang 1
▁mú 1
▁tảng 1
ét 1
▁lặng 1
▁mỏi 1
▁dâm 1
▁lính 1
▁of 1
▁xứng 1
▁trần 1
▁cất 1
BV 1
▁rá 1
▁điệp 1
AND 1
▁Chung 1
▁tắt 1
▁Tính 1
ong 1
▁vẽ 1
▁Ronaldo 1
▁2016, 1
▁lọc 1
▁35 1
F 1
▁há 1
▁gã 1
▁á 1
▁Cá 1
▁Cuối 1
la 1
▁Sinh 1
iếng 1
▁cổng 1
▁chừng 1
▁Trịnh 1
▁II 1
▁than 1
▁viễn 1
ni 1
ược 1
▁Iraq 1
CS 1
▁Hệ 1
▁Giấy 1
Tôi 1
▁mét 1
▁Mẹ 1
▁Thể 1
ậm 1
▁béo 1
▁đạp 1
▁thoải 1
▁Samsung 1
▁dí 1
no 1
▁News 1
▁Câu 1
▁Thống 1
▁chả 1
▁ven 1
ám 1
▁bia 1
▁Tam 1
▁Washington 1
al 1
man 1
▁Putin 1
▁York 1
▁dược 1
▁răng 1
▁80 1
▁thước 1
▁cỡ 1
▁camera 1
▁hàm 1
▁Đi 1
▁tàn 1
ái 1
VOV 1
▁chuỗi 1
▁Làm 1
de 1
▁chua 1
the 1
▁Donald 1
▁J 1
▁hảo 1
▁lang 1
▁mì 1
▁trôi 1
▁Brazil 1
▁trống 1
QĐ 1
▁45 1
▁2017. 1
▁web 1
TS 1
▁bơi 1
do 1
▁khuyên 1
▁Kiều 1
▁Campuchia 1
ném 1
TQ 1
▁90 1
▁khuẩn 1
▁Đã 1
hế 1
▁thói 1
▁Chánh 1
▁ngực 1
▁Lợi 1
NĐ 1
▁miếng 1
▁Australia 1
▁khiếu 1
lo 1
ida 1
z 1
hê 1
▁Da 1
▁the 1
▁Đăng 1
▁Bu 1
iệm 1
▁Khả 1
▁Điểm 1
iển 1
▁giấc 1
▁Khan 1
▁mò 1
ượn 1
▁trưa 1
▁Xe 1
▁bớt 1
úp 1
ười 1
to 1
▁sánh 1
hù 1
te 1
ia 1
▁gan 1
▁đĩa 1
▁Hạnh 1
▁Kha 1
▁à 1
▁5. 1
▁thiệp 1
▁de 1
▁ngừa 1
▁nở 1
▁đà 1
▁TN 1
▁2016. 1
FF 1
9 1
▁Nước 1
▁hối 1
▁Xu 1
iềm 1
▁al 1
▁smartphone 1
▁Tá 1
▁Bồ 1
▁Bố 1
▁truyện 1
▁giày 1
▁nhá 1
▁o 1
▁Park 1
▁lông 1
▁Chưa 1
▁bề 1
um 1
Qu 1
▁tủ 1
ót 1
▁trọ 1
▁va 1
hu 1
▁thự 1
▁Bạch 1
▁Ma 1
▁bi 1
▁tiệc 1
▁Le 1
▁Sao 1
▁má 1
▁Phật 1
▁Ti 1
10 1
ậy 1
▁Tự 1
▁Lãnh 1
▁No 1
▁Mọi 1
▁giận 1
▁2018. 1
km 1
ra 1
▁he 1
▁MC 1
▁Nhóm 1
▁Bước 1
▁Doanh 1
▁triệt 1
▁32 1
▁giường 1
ya 1
▁Co 1
▁ngạc 1
▁say 1
▁hà 1
▁Trí 1
▁tĩnh 1
19 1
▁nhựa 1
/2015 1
▁36 1
▁Canada 1
▁Đất 1
ằ 1
▁100% 1
▁trộn 1
▁Động 1
▁Nhìn 1
KS 1
▁CT 1
▁pin 1
▁Tử 1
▁San 1
▁Thiếu 1
▁nhàng 1
▁Messi 1
▁mạo 1
▁đựng 1
▁leo 1
▁Địa 1
ton 1
▁Tri 1
▁đẻ 1
▁nút 1
tr 1
▁Trả 1
▁khuyết 1
▁sơn 1
▁nhịp 1
▁Trị 1
▁2015, 1
▁NH 1
▁vu 1
▁Thiết 1
ti 1
▁chiêu 1
▁i 1
▁Giờ 1
▁Paris 1
O 1
▁NS 1
▁chuyền 1
▁vĩ 1
▁ngọn 1
500 1
▁Bị 1
▁triều 1
▁2012 1
▁Video 1
CK 1
▁ám 1
▁400 1
▁W 1
▁bát 1
▁móc 1
▁bận 1
▁Thay 1
▁Mourinho 1
▁John 1
▁AFP 1
▁2020 1
▁hằng 1
▁man 1
League 1
▁Phải 1
4% 1
▁Tham 1
▁soạn 1
iếm 1
▁Máy 1
▁Bất 1
▁cẩn 1
▁Tăng 1
▁GS 1
▁đắn 1
NT 1
▁vẹn 1
▁Lịch 1
chè 1
▁bụi 1
I 1
▁2013 1
6% 1
▁hẹp 1
▁khoáng 1
▁Champions 1
▁hung 1
▁6. 1
▁Olympic 1
ly 1
-3 1
se 1
ley 1
▁Barca 1
▁trọn 1
): 1
▁muộn 1
ha 1
▁HA 1
Y 1
▁Galaxy 1
▁Cha 1
▁chuột 1
▁rãi 1
-9 1
▁rũ 1
▁Phí 1
▁bọn 1
▁2010, 1
▁bông 1
▁khâu 1
GS 1
▁2009 1
▁Nghiên 1
▁Liverpool 1
net 1
▁Triệu 1
▁Úc 1
▁Đồ 1
▁Tho 1
▁đeo 1
▁Sử 1
▁01 1
▁chán 1
▁mm 1
▁mỏng 1
▁vội 1
ga 1
re 1
▁taxi 1
▁tú 1
▁Cai 1
▁Ta 1
▁mỡ 1
▁Lam 1
9% 1
▁150 1
3% 1
huyện 1
▁50% 1
Ch 1
▁nô 1
▁vitamin 1
▁Kiến 1
▁Đạo 1
▁thuần 1
▁hắn 1
ượt 1
ro 1
▁David 1
▁nghiện 1
▁ngựa 1
▁lão 1
▁Căn 1
ép 1
▁Nhận 1
▁go 1
▁gh 1
▁bọc 1
▁nhạy 1
▁London 1
▁rỡ 1
▁khứ 1
▁ngón 1
▁show 1
8% 1
▁Xem 1
▁KH 1
E 1
Ph 1
▁xoay 1
▁El 1
▁MT 1
-2 1
-5 1
▁Lo 1
nam 1
2% 1
▁MV 1
▁vươn 1
▁vang 1
phe 1
▁thâm 1
▁Vin 1
▁dọn 1
chi 1
▁Sư 1
2. 1
kho 1
▁quyến 1
▁Ly 1
▁Po 1
▁Lee 1
▁Sản 1
▁Vị 1
▁đắp 1
▁bì 1
▁Dưới 1
HQ 1
ov 1
▁tiễn 1
▁tha 1
20 1
▁Se 1
GL 1
▁ưa 1
▁May 1
ul 1
sin 1
▁nướng 1
▁mạn 1
▁MU 1
▁sáu 1
▁Ví 1
▁tháp 1
▁Cập 1
▁Mùa 1
▁ngu 1
▁thoái 1
▁album 1
▁Top 1
ka 1
rung 1
▁top 1
▁mày 1
▁e 1
▁Android 1
▁nhầm 1
▁Đơn 1
▁co 1
▁Xin 1
▁Go 1
ar 1
▁ngợi 1
▁Barcelona 1
▁Chuyện 1
▁NATO 1
/2014 1
▁Giới 1
CB 1
▁7. 1
▁Tô 1
▁Si 1
va 1
NTT 1
▁HS 1
▁Vận 1
▁thô 1
▁qué 1
▁hot 1
em 1
▁bổng 1
▁2014, 1
▁Games 1
-4 1
▁đệ 1
▁Hiệu 1
▁nu 1
▁2015. 1
▁In 1
▁rè 1
▁Cứ 1
-7 1
aceae 1
ce 1
▁Ge 1
hung 1
▁600 1
▁Moscow 1
▁Van 1
▁mọc 1
-6 1
▁nấm 1
kh 1
▁Argentina 1
& 1
▁Khách 1
con 1
▁bón 1
rong 1
▁dĩ 1
▁khớp 1
▁huyền 1
▁nụ 1
▁Quận 1
▁chan 1
▁Premier 1
▁chô 1
▁khống 1
▁Thật 1
am 1
▁Mục 1
▁kem 1
kg 1
▁mè 1
▁ong 1
▁Windows 1
li 1
▁tuệ 1
▁Mexico 1
▁khéo 1
▁xi 1
NH 1
QT 1
▁Cu 1
▁Mau 1
▁bỗng 1
▁Tí 1
BOT 1
▁euro 1
▁Ô 1
không 1
▁Kho 1
▁kí 1
▁Ga 1
2016 1
▁10.000 1
▁giãn 1
▁Chia 1
▁Lạc 1
▁li 1
▁nhẫn 1
NG 1
▁hang 1
1% 1
▁United 1
▁1,5 1
NV 1
▁rực 1
ca 1
▁Cam 1
-10 1
UB 1
▁lỏng 1
▁Daily 1
▁Viên 1
▁mí 1
ói 1
YT 1
ham 1
▁Microsoft 1
▁nảy 1
út 1
Bank 1
▁Đừng 1
▁10. 1
▁long 1
▁Thêm 1
-1 1
▁2.000 1
▁Câ 1
▁cò 1
▁Tôn 1
▁8. 1
▁lùi 1
▁trin 1
▁PC 1
▁Lạt 1
▁mờ 1
▁Ja 1
ão 1
▁voi 1
▁Yo 1
▁Can 1
rì 1
▁tò 1
▁dịu 1
▁CH 1
▁33 1
▁im 1
▁10% 1
▁Dịch 1
▁cài 1
▁đắc 1
▁He 1
NL 1
-8 1
▁Tên 1
▁bơm 1
ed 1
▁Bé 1
12 1
▁thánh 1
R 1
▁Rồi 1
▁website 1
Tr 1
▁120 1
▁37 1
▁Honda 1
▁đùa 1
▁TV 1
▁Ra 1
HCM 1
▁san 1
▁Tiếng 1
▁Pa 1
thu 1
▁trượt 1
mi 1
▁SEA 1
os 1
▁Jong 1
rò 1
NA 1
▁Vu 1
be 1
▁38 1
▁thoáng 1
▁9. 1
▁dừa 1
▁ré 1
w 1
ri 1
▁virus 1
▁Bán 1
▁Triển 1
▁đê 1
èn 1
vi 1
5% 1
▁Xuất 1
▁Myanmar 1
11 1
▁gối 1
▁20% 1
▁Manchester 1
▁Vấn 1
▁cai 1
▁Cuba 1
-11 1
▁bă 1
▁Lập 1
▁Ha 1
▁nhắm 1
▁phô 1
▁bảy 1
▁800 1
▁Chuyên 1
ịch 1
/2010 1
▁tím 1
▁Milan 1
▁chép 1
▁Nên 1
KT 1
ettel 1
▁34 1
▁ngơi 1
▁nhạt 1
Ho 1
▁Lá 1
▁30% 1
▁màng 1
ai 1
▁Tuyết 1
▁tẩy 1
▁Giả 1
▁Re 1
DL 1
▁2008 1
▁trội 1
CV 1
▁kha 1
▁Trẻ 1
▁Hay 1
ko 1
▁né 1
sk 1
ẳ 1
▁Sang 1
Ng 1
5.000 1
▁cm 1
% 1
2017 1
▁hiển 1
▁CN 1
▁Cậu 1
▁đớn 1
▁phà 1
▁Mình 1
▁2013, 1
▁ơi 1
mo 1
." 1
▁chăng 1
▁and 1
▁Chứng 1
Chúng 1
▁Chân 1
▁Há 1
▁Phá 1
▁si 1
by 1
▁Euro 1
45 1
▁cậy 1
▁internet 1
iếc 1
▁Quyền 1
▁tour 1
▁III 1
go 1
▁vạn 1
ry 1
▁mă 1
▁Hiển 1
HT 1
▁Me 1
▁hãi 1
GDP 1
▁Quả 1
▁Kỹ 1
▁khe 1
/2013 1
có 1
▁Thân 1
▁2009, 1
me 1
▁2014. 1
Ứ 1
▁Vy 1
▁Air 1
ke 1
▁2012, 1
▁2-3 1
▁Bayern 1
7% 1
▁thọ 1
▁2011, 1
▁700 1
▁chém 1
▁gũi 1
▁thầm 1
▁Tha 1
▁Phố 1
TM 1
-12 1
▁Thần 1
▁Tre 1
ki 1
▁HD 1
▁ti 1
ín 1
▁showbiz 1
▁Alex 1
▁Toyota 1
▁phiền 1
▁48 1
di 1
▁PT 1
▁Kong 1
▁Be 1
▁AT 1
▁mộng 1
▁Tác 1
▁3.000 1
▁tuyết 1
▁HIV 1
é 1
▁lă 1
hi 1
▁Hong 1
▁55 1
▁AP 1
▁42 1
hang 1
▁lân 1
bi 1
land 1
BS 1
▁hé 1
▁APEC 1
▁mụn 1
▁châ 1
HN 1
der 1
▁5.000 1
▁Inter 1
▁chuộng 1
▁oan 1
▁Sức 1
▁Times 1
▁điên 1
▁Sun 1
▁Afghanistan 1
MT 1
▁James 1
▁Tiêu 1
▁Chá 1
▁Cửa 1
/2011 1
▁thấm 1
300 1
/12/ 1
15 1
▁dán 1
▁Sá 1
▁Ya 1
▁Han 1
▁Italy 1
▁Bó 1
▁ló 1
il 1
▁đụng 1
▁chá 1
▁Hướng 1
CCC 1
▁Ne 1
▁ao 1
▁12. 1
▁Kiếm 1
hà 1
▁Thầy 1
▁Plus 1
▁39 1
▁đúc 1
▁gay 1
si 1
▁men 1
▁no 1
▁lát 1
▁Sen 1
▁Pro 1
▁nhị 1
▁09 1
CL 1
▁Ar 1
▁SH 1
▁Bây 1
▁Za 1
▁11. 1
▁tí 1
▁Thánh 1
▁ran 1
▁lõi 1
▁2019 1
/11/ 1
▁Kon 1
▁Ben 1
▁phơi 1
▁Viễn 1
▁Ka 1
600 1
▁Michael 1
▁Airlines 1
▁Cảm 1
▁mười 1
J 1
▁100.000 1
▁Cố 1
Anh 1
▁Saudi 1
▁đằng 1
xit 1
▁Ngu 1
▁na 1
▁Miss 1
▁Mu 1
/10/ 1
▁Cung 1
f 1
▁Sam 1
▁Đánh 1
▁(" 1
ie 1
▁250 1
▁Loại 1
as 1
▁Italia 1
800 1
▁Nguyệt 1
bo 1
▁Clip 1
ve 1
▁Môn 1
▁Car 1
▁nha 1
▁Phủ 1
▁Chất 1
▁Twitter 1
hó 1
▁02 1
ine 1
▁Dùng 1
én 1
▁lé 1
▁Tokyo 1
▁65 1
TN 1
ura 1
▁Viết 1
▁Clinton 1
uyễn 1
xi 1
▁Shi 1
▁Grab 1
6.000 1
▁BS 1
▁Phân 1
▁California 1
▁lưỡi 1
21 1
Nam 1
ny 1
▁trăng 1
▁Don 1
▁thằng 1
▁Pe 1
▁thạch 1
In 1
GB 1
") 1
▁West 1
▁Pakistan 1
XX 1
thi 1
▁(2 1
17 1
▁Lục 1
▁(19 1
▁iPad 1
show 1
▁Ky 1
▁lui 1
▁Kiệt 1
▁Ăn 1
▁kĩ 1
▁son 1
▁Uber 1
▁43 1
▁lặp 1
▁Ke 1
NX 1
▁cởi 1
▁van 1
/2009 1
▁hận 1
▁Min 1
▁46 1
▁email 1
▁Ko 1
▁nâu 1
it 1
▁2007 1
DC 1
400 1
▁live 1
▁Yêu 1
▁Paul 1
▁Ali 1
▁(1 1
▁trơ 1
▁Ro 1
ge 1
ol 1
▁Che 1
▁sướng 1
▁sen 1
▁FIFA 1
▁20.000 1
▁64 1
▁tê 1
▁Get 1
Gi 1
▁Chú 1
CC 1
oxy 1
sa 1
▁70% 1
▁lắc 1
▁2006 1
▁Uy 1
▁Shin 1
ford 1
PC 1
▁Rooney 1
W 1
▁online 1
den 1
▁Martin 1
▁2010. 1
▁Vladimir 1
rã 1
18 1
▁chà 1
kin 1
▁chip 1
▁lán 1
-35 1
▁US 1
Tìm 1
ku 1
▁container 1
▁2000 1
▁Trưng 1
▁soi 1
▁75 1
▁bô 1
25 1
▁Nokia 1
TB 1
▁Khởi 1
▁KT 1
▁2008, 1
▁Xan 1
▁Chế 1
200 1
▁Bảng 1
▁Trời 1
▁CEO 1
▁Jo 1
▁Âm 1
▁2,5 1
GD 1
▁rung 1
▁41 1
▁sé 1
▁Lời 1
▁51 1
▁eo 1
16 1
▁ham 1
▁Ham 1
▁Mail 1
▁Har 1
▁2012. 1
▁Ford 1
phi 1
,7% 1
700 1
âng 1
▁1990 1
▁30.000 1
xí 1
▁giọt 1
ensis 1
▁nương 1
▁Bin 1
▁80% 1
▁Hoạt 1
▁Tottenham 1
▁SL 1
▁1-2 1
▁Muốn 1
▁SV 1
▁Lại 1
ck 1
id 1
▁Má 1
là 1
ster 1
▁facebook 1
▁vặt 1
▁40% 1
▁49 1
▁Mar 1
tà 1
xin 1
▁44 1
cm 1
100 1
▁Neymar 1
▁Nú 1
que 1
▁Ji 1
▁Mark 1
at 1
▁AFF 1
2018 1
▁Maria 1
men 1
▁FC 1
mm 1
Z 1
▁mịn 1
▁robot 1
▁điê 1
▁ạ 1
râm 1
▁Venezuela 1
▁radar 1
▁Sai 1
▁Nhạc 1
▁1,2 1
▁Lăng 1
LC 1
▁47 1
40 1
-2017 1
▁Juventus 1
▁1999 1
▁50.000 1
DI 1
▁mươi 1
kov 1
▁Hang 1
jo 1
▁90% 1
▁Bo 1
▁chư 1
Net 1
▁Chúa 1
▁girl 1
gie 1
▁Mac 1
▁kép 1
▁Dược 1
nia 1
▁TC 1
▁chù 1
▁Dạ 1
▁mé 1
gon 1
▁quyển 1
▁52 1
bách 1
75 1
▁Í 1
2015 1
▁2013. 1
▁Tinh 1
/2012 1
wa 1
▁Seoul 1
▁03 1
▁Liệu 1
▁1) 1
▁Palestin 1
“ 1
▁Liga 1
dy 1
im 1
line 1
▁05 1
▁Già 1
BC 1
dex 1
che 1
▁đính 1
om 1
▁2002 1
22 1
PO 1
▁Sony 1
▁63 1
▁hó 1
▁Chin 1
35 1
▁Je 1
osa 1
▁Tum 1
el 1
cha 1
▁xen 1
▁Star 1
▁Group 1
GP 1
tră 1
▁200.000 1
ler 1
SC 1
▁As 1
▁vân 1
▁Mười 1
▁tam 1
▁Xa 1
▁110 1
▁Pu 1
ic 1
▁Kiev 1
▁lê 1
mu 1
▁Wi 1
-2016 1
ria 1
▁Old 1
8.000 1
▁54 1
14 1
HS 1
tra 1
▁Thú 1
ván 1
▁72 1
▁PH 1
▁2011. 1
TPP 1
▁Qatar 1
pha 1
▁Barack 1
▁One 1
▁Hollywood 1
▁VI 1
▁rô 1
Ki 1
or 1
▁CNN 1
▁ướt 1
?" 1
▁Grand 1
▁iOS 1
▁thèm 1
▁Black 1
cho 1
▁Đời 1
▁ê 1
▁râ 1
▁Nu 1
▁4.000 1
DT 1
VP 1
7.000 1
▁(3 1
ẵ 1
▁tia 1
▁GP 1
▁Cal 1
▁Online 1
TH 1
▁giặt 1
▁BBC 1
há 1
▁Zealand 1
ek 1
▁1.500 1
▁Per 1
▁We 1
TK 1
▁5% 1
▁LG 1
▁2: 1
▁TR 1
▁nga 1
▁(18 1
▁4.0 1
hy 1
▁BMW 1
26 1
gh 1
▁56 1
FC 1
▁1: 1
▁gai 1
▁Jose 1
’ 1
▁bar 1
ina 1
▁Pen 1
▁tao 1
▁Te 1
▁thê 1
▁1980 1
▁500.000 1
▁20. 1
▁Colombia 1
Người 1
13 1
ít 1
lon 1
ngu 1
zo 1
▁Bank 1
▁Arabia 1
▁MTV 1
ir 1
▁Món 1
▁Libya 1
▁2005 1
50 1
ber 1
Tha 1
bin 1
▁Cor 1
▁rong 1
▁'' 1
24 1
▁04 1
hên 1
po 1
▁Vật 1
▁Los 1
▁Tru 1
▁Tim 1
▁Ber 1
phy 1
pa 1
▁scandal 1
lan 1
ner 1
ex 1
▁protein 1
▁Hiểu 1
▁tóm 1
▁rốt 1
▁Munich 1
Assad 1
▁14. 1
▁60% 1
▁PSG 1
900 1
▁Fu 1
@ 1
La 1
ANT 1
▁Mobi 1
tu 1
▁IV 1
▁HO 1
▁Atletico 1
▁Tran 1
▁hao 1
▁Super 1
▁Post 1
za 1
PL 1
▁Robert 1
▁53 1
bong 1
▁Pha 1
▁Kan 1
▁Bar 1
ché 1
ez 1
ok 1
-2015 1
▁Ale 1
▁Angela 1
▁Ku 1
▁xay 1
des 1
tha 1
99 1
TW 1
▁Crime 1
Fo 1
00 1
▁George 1
▁Note 1
▁15. 1
rez 1
▁vĩnh 1
▁tru 1
Chi 1
▁1-1 1
▁hét 1
▁Wenger 1
▁golf 1
▁Tom 1
▁Hot 1
▁Hỗ 1
ur 1
BP 1
▁Mo 1
▁GB 1
sky 1
▁2-1 1
LS 1
▁Mercedes 1
▁Instagram 1
▁2) 1
▁ú 1
▁Won 1
▁2030 1
▁Pi 1
ad 1
▁Mc 1
▁St 1
▁130 1
▁Oscar 1
▁YouTube 1
▁Ver 1
▁13. 1
ji 1
▁62 1
▁Mua 1
so 1
▁XII 1
▁En 1
HC 1
▁(4 1
▁MH 1
thon 1
▁Trafford 1
▁2007, 1
▁Sputnik 1
▁Â 1
▁1975 1
news 1
▁1000 1
▁58 1
▁= 1
▁Ex 1
▁Her 1
▁2009. 1
ella 1
/7/ 1
▁nhỉ 1
▁TM 1
▁59 1
rót 1
▁Big 1
▁nan 1
trá 1
▁2-0 1
▁13, 1
▁Thẩm 1
IS 1
▁Đang 1
▁lung 1
▁â 1
▁ră 1
ppo 1
NO 1
xé 1
▁85 1
▁rê 1
▁NG 1
▁Chàng 1
▁1995 1
st 1
MP 1
▁té 1
▁dì 1
▁hoi 1
▁Chúc 1
▁1/3 1
Ế 1
▁khan 1
-2018 1
yan 1
chu 1
Hu 1
▁Young 1
▁67 1
27 1
ver 1
▁dặm 1
CH 1
▁Sport 1
▁Lang 1
▁dai 1
32 1
▁57 1
▁Amazon 1
▁út 1
ana 1
▁Bangkok 1
ak 1
PF 1
▁Hari 1
▁Kurd 1
tus 1
▁1992 1
▁Villa 1
▁1998 1
▁mini 1
▁Vô 1
29 1
▁rụng 1
lin 1
▁Tp 1
MB 1
DV 1
▁Mas 1
▁15% 1
ard 1
▁Chile 1
-0 1
▁qui 1
▁hả 1
ban 1
tin 1
▁RAM 1
▁Pan 1
hân 1
▁neo 1
▁Din 1
▁dan 1
▁Chan 1
▁sexy 1
▁hí 1
▁FA 1
EU 1
Không 1
▁Chăm 1
▁1994 1
▁Land 1
▁ngài 1
my 1
sh 1
lén 1
▁68 1
▁Peter 1
▁16. 1
▁300.000 1
▁18. 1
per 1
▁17. 1
▁Gu 1
▁900 1
su 1
▁25% 1
70 1
ten 1
▁Son 1
▁1997 1
▁nhôm 1
▁1993 1
▁Cú 1
▁dép 1
▁nhăn 1
▁3,5 1
▁Abe 1
▁Harry 1
▁BI 1
▁Cer 1
▁Trình 1
MC 1
NK 1
▁Biểu 1
▁Bitcoin 1
▁Pep 1
▁180 1
▁08 1
▁2004 1
▁HP 1
ling 1
-2020 1
▁1996 1
▁61 1
▁Bill 1
▁19. 1
%) 1
▁Ireland 1
▁Ju 1
▁Victoria 1
ngày 1
▁1989 1
CT 1
-20 1
95 1
▁Yu 1
▁set 1
tivi 1
▁Intel 1
▁06 1
fi 1
2014 1
▁việt 1
Nếu 1
▁Ut 1
AD 1
▁le 1
CO 1
shi 1
EC 1
▁2020. 1
▁1,3 1
▁Mos 1
ja 1
oi 1
gue 1
▁99 1
ami 1
▁Than 1
▁Khám 1
cu 1
▁Mạng 1
▁tem 1
▁Model 1
39 1
▁22. 1
▁1988 1
▁International 1
▁nhược 1
▁ND 1
▁gas 1
Ô 1
▁HTC 1
▁gen 1
▁Mega 1
▁Jack 1
▁1991 1
▁Sky 1
ei 1
ron 1
▁Ghi 1
80.000 1
▁Costa 1
cy 1
▁Eu 1
tăm 1
▁lì 1
-2010 1
TD 1
ata 1
46 1
đi 1
▁1982 1
IC 1
▁Tour 1
▁dê 1
▁ri 1
▁ke 1
▁Louis 1
▁Jordan 1
36 1
tan 1
▁Moon 1
▁Tai 1
-15 1
50.000 1
▁Boeing 1
Con 1
▁Ci 1
▁CA 1
▁UNESCO 1
▁140 1
ST 1
▁Sống 1
▁Festival 1
ff 1
▁15.000 1
▁ní 1
▁1970 1
dan 1
▁160 1
80 1
▁92 1
pe 1
▁Face 1
tar 1
▁Thích 1
▁AC 1
▁laptop 1
▁1-0 1
▁1986 1
▁Roma 1
▁gu 1
▁Bale 1
▁Yemen 1
Ba 1
▁She 1
▁350 1
kovic 1
▁Daniel 1
HH 1
SE 1
▁Ukraina 1
ay 1
▁Sina 1
▁2.0 1
▁quỷ 1
DA 1
9.000 1
opter 1
▁Tuyển 1
▁2006, 1
ini 1
Tu 1
▁Sha 1
up 1
Những 1
▁Sé 1
▁(5 1
ft 1
▁Berlin 1
▁vơ 1
Co 1
▁Asia 1
ther 1
▁95 1
din 1
28 1
▁USB 1
▁Wall 1
SG 1
▁nê 1
▁Ce 1
▁karaoke 1
▁1,6 1
phone 1
2010 1
bu 1
▁2008. 1
▁tớ 1
JC 1
KH 1
▁Sir 1
ovic 1
op 1
ves 1
field 1
▁Xi 1
▁Hungary 1
ze 1
▁1/1 1
▁Chuyển 1
41 1
Fi 1
lk 1
▁hit 1
KV 1
▁se 1
SA 1
Le 1
ning 1
▁Saint 1
▁Red 1
▁88 1
lott 1
▁sim 1
▁Sua 1
▁3-4 1
▁ATM 1
Ố 1
▁66 1
▁2003 1
▁1987 1
▁Mor 1
▁69 1
▁07 1
%, 1
▁Bra 1
ud 1
▁LED 1
▁Ram 1
▁Feder 1
Li 1
cida 1
-22 1
▁Mong 1
▁40.000 1
33 1
▁gam 1
ers 1
▁Angeles 1
▁Am 1
▁3: 1
▁Diện 1
-30 1
▁Diego 1
car 1
tên 1
▁Thomas 1
+ 1
▁71 1
mann 1
▁SC 1
▁pho 1
ter 1
▁bo 1
37 1
▁Moskva 1
▁82 1
yo 1
enko 1
▁Bur 1
▁73 1
-16 1
▁ve 1
▁? 1
▁War 1
GK 1
▁Idol 1
▁Ple 1
stan 1
hong 1
▁Green 1
▁Km 1
qua 1
▁Youtube 1
▁len 1
▁Cristiano 1
▁Show 1
▁BL 1
58 1
▁China 1
đa 1
▁Richard 1
▁2005, 1
▁Taylor 1
| 1
▁Ru 1
▁2001 1
▁Il 1
▁86 1
▁Merkel 1
62 1
▁bikini 1
▁1985 1
▁Guardiola 1
phu 1
▁TD 1
mar 1
▁CB 1
▁Bay 1
▁Chọn 1
43 1
▁Dan 1
HP 1
▁Ye 1
▁re 1
▁run 1
▁sá 1
GV 1
▁Audi 1
ci 1
nay 1
▁mít 1
▁Nadal 1
▁Dortmund 1
▁Max 1
0 1
chen 1
▁125 1
▁Tần 1
Sa 1
-18 1
rên 1
▁CR 1
phen 1
star 1
io 1
▁You 1
▁(6 1
▁1960 1
hay 1
▁21. 1
ville 1
▁19, 1
san 1
▁Luis 1
▁am 1
▁for 1
▁sex 1
▁Rio 1
way 1
ru 1
ODA 1
▁Ocean 1
▁1,8 1
▁Bang 1
▁Tay 1
FTA 1
ll 1
▁Hyundai 1
▁Vai 1
▁dè 1
▁Rau 1
▁Mang 1
-19 1
▁1/2 1
▁Nigeria 1
▁76 1
gen 1
▁ICT 1
au 1
▁South 1
ghi 1
▁tui 1
Ha 1
▁AIDS 1
▁Men 1
▁Đổi 1
▁17, 1
ker 1
▁23. 1
▁BT 1
zy 1
▁1.200 1
ut 1
well 1
60 1
31 1
ova 1
▁HC 1
ndo 1
▁Sta 1
▁Fox 1
▁cù 1
▁Ibrahim 1
▁Bor 1
kha 1
▁1,7 1
DN 1
eo 1
xê 1
▁Live 1
-400 1
▁William 1
▁Ngo 1
sau 1
ides 1
hé 1
wo 1
sha 1
▁Hillary 1
▁Steve 1
tis 1
▁All 1
du 1
VC 1
▁1/8 1
▁Camp 1
cò 1
-300 1
76 1
▁77 1
▁Gar 1
▁AN 1
▁79 1
▁1.0 1
▁rock 1
▁81 1
▁SIM 1
▁Serie 1
34 1
▁Form 1
▁Mer 1
NGU 1
72 1
2011 1
▁Para 1
uk 1
▁MP 1
▁Ran 1
awa 1
▁Carl 1
▁Er 1
▁EURO 1
▁Power 1
▁nang 1
nie 1
▁Por 1
▁MB 1
▁1984 1
▁Croatia 1
▁Brad 1
ion 1
▁AS 1
pop 1
▁me 1
▁Info 1
▁Zi 1
38 1
▁Út 1
▁(17 1
▁Gold 1
▁thâ 1
cia 1
ounce 1
▁teen 1
Ơ 1
▁Mazda 1
▁Everton 1
▁(20 1
▁Jean 1
▁2004, 1
Có 1
▁(23 1
▁Jan 1
▁83 1
2013 1
▁1,4 1
▁84 1
▁Is 1
▁2% 1
▁Fi 1
/2008 1
▁Home 1
▁ó 1
▁Ea 1
▁74 1
To 1
▁gật 1
ston 1
▁Né 1
ica 1
▁Leicester 1
Phone 1
min 1
▁Justin 1
▁Fan 1
▁Scotland 1
tor 1
▁Wales 1
cao 1
▁‘ 1
-2011 1
47 1
ger 1
▁Seo 1
DS 1
▁MW 1
000.000 1
▁2000, 1
Em 1
▁Az 1
▁rang 1
can 1
▁Mr 1
▁cúi 1
53 1
▁1945 1
▁Đọc 1
▁Un 1
eco 1
▁(10 1
48 1
1/10 1
▁Rock 1
ometri 1
▁Jennifer 1
▁Kr 1
vin 1
▁220 1
▁Tech 1
▁Ferguson 1
▁CAT 1
▁89 1
shin 1
▁Jun 1
▁25. 1
▁Love 1
▁model 1
▁(22 1
illa 1
MS 1
2009 1
▁78 1
▁Kat 1
ctu 1
▁Next 1
▁Noel 1
ity 1
▁Mal 1
▁Jin 1
▁3) 1
▁Beckham 1
▁CD 1
▁Global 1
63 1
berg 1
tic 1
Qaeda 1
tri 1
sia 1
Ễ 1
▁Bú 1
▁nguyệt 1
mer 1
▁King 1
▁Texas 1
▁Latin 1
▁Bloomberg 1
▁Dubai 1
▁1979 1
▁360 1
90.000 1
▁Thuốc 1
▁87 1
sen 1
▁Nghiệp 1
tes 1
▁Florida 1
▁NT 1
▁logo 1
▁Brexit 1
▁170 1
ot 1
▁2019. 1
55 1
▁Damasc 1
ah 1
▁Dar 1
ASI 1
bra 1
▁Peru 1
AV 1
▁DJ 1
▁Sanchez 1
gan 1
▁Ab 1
▁1983 1
ach 1
sey 1
tion 1
▁Xo 1
pol 1
PI 1
moni 1
lu 1
▁Charles 1
09 1
▁Open 1
▁der 1
ÀN 1
ou 1
ts 1
▁24. 1
▁1% 1
▁Motor 1
▁FB 1
▁sẹo 1
▁TG 1
est 1
ric 1
▁tro 1
▁Petro 1
ran 1
Express 1
▁4,5 1
▁CO 1
▁Ung 1
▁Hỏi 1
▁Serge 1
▁www 1
54 1
ney 1
rán 1
▁Chris 1
▁búa 1
ye 1
nó 1
49 1
▁Jones 1
-21 1
▁Valencia 1
cher 1
wi 1
▁2025 1
▁RT 1
▁Os 1
05 1
92 1
▁(7 1
▁Alexander 1
▁mau 1
▁Johnson 1
▁# 1
▁Đặt 1
SX 1
isto 1
▁3-0 1
▁Joe 1
▁TƯ 1
▁Ưu 1
▁Jackson 1
▁Soo 1
▁Henry 1
▁Mike 1
▁0,5 1
57 1
59 1
we 1
▁hú 1
▁Agri 1
▁CIA 1
▁then 1
▁(16 1
▁Dong 1
lla 1
▁115 1
ero 1
▁28. 1
▁(30 1
ƯƠNG 1
▁SE 1
▁Bridge 1
▁tua 1
mail 1
▁2/3 1
▁Jung 1
▁Shu 1
▁vs 1
84 1
▁Nick 1
oan 1
▁(8 1
Ni 1
ev 1
j 1
▁Yang 1
▁Berna 1
▁han 1
▁(9 1
vo 1
▁(15 1
THA 1
▁Duterte 1
▁XIV 1
▁21, 1
▁26. 1
▁Gian 1
bia 1
▁Or 1
ÂN 1
õi 1
-17 1
▁2007. 1
▁Nou 1
lida 1
▁91 1
▁Will 1
96 1
tter 1
▁laser 1
gas 1
dor 1
90 1
▁Arab 1
▁Tan 1
▁1968 1
▁2.500 1
▁stress 1
▁HU 1
93 1
▁Abu 1
ian 1
q 1
ii 1
▁Juan 1
▁file 1
▁2021 1
▁Kreml 1
book 1
▁1972 1
▁Bol 1
▁1981 1
▁Hắn 1
ō 1
▁Sho 1
ium 1
▁(24 1
▁bin 1
ju 1
▁mỉm 1
▁98 1
▁96 1
▁3-1 1
À 1
LX 1
▁Taliban 1
▁SUV 1
▁Serbia 1
▁Silva 1
▁rú 1
▁Mara 1
lar 1
uri 1
▁450 1
osh 1
▁Persi 1
▁Uruguay 1
BT 1
▁Yamaha 1
!" 1
▁27. 1
▁Et 1
▁nú 1
Â 1
WB 1
▁Nàng 1
▁Fab 1
▁on 1
-23 1
▁Tang 1
zi 1
▁3% 1
▁CC 1
dia 1
▁Ankara 1
▁Pra 1
▁(21 1
▁Sal 1
tho 1
-24 1
-2014 1
▁like 1
▁Sab 1
▁UEFA 1
nom 1
▁Phone 1
yl 1
▁Mary 1
▁diesel 1
▁For 1
▁Thôi 1
▁TB 1
bar 1
▁150.000 1
▁vo 1
▁Mon 1
64 1
▁Suzuki 1
▁Auto 1
chy 1
nic 1
▁Business 1
wan 1
tel 1
▁Frank 1
▁Ve 1
▁Ngài 1
1/3 1
▁93 1
▁1/4 1
▁Game 1
lor 1
▁Khmer 1
▁FBI 1
▁1.2 1
▁4-5 1
85 1
-2009 1
▁cholesterol 1
▁1976 1
tum 1
BA 1
▁1.5 1
xa 1
▁Media 1
page 1
PG 1
▁29. 1
▁(25 1
▁Mật 1
51 1
/2007 1
▁Tehran 1
▁Phường 1
▁Gene 1
pper 1
cus 1
cel 1
íu 1
▁Conte 1
▁Sy 1
▁Kia 1
ua 1
ico 1
▁Hin 1
82 1
▁MIN 1
▁Ang 1
▁Images 1
▁Erdogan 1
▁Asian 1
trú 1
▁heroin 1
Á 1
▁25.000 1
DF 1
Ồ 1
▁ghe 1
▁(27 1
▁hacker 1
▁massage 1
▁2003, 1
▁1978 1
▁Music 1
bon 1
chia 1
▁95% 1
▁BlackBerry 1
khi 1
▁Yahoo 1
▁Benz 1
mon 1
▁Wa 1
QS 1
▁mg 1
ington 1
ema 1
Na 1
▁giơ 1
▁KS 1
▁Jolie 1
▁Hô 1
An 1
▁Id 1
▁Vo 1
▁Smith 1
▁Ty 1
▁Ana 1
▁Zidane 1
Ú 1
▁Lionel 1
▁Gra 1
cc 1
FA 1
lam 1
▁SN 1
NM 1
try 1
nes 1
ml 1
▁Mó 1
▁Kerry 1
▁Brun 1
▁Fe 1
▁XI 1
52 1
▁Antonio 1
otti 1
▁1974 1
▁Guardian 1
▁105 1
-14 1
▁cat 1
gia 1
▁America 1
zil 1
▁1950 1
73 1
tró 1
44 1
▁108 1
vez 1
▁Dia 1
65 1
4.000 1
don 1
▁Mobile 1
▁(28 1
▁mó 1
▁(26 1
▁DA 1
▁Zen 1
▁Ry 1
▁Huawei 1
▁(12 1
nin 1
42 1
fe 1
▁Williams 1
▁Sú 1
ita 1
▁Sri 1
alis 1
xy 1
▁Street 1
▁Anna 1
▁Woo 1
dar 1
▁5,5 1
▁CV 1
Ẩ 1
▁Mario 1
▁micro 1
▁Voice 1
07 1
ist 1
▁Yan 1
khu 1
▁Phil 1
▁Ur 1
▁Mis 1
▁Album 1
MG 1
▁Play 1
▁Bre 1
▁Roll 1
▁Thai 1
▁Lavrov 1
▁Ryan 1
▁Ferrari 1
68 1
▁Nobel 1
▁1973 1
WTO 1
long 1
del 1
▁Sap 1
▁Só 1
▁be 1
▁400.000 1
▁(14 1
kan 1
▁Nova 1
▁Plaza 1
▁Poly 1
NS 1
▁Hou 1
74 1
▁Mala 1
▁Murray 1
▁AI 1
jet 1
hap 1
lib 1
▁12.000 1
91 1
kong 1
88 1
iku 1
2) 1
walk 1
▁4: 1
gg 1
▁Europa 1
▁000 1
▁BC 1
▁Thy 1
zia 1
▁nung 1
bung 1
▁< 1
▁Par 1
onia 1
▁que 1
▁22, 1
ima 1
les 1
ssa 1
bach 1
win 1
▁Luka 1
▁Chào 1
ski 1
▁carbon 1
▁Forbes 1
off 1
▁White 1
-2012 1
ble 1
val 1
och 1
▁Cas 1
fa 1
▁Ros 1
▁On 1
▁Disney 1
one 1
▁Eric 1
56 1
side 1
bán 1
▁Club 1
69 1
▁Sea 1
▁TU 1
PS 1
Ti 1
▁Blue 1
▁blog 1
01 1
▁series 1
▁7% 1
▁Awards 1
CG 1
▁Cra 1
▁nude 1
-50 1
61 1
▁Monaco 1
▁Type 1
81 1
AE 1
▁1,1 1
▁SM 1
hus 1
▁CM 1
▁Va 1
▁Tế 1
Ma 1
▁Sydney 1
▁Vui 1
▁Gaza 1
71 1
ati 1
370 1
▁Rome 1
nis 1
▁Manila 1
▁Bon 1
▁Sar 1
▁97 1
▁Sand 1
▁Sergio 1
-27 1
ID 1
pho 1
▁Kevin 1
▁Eco 1
rô 1
nu 1
83 1
▁Bush 1
▁Del 1
XD 1
▁(11 1
ovich 1
2.000 1
-12- 1
▁Edward 1
aria 1
▁By 1
▁Nissan 1
▁vaccin 1
▁0,2 1
▁Stra 1
▁Victor 1
▁Snapdragon 1
Ạ 1
Do 1
▁1977 1
2019 1
Bo 1
Cu 1
04 1
-25 1
▁IP 1
▁Swift 1
out 1
▁Palm 1
▁Queen 1
▁240 1
▁ray 1
▁Las 1
Ê 1
▁Ia 1
▁Sch 1
▁Brown 1
▁nhóc 1
▁Gates 1
▁Hazard 1
▁Rod 1
telli 1
▁Ste 1
▁Store 1
▁Hun 1
▁Torres 1
▁Brussel 1
▁12% 1
ito 1
ris 1
pus 1
▁Tao 1
cta 1
▁ex 1
▁Camera 1
HD 1
guer 1
▁2006. 1
▁Tur 1
▁00 1
sil 1
67 1
▁Carlos 1
▁hormone 1
▁Steven 1
▁Sh 1
▁(13 1
▁Kar 1
▁Belarus 1
▁Balo 1
Me 1
06 1
▁(29 1
RT 1
ky 1
2012 1
Man 1
▁Day 1
▁Wood 1
▁Moy 1
▁Ivan 1
▁gang 1
▁Les 1
sun 1
▁Tower 1
▁Cole 1
▁Email 1
▁Wal 1
▁Francisco 1
▁NASA 1
▁Web 1
▁Roger 1
▁Nepal 1
▁Win 1
▁Wayne 1
▁Xperia 1
66 1
ven 1
SV 1
▁Var 1
char 1
▁Kang 1
▁Ramos 1
▁Ich 1
▁Terry 1
TTT 1
ano 1
hen 1
▁Gru 1
ime 1
▁128 1
baba 1
▁Wang 1
▁4% 1
▁28, 1
qui 1
NC 1
3.000 1
▁Time 1
▁1967 1
▁At 1
▁Life 1
▁Lim 1
▁; 1
▁1971 1
▁94 1
▁QUAN 1
▁nick 1
cá 1
▁Wil 1
▁Lumia 1
▁Pas 1
▁Stephen 1
▁Napoli 1
▁Newcastle 1
▁Den 1
▁lõ 1
▁visa 1
▁Macron 1
-2013 1
PA 1
▁3.0 1
▁North 1
08 1
▁National 1
▁Dream 1
Mo 1
▁8% 1
▁Jet 1
▁Kate 1
▁Cannes 1
▁Master 1
▁2-2 1
▁0,3 1
1,5 1
SP 1
▁Harvard 1
▁Adam 1
▁cafe 1
▁Gor 1
▁Lamborghini 1
▁Timo 1
ori 1
HM 1
▁cau 1
tal 1
tre 1
"), 1
▁Ze 1
lah 1
pal 1
▁6,5 1
▁Pre 1
ite 1
sak 1
▁PM 1
▁Lexus 1
tsu 1
bol 1
▁Cari 1
▁Yong 1
▁Hát 1
▁Scott 1
▁320 1
▁Qualcomm 1
▁Lenovo 1
▁ADN 1
▁Airbus 1
▁Rang 1
cker 1
▁Smart 1
hot 1
icus 1
EF 1
3,4 1
dium 1
▁Rê 1
94 1
▁PVC 1
▁Bangladesh 1
▁Vol 1
▁bus 1
▁2004. 1
ac 1
/12/2017 1
86 1
-100 1
▁Bê 1
▁Andre 1
Media 1
▁Bole 1
▁Iceland 1
▁Elizabeth 1
9,5 1
rio 1
▁Bulgaria 1
▁Wei 1
bola 1
▁1969 1
▁Jerusalem 1
rum 1
neu 1
▁gram 1
▁bai 1
▁Resort 1
pan 1
nya 1
/01/ 1
▁River 1
PV 1
▁Sol 1
▁75% 1
▁hat 1
▁Jackpot 1
shire 1
▁Sub 1
▁Mid 1
won 1
▁Santa 1
sta 1
▁Telegraph 1
-29 1
▁Mirror 1
mbi 1
tro 1
▁1954 1
▁Gala 1
IÊN 1
▁@ 1
▁Blues 1
van 1
Benz 1
▁101 1
▁Rose 1
tín 1
▁Mata 1
▁Pin 1
eri 1
-90 1
oc 1
▁Char 1
rd 1
▁Hawaii 1
▁26, 1
▁DC 1
pen 1
▁Joseph 1
▁Tro 1
▁Kara 1
▁Mit 1
ista 1
cin 1
▁Angelina 1
Royce 1
ys 1
hán 1
▁5) 1
▁Mag 1
▁Arsen 1
▁ren 1
▁Garden 1
▁1965 1
▁0% 1
▁nem 1
▁App 1
chin 1
sco 1
▁Sele 1
▁2001, 1
"... 1
▁Sevilla 1
77 1
▁Basha 1
▁pop 1
▁Emirat 1
"). 1
▁Thuật 1
03 1
..." 1
▁Porsche 1
▁103 1
▁Royal 1
▁1-3 1
oshi 1
MO 1
▁Andrew 1
BD 1
▁Cher 1
Ổ 1
97 1
▁Panama 1
▁Beni 1
rick 1
ren 1
Ì 1
▁Zuckerberg 1
stein 1
▁Trans 1
▁Cro 1
express 1
▁23, 1
▁jeans 1
▁Com 1
▁giun 1
▁IMF 1
dong 1
▁Bou 1
LA 1
▁Chức 1
▁6% 1
▁yoga 1
▁poly 1
ía 1
▁Rodriguez 1
▁Hir 1
sel 1
▁Pop 1
▁Ker 1
▁Tak 1
▁Lí 1
ros 1
▁Rafael 1
▁6-7 1
▁Charlie 1
tera 1
AC 1
▁Micro 1
▁1962 1
▁Hitler 1
▁ml 1
02 1
xe 1
▁Jobs 1
▁1964 1
▁Inc 1
▁3-5 1
ey 1
ram 1
thy 1
▁Uzbekistan 1
▁Rai 1
▁Cook 1
▁Leon 1
phil 1
cio 1
▁Cameron 1
...) 1
▁két 1
▁kWh 1
cam 1
SD 1
zu 1
Ar 1
▁VIP 1
▁rí 1
▁Vitamin 1
rang 1
▁át 1
▁House 1
▁Fo 1
▁Nik 1
▁Andy 1
Ne 1
▁Gang 1
▁2,3 1
ant 1
wang 1
3,5 1
▁35% 1
▁Romania 1
EP 1
vy 1
ep 1
▁selfie 1
▁Tor 1
sson 1
▁Mil 1
▁Chang 1
0-1 1
▁sedan 1
je 1
▁Simon 1
▁Swan 1
▁Delhi 1
▁mix 1
▁Chrome 1
▁by 1
▁Py 1
▁SG 1
▁OS 1
▁Ereb 1
XT 1
▁Rou 1
▁kali 1
▁Val 1
▁Jakarta 1
EPA 1
▁135 1
zer 1
▁Kit 1
▁2005. 1
IM 1
llum 1
▁27, 1
▁Bal 1
▁Ah 1
▁Kuala 1
vu 1
▁Tầng 1
▁Mari 1
▁Entertainment 1
▁Fa 1
ICA 1
▁Lock 1
▁gym 1
folia 1
▁Series 1
mp 1
▁Jang 1
CCI 1
▁Chr 1
▁Chicago 1
▁Cat 1
▁250.000 1
cer 1
▁Mel 1
▁Ê 1
▁f 1
DP 1
▁Mah 1
▁Bundesliga 1
tia 1
▁Kaza 1
▁Bom 1
HL 1
CD 1
▁113 1
▁Bro 1
▁Beck 1
non 1
▁Fel 1
▁Shan 1
▁Mora 1
Re 1
tech 1
▁102 1
▁Castro 1
phor 1
PN 1
▁It 1
▁29, 1
▁piano 1
GA 1
▁Gareth 1
▁Lind 1
lic 1
▁del 1
"; 1
name 1
▁PR 1
Ọ 1
▁marketing 1
cula 1
▁Mela 1
▁2,4 1
mus 1
▁4) 1
seo 1
Sau 1
▁Truyện 1
▁Ad 1
▁Met 1
▁Hart 1
▁TIN 1
▁Nas 1
▁Center 1
Time 1
▁1966 1
▁Lady 1
rin 1
250 1
▁Lumpur 1
yu 1
THAN 1
ene 1
▁7,5 1
fer 1
mos 1
▁Town 1
▁logistic 1
▁230 1
PPP 1
rich 1
▁Far 1
▁Kali 1
▁mAh 1
▁Jim 1
Be 1
▁Tel 1
he 1
▁° 1
▁Ecuador 1
▁Pacific 1
▁roi 1
nă 1
▁1930 1
had 1
lus 1
Ro 1
▁116 1
▁Up 1
uta 1
wood 1
gua 1
sch 1
Thi 1
rát 1
▁Sports 1
▁5-6 1
/2006 1
gel 1
qqa 1
zor 1
▁Pat 1
▁Brasil 1
ary 1
tur 1
legri 1
▁Island 1
7,5 1
▁1963 1
odo 1
sal 1
0.000.000 1
zone 1
▁Insider 1
▁Tas 1
▁2,2 1
org 1
78 1
▁Baltic 1
▁Christian 1
▁Ray 1
]] 1
able 1
▁France 1
▁0,1 1
▁Des 1
▁resort 1
▁BP 1
bat 1
▁Oh 1
▁Ash 1
Ù 1
ERS 1
▁Full 1
▁Xiaomi 1
▁Robb 1
▁sub 1
▁op 1
RON 1
4,5 1
▁Mitsubishi 1
▁Palace 1
burg 1
▁PL 1
▁DVD 1
▁Tony 1
▁2.5 1
▁Cy 1
▁spa 1
▁Sund 1
rea 1
psis 1
▁as 1
CA 1
▁chat 1
ens 1
▁Voi 1
back 1
0,0 1
nice 1
▁Hill 1
ucci 1
girl 1
2021 1
nan 1
bas 1
▁shop 1
viet 1
▁LCD 1
▁Dr 1
PR 1
6,5 1
▁Mur 1
▁Touch 1
yn 1
▁Core 1
▁is 1
pp 1
ship 1
▁Southampton 1
▁Capital 1
▁Chevrolet 1
PH 1
▁Ken 1
▁Jay 1
VG 1
lopp 1
real 1
▁Fal 1
Mar 1
▁Chen 1
▁PS 1
▁TI 1
▁Metro 1
▁Virginia 1
ps 1
tz 1
▁Wat 1
▁Stok 1
▁Valentine 1
▁AK 1
cca 1
▁Robin 1
erland 1
▁3-2 1
▁Plat 1
NE 1
yê 1
group 1
▁Pho 1
▁Ronald 1
▁Cur 1
▁McC 1
tex 1
▁ngươi 1
▁acid 1
xu 1
row 1
▁750 1
▁HK 1
ast 1
▁trailer 1
mart 1
▁Rover 1
▁1940 1
nium 1
gar 1
▁Đẹp 1
DB 1
RIA 1
Di 1
▁Der 1
▁Sudan 1
nus 1
▁VII 1
98 1
▁Sin 1
▁Pitt 1
▁Ful 1
▁Dy 1
▁Journal 1
▁Mod 1
online 1
2,5 1
▁Port 1
▁Tar 1
ines 1
▁Holland 1
▁Kenya 1
▁Bagh 1
▁Abram 1
cola 1
▁Bob 1
▁Fed 1
▁Marti 1
▁Cara 1
bot 1
sse 1
▁Watch 1
▁Bri 1
▁Roberto 1
ig 1
TG 1
geria 1
kav 1
▁Zo 1
4,7 1
nensis 1
▁Anthony 1
▁2000. 1
▁Kyl 1
AQ 1
▁1.3 1
▁Bluetooth 1
▁Morning 1
▁Op 1
luck 1
▁ekip 1
▁TL 1
-52 1
▁Gy 1
res 1
era 1
▁met 1
▁Kelly 1
1945 1
▁Boy 1
▁et 1
4-1 1
II 1
▁Angel 1
▁Bel 1
▁ID 1
bên 1
▁SA 1
▁Sur 1
▁Au 1
-11- 1
nách 1
▁Sara 1
▁cover 1
cco 1
▁Ashley 1
Ca 1
▁Tiger 1
MA 1
ben 1
ira 1
▁American 1
▁hen 1
▁ABC 1
-31 1
5,6 1
▁Stone 1
▁Asus 1
▁Que 1
Ta 1
▁guitar 1
▁Franco 1
▁Im 1
▁hydro 1
▁Mini 1
.9. 1
▁Gh 1
BG 1
ation 1
▁Petrol 1
tour 1
▁Wars 1
.10. 1
▁XIII 1
dal 1
▁Bent 1
▁1958 1
▁365 1
▁Ez 1
▁tablet 1
▁Pay 1
▁31. 1
pro 1
dad 1
▁bitcoin 1
▁650 1
▁VAT 1
owski 1
▁ben 1
ska 1
▁GHz 1
AN 1
all 1
▁112 1
▁Carter 1
IP 1
▁VIII 1
▁Kun 1
▁Maya 1
▁pixel 1
▁104 1
▁Moto 1
▁Bru 1
phan 1
▁Secret 1
▁vest 1
▁Kir 1
len 1
IPO 1
atus 1
ette 1
▁Good 1
▁mo 1
▁7) 1
▁1990. 1
▁Bella 1
▁Express 1
▁Leo 1
▁flash 1
▁Dell 1
▁Volkswagen 1
let 1
SH 1
▁Karnataka 1
▁5-10 1
▁Ny 1
▁Robot 1
▁Gun 1
▁loan 1
fone 1
yong 1
87 1
▁Rad 1
gal 1
▁5-7 1
▁2,7 1
pi 1
▁Maps 1
▁EC 1
▁Slovakia 1
▁Mont 1
bus 1
▁Arena 1
▁Key 1
▁Col 1
▁Manuel 1
▁IC 1
▁1.8 1
▁1959 1
▁2003. 1
▁Lyn 1
▁tó 1
▁45% 1
▁Santos 1
UT 1
▁1961 1
some 1
▁Vegas 1
▁Art 1
▁Pir 1
▁Light 1
house 1
▁Lotte 1
pad 1
rus 1
Hi 1
▁Fabi 1
▁Brom 1
▁Nhập 1
▁Wolf 1
▁com 1
ola 1
▁11% 1
▁Hawk 1
cro 1
▁rub 1
har 1
▁Pedro 1
quí 1
▁14% 1
▁Call 1
▁up 1
gri 1
kor 1
▁Michelle 1
Ậ 1
pic 1
Ề 1
6-4 1
▁Medvedev 1
gang 1
▁2,6 1
▁270 1
▁Lamp 1
moto 1
▁Ger 1
▁Lyon 1
89 1
trick 1
Cap 1
AI 1
▁Lanka 1
▁Ay 1
▁Fashion 1
beri 1
▁megapixel 1
▁Es 1
ius 1
via 1
▁Gửi 1
4,8 1
▁Hal 1
▁WHO 1
▁Arc 1
AB 1
▁Sher 1
▁day 1
ago 1
TR 1
tay 1
▁GPS 1
▁Snow 1
▁formula 1
▁Scar 1
-60 1
▁Lin 1
Car 1
ser 1
Lo 1
▁Ed 1
79 1
▁sum 1
LO 1
▁startup 1
stream 1
▁Office 1
▁Tó 1
UYÊN 1
▁Alpha 1
▁Mes 1
▁2.2 1
▁260 1
▁Czech 1
xo 1
.7. 1
BI 1
▁Michel 1
▁Free 1
cini 1
▁Olympia 1
▁Serena 1
ví 1
▁1946 1
yra 1
SB 1
▁team 1
Se 1
times 1
ns 1
ish 1
top 1
▁Len 1
▁7-8 1
hin 1
▁IBM 1
hai 1
▁2,8 1
▁thé 1
5,5 1
ichi 1
esta 1
mes 1
eus 1
6,8 1
lia 1
▁bol 1
▁Bos 1
VS 1
▁Say 1
▁Tunis 1
ino 1
▁Guinea 1
▁că 1
▁Mao 1
fo 1
dona 1
▁Pic 1
( 1
▁Rain 1
lè 1
-10- 1
.6. 1
tina 1
▁solo 1
▁Amsterdam 1
▁vía 1
sus 1
▁Albert 1
▁el 1
▁Novosti 1
350 1
gy 1
▁Pri 1
▁1.4 1
.8. 1
ator 1
▁MS 1
150 1
▁Bas 1
xon 1
▁107 1
▁Golden 1
ight 1
▁1942 1
▁1956 1
ona 1
gawa 1
▁0,6 1
▁Crystal 1
▁Hul 1
▁Siri 1
2%) 1
▁85% 1
Bi 1
lines 1
▁3/4 1
▁kén 1
UNG 1
▁Ak 1
▁lép 1
▁vê 1
Du 1
ense 1
▁Jeff 1
▁Gary 1
▁Nicolas 1
▁24/7 1
▁Salah 1
▁Ten 1
mouth 1
yang 1
▁Rob 1
▁— 1
MN 1
gán 1
▁Philip 1
ment 1
▁status 1
▁Carolina 1
▁play 1
▁Dragon 1
▁Mou 1
▁550 1
▁210 1
▁175 1
▁Fernando 1
▁Tesla 1
▁Pel 1
▁boy 1
▁Ross 1
4,6 1
▁2022 1
gr 1
ffe 1
De 1
▁you 1
ell 1
▁Cap 1
▁(31 1
▁Viktor 1
▁teh 1
▁109 1
ery 1
▁Marie 1
pes 1
▁Catalan 1
enco 1
8%) 1
▁Night 1
▁Mat 1
over 1
ken 1
eller 1
wich 1
▁0,8 1
▁Biz 1
▁Boston 1
▁Rica 1
▁BTS 1
▁Sim 1
5,7 1
rú 1
▁Neu 1
cera 1
▁Maca 1
BH 1
PM 1
▁Porto 1
▁RE 1
▁Gabriel 1
2008 1
▁Hol 1
SL 1
▁[[ 1
▁Minsk 1
▁Remix 1
▁Enrique 1
og 1
ych 1
stock 1
▁Photo 1
ẠN 1
▁155 1
illas 1
▁123 1
▁6) 1
▁Fire 1
▁é 1
BM 1
ón 1
▁Mohammed 1
▁Fuji 1
▁RS 1
tez 1
▁Nor 1
Ị 1
▁Gomez 1
▁at 1
▁1,9 1
▁Gam 1
▁Matt 1
ix 1
▁Project 1
▁mui 1
▁65% 1
inho 1
▁Lebanon 1
▁1944 1
▁Sor 1
▁Telecom 1
nos 1
▁18% 1
▁Alan 1
Mu 1
nn 1
▁13% 1
▁1900 1
6,7 1
-28 1
Nu 1
▁Ron 1
▁Ini 1
▁câ 1
▁metro 1
VL 1
▁(0 1
pur 1
▁IT 1
num 1
▁Gaga 1
▁Kennedy 1
▁Cruz 1
-34 1
lis 1
cra 1
cor 1
▁Roman 1
iana 1
/24 1
▁Ohio 1
▁Mali 1
-200 1
▁IX 1
▁Mad 1
▁card 1
▁OPEC 1
▁190 1
tral 1
▁Ven 1
▁Best 1
▁penalty 1
HU 1
▁Spa 1
▁Laden 1
chang 1
▁Jessica 1
▁Cair 1
130 1
nda 1
.3. 1
▁370 1
▁Kor 1
▁Lab 1
▁1920 1
▁Marvel 1
▁car 1
▁1955 1
▁Arma 1
▁Fortune 1
râ 1
▁East 1
MV 1
▁Halloween 1
▁GI 1
GH 1
▁1941 1
160 1
tec 1
pin 1
▁Baby 1
▁TO 1
▁bit 1
adda 1
▁Kro 1
5,8 1
▁UP 1
▁GM 1
6,6 1
quê 1
Go 1
ace 1
▁Kaka 1
OS 1
az 1
▁1957 1
▁Press 1
▁Shaw 1
rov 1
▁1.9 1
-500 1
-26 1
par 1
ome 1
ox 1
yev 1
.4. 1
br 1
▁Mí 1
▁Gil 1
▁Hall 1
tru 1
ẦN 1
▁10-15 1
▁Davis 1
▁3,2 1
▁Abdul 1
▁Hom 1
▁Gro 1
▁Hung 1
8,5 1
▁Nguyen 1
▁General 1
cal 1
bit 1
Bu 1
▁Bour 1
pu 1
ate 1
▁2002. 1
▁Kids 1
▁Yar 1
▁Athen 1
▁Heli 1
▁VA 1
▁Cruise 1
▁Monte 1
▁Johnny 1
So 1
▁Care 1
▁Bali 1
▁Pennsylvania 1
ASS 1
SM 1
▁1.6 1
Ệ 1
nica 1
▁Ball 1
saka 1
▁won 1
▁106 1
1975 1
▁Uni 1
▁concept 1
▁MacBook 1
ena 1
▁Marco 1
▁Die 1
ppe 1
urus 1
▁SP 1
gui 1
SO 1
▁Run 1
...). 1
▁nám 1
AP 1
sburg 1
iz 1
▁with 1
ich 1
▁Isaac 1
981 1
▁Cla 1
▁Wimbledon 1
▁4-0 1
▁Mun 1
▁Hor 1
▁Anton 1
má 1
▁Fidel 1
home 1
▁Lopez 1
hua 1
▁Card 1
HA 1
6-1 1
heim 1
lyn 1
▁logic 1
SR 1
▁teo 1
▁(40 1
▁0-2 1
1%) 1
▁QU 1
▁Hamas 1
RC 1
▁Fly 1
gio 1
Pro 1
▁0,4 1
▁Cambridge 1
▁Tab 1
4,4 1
▁Mei 1
dol 1
uda 1
▁Kai 1
biz 1
met 1
▁Kem 1
▁Space 1
▁Bell 1
than 1
▁126 1
▁Leonardo 1
▁Motorola 1
Ũ 1
▁nano 1
1,5% 1
ANG 1
▁Sarah 1
▁Holding 1
ire 1
fu 1
▁hon 1
▁Ren 1
▁(1) 1
▁Mart 1
Ừ 1
▁Kuwa 1
▁17% 1
▁Ferdinand 1
▁Coca 1
uma 1
▁Bright 1
xim 1
sang 1
▁^ 1
▁Netanyahu 1
▁Zu 1
▁Ir 1
▁Rap 1
▁SMS 1
▁Thor 1
▁111 1
tta 1
/19 1
▁16% 1
▁Universe 1
gâ 1
▁Grie 1
.12. 1
2006 1
▁Benjamin 1
▁3,6 1
▁TK 1
▁1999. 1
Cha 1
isi 1
▁Copa 1
var 1
/06 1
▁view 1
▁style 1
Ra 1
▁Armenia 1
▁Tillerson 1
▁Fer 1
▁pa 1
▁radio 1
▁XX 1
WS 1
▁Nexus 1
▁body 1
▁Out 1
ÁN 1
▁Bieber 1
NATO 1
ghe 1
▁Lucas 1
▁Sul 1
▁Ves 1
▁9) 1
elli 1
▁1943 1
Ja 1
cas 1
▁And 1
▁Gio 1
▁Marc 1
mia 1
▁lim 1
sho 1
▁114 1
ux 1
▁330 1
▁Petersburg 1
flor 1
▁Dra 1
▁Som 1
▁Dol 1
her 1
▁Gho 1
▁2016) 1
▁Road 1
ara 1
vis 1
▁Emma 1
▁Adrian 1
ple 1
▁ISO 1
▁Anti 1
▁1953 1
oda 1
▁280 1
plus 1
TF 1
less 1
▁More 1
harap 1
ile 1
▁Catal 1
▁hê 1
Al 1
▁Court 1
▁Mú 1
▁LTE 1
lay 1
▁Hugo 1
ste 1
lum 1
▁Wilson 1
▁2017) 1
/2018) 1
▁Cava 1
GC 1
ware 1
▁Georgia 1
▁Your 1
GM 1
EA 1
mina 1
Ể 1
▁1947 1
▁Gen 1
ab 1
▁Edge 1
nner 1
▁Central 1
▁enzym 1
▁Somalia 1
PP 1
/2005 1
▁2001. 1
▁Karl 1
7,8 1
▁photo 1
▁XS 1
▁je 1
▁Carlo 1
▁Mach 1
▁Patrick 1
▁KN 1
▁Mohamed 1
▁Canon 1
Ở 1
▁Istanbul 1
▁122 1
▁Giro 1
▁Rodrigo 1
▁Bad 1
Bạn 1
▁God 1
-2008 1
▁knock 1
kar 1
▁Nem 1
eta 1
▁Rash 1
low 1
ill 1
▁Yama 1
▁0,7 1
cens 1
isa 1
gov 1
▁720 1
▁per 1
lli 1
iya 1
▁ATP 1
▁khẽ 1
▁Zimbabwe 1
▁Kas 1
▁Fair 1
▁Emmanuel 1
▁Java 1
ide 1
▁Sie 1
▁Kur 1
▁4- 1
▁Od 1
ani 1
bal 1
say 1
gmail 1
AM 1
▁Erik 1
UA 1
▁VĂN 1
"? 1
▁Opp 1
▁Paulo 1
▁KL 1
▁Hem 1
120 1
▁Gerra 1
CE 1
▁Brian 1
▁NA 1
ting 1
▁Savi 1
▁Gre 1
▁Junior 1
pine 1
▁MK 1
▁Miami 1
▁um 1
ctor 1
▁2050 1
▁Japan 1
ence 1
▁15-20 1
red 1
TA 1
▁Roy 1
▁Dun 1
▁Taxi 1
▁Mira 1
sport 1
tt 1
3-3 1
▁Golf 1
mbo 1
cot 1
▁Jane 1
▁2015) 1
▁Bahrain 1
▁UN 1
for 1
hat 1
▁Bhu 1
▁yen 1
▁Vé 1
kush 1
▁Ara 1
▁Jamie 1
▁AD 1
CM 1
▁Anderson 1
▁Morgan 1
bang 1
ado 1
ap 1
▁SS 1
USD 1
▁Jason 1
▁127 1
▁Matti 1
▁Boris 1
▁bon 1
PB 1
▁Mile 1
stone 1
▁flav 1
▁121 1
▁118 1
▁Wu 1
ún 1
▁Ghana 1
eng 1
▁Flash 1
uff 1
cara 1
sy 1
DD 1
yama 1
gate 1
▁Drog 1
▁Marseille 1
▁Shah 1
lên 1
▁vén 1
▁20-30 1
▁Week 1
▁Ster 1
ert 1
▁117 1
▁beta 1
▁1.7 1
ture 1
Mi 1
3,9 1
▁OLED 1
▁Wel 1
▁nom 1
dez 1
▁dio 1
/08 1
▁Fast 1
fan 1
▁Buffet 1
▁Francis 1
SSI 1
▁Bak 1
▁98% 1
▁te 1
▁Amb 1
pida 1
▁Jr 1
ness 1
▁fut 1
▁99% 1
▁Samuel 1
▁Phillip 1
▁Musk 1
▁Maro 1
▁3.5 1
▁Colo 1
▁Hadi 1
ono 1
▁Hassan 1
▁Vas 1
▁2,1 1
▁Clark 1
▁Kos 1
sur 1
VV 1
phos 1
Lu 1
▁Gas 1
▁LI 1
poli 1
Po 1
▁link 1
day 1
▁4-6 1
OC 1
6,4 1
▁gr 1
▁Qui 1
▁University 1
▁124 1
▁Estonia 1
TL 1
▁Jacob 1
▁Sergey 1
AH 1
▁Jon 1
ME 1
▁USA 1
▁Hod 1
IU 1
▁Index 1
▁ATV 1
lain 1
Ủ 1
mas 1
▁my 1
▁Come 1
= 1
▁gă 1
▁dance 1
▁School 1
ward 1
burn 1
mera 1
▁Shar 1
mark 1
▁1939 1
▁Cyr 1
gro 1
beck 1
▁Ser 1
owa 1
bá 1
udo 1
kia 1
hát 1
Ban 1
▁1949 1
Min 1
▁Wol 1
▁Neo 1
▁Food 1
gor 1
ath 1
▁Exc 1
▁Today 1
▁check 1
phon 1
los 1
Ă 1
Ớ 1
olo 1
▁Michigan 1
▁Potter 1
389 1
-13 1
HV 1
▁Anne 1
lle 1
zon 1
No 1
▁Joo 1
▁Wiki 1
iensis 1
+1 1
▁Ivanov 1
hor 1
▁Ap 1
▁Ultra 1
heed 1
▁Pierre 1
mor 1
▁EV 1
later 1
utu 1
▁Fla 1
▁Pixel 1
▁Columbia 1
xan 1
▁Luke 1
mond 1
ough 1
▁1948 1
▁Fle 1
rah 1
tinho 1
▁casino 1
▁Bond 1
ik 1
▁Sí 1
▁hun 1
▁Dá 1
cos 1
igu 1
ier 1
▁CNC 1
-40 1
LT 1
▁wifi 1
skov 1
ICO 1
▁À 1
hawk 1
▁Fur 1
▁Cre 1
.5. 1
▁ja 1
age 1
50% 1
▁Ev 1
ings 1
▁Gul 1
ato 1
▁22% 1
nce 1
ridge 1
▁8,5 1
Hy 1
▁1952 1
▁(2) 1
2,5% 1
▁w 1
ido 1
Ộ 1
▁Eden 1
▁1998. 1
XP 1
boy 1
ppi 1
▁dát 1
▁en 1
sor 1
▁Aero 1
▁café 1
▁Andrea 1
▁Spi 1
▁Corp 1
ragon 1
una 1
▁(+ 1
▁Rick 1
▁Turn 1
Camp 1
Asia 1
4,9 1
▁Brand 1
▁Alaska 1
▁Chanel 1
ane 1
▁$ 1
▁Edition 1
▁145 1
tica 1
Này 1
▁165 1
ggi 1
▁Mall 1
VI 1
rie 1
LIVE 1
ele 1
▁Riya 1
▁2016- 1
sso 1
MD 1
▁Gai 1
▁Gran 1
pis 1
▁Lincoln 1
adi 1
und 1
▁(50 1
bel 1
hyl 1
tos 1
▁Stan 1
▁Warren 1
▁Dor 1
▁SD 1
cle 1
mont 1
▁Illinois 1
AS 1
FS 1
▁Water 1
▁Rich 1
stra 1
▁Theresa 1
vas 1
ray 1
▁Danny 1
dis 1
hani 1
▁3000 1
AAD 1
▁Ter 1
▁Honduras 1
wand 1
kus 1
▁340 1
dos 1
▁Fri 1
▁Maduro 1
iter 1
▁Fit 1
▁Hur 1
▁Rib 1
roon 1
elle 1
▁Beach 1
▁Cad 1
▁Pô 1
▁Clo 1
uro 1
▁SK 1
▁Bolivia 1
▁2-4 1
▁Great 1
▁vali 1
▁Alonso 1
▁XL 1
▁Modi 1
tida 1
lly 1
▁Travel 1
tam 1
inger 1
▁Pompeo 1
/11/2018 1
NP 1
EM 1
▁1997. 1
lov 1
TE 1
ord 1
bury 1
▁141 1
He 1
▁Lau 1
HAN 1
750 1
1998 1
▁Gol 1
tana 1
mmel 1
▁Gall 1
▁Wonder 1
▁119 1
▁Frankfurt 1
▁Sukh 1
giai 1
▁casting 1
▁Mba 1
BN 1
rey 1
▁Girls 1
pet 1
▁Small 1
▁Fin 1
▁Schwei 1
▁31, 1
▁Bus 1
sai 1
moon 1
Ý 1
▁Miller 1
▁DNA 1
▁1,0 1
▁Airways 1
▁Messenger 1
mble 1
atin 1
▁Lit 1
6,9 1
▁Down 1
▁Schal 1
CR 1
▁Bat 1
dh 1
▁Hen 1
kota 1
▁Melbourne 1
rg 1
▁noi 1
RP 1
▁Network 1
sing 1
▁Dz 1
▁Health 1
gers 1
▁Luiz 1
▁ST 1
fica 1
▁doping 1
▁Rex 1
worth 1
▁Ð 1
cep 1
▁Pharma 1
▁Allen 1
rad 1
ology 1
▁Mauri 1
▁Fred 1
▁1936 1
Com 1
▁Marketing 1
box 1
▁Wave 1
▁Ved 1
FT 1
▁Colorado 1
.1. 1
▁Diana 1
▁3,8 1
▁Dani 1
aks 1
SS 1
ars 1
▁Rid 1
▁High 1
▁dú 1
▁tennis 1
.11. 1
▁Bird 1
▁McCain 1
ẢO 1
Quan 1
pay 1
▁Lake 1
zan 1
▁Spe 1
▁Hills 1
Ắ 1
▁Ltd 1
3.9 1
ure 1
▁Houston 1
▁Kilo 1
▁Ling 1
2.8 1
▁Um 1
ice 1
song 1
time 1
MM 1
▁Eva 1
▁Mol 1
▁138 1
cki 1
▁z 1
/2004 1
wing 1
▁Burn 1
Su 1
pool 1
Ai 1
▁VIỆT 1
▁Apa 1
▁Ul 1
▁1951 1
▁Rud 1
ult 1
▁Kardashian 1
tine 1
yi 1
▁1995. 1
▁Fall 1
hara 1
▁First 1
320 1
mis 1
▁Website 1
▁Bai 1
ƯỜNG 1
▁Girl 1
lls 1
une 1
tas 1
▁Igor 1
Post 1
▁nhâ 1
▁2.4 1
▁480 1
play 1
▁Jesus 1
▁Lát 1
▁Line 1
stro 1
▁Tsu 1
né 1
idu 1
▁cro 1
▁Cri 1
▁Christopher 1
hal 1
▁134 1
chú 1
SI 1
Sch 1
▁Của 1
▁chằm 1
▁Innova 1
▁sala 1
▁Prince 1
PK 1
▁Beat 1
ring 1
▁Diamond 1
▁Hé 1
DO 1
▁Acc 1
LD 1
▁Yoga 1
▁Shop 1
light 1
▁Box 1
Class 1
cum 1
town 1
▁Tal 1
▁Toronto 1
▁132 1
nov 1
▁CAP 1
▁Kam 1
▁Whit 1
BB 1
▁Sing 1
▁BR 1
▁Lep 1
mat 1
▁chocolate 1
ello 1
rious 1
food 1
▁Perry 1
sis 1
hora 1
ngo 1
▁Wild 1
aro 1
▁Trailer 1
0,5 1
▁Pol 1
die 1
▁Oxford 1
▁Zin 1
bor 1
▁Gua 1
nt 1
▁Futsal 1
▁amin 1
▁Earth 1
enia 1
lim 1
rys 1
▁(60 1
som 1
▁Rafa 1
1000 1
▁Lazio 1
▁NBC 1
▁Nav 1
opo 1
▁Bet 1
▁fans 1
gla 1
▁or 1
glu 1
▁Bilbao 1
▁ABS 1
▁Jonathan 1
Petr 1
rit 1
▁Ever 1
ashi 1
▁BB 1
▁256 1
▁Ahmad 1
▁Lawrence 1
▁Iron 1
▁Walker 1
▁850 1
▁1938 1
DM 1
▁Massachusetts 1
▁Pur 1
HI 1
▁2017-2018 1
▁55% 1
▁Liber 1
7,6 1
▁Harris 1
▁Hamburg 1
▁Bla 1
▁Mak 1
Ri 1
zh 1
▁Team 1
Tra 1
oka 1
▁Gau 1
▁Roland 1
gus 1
mic 1
▁1996. 1
City 1
nik 1
▁Howard 1
▁LGBT 1
▁ten 1
▁Rie 1
sol 1
iga 1
▁1- 1
▁But 1
Jo 1
▁Ac 1
3,5% 1
lari 1
EX 1
mir 1
0,1% 1
tti 1
▁McG 1
rai 1
▁Gal 1
▁Rama 1
▁CPU 1
▁Standard 1
lie 1
AMA 1
▁Lever 1
2004 1
XO 1
ise 1
▁rap 1
▁Hon 1
▁Hotel 1
chop 1
▁collage 1
▁Congo 1
▁DS 1
▁Wan 1
RS 1
▁feet 1
▁Electronic 1
▁Teen 1
▁225 1
▁pro 1
▁Paraguay 1
ASE 1
▁FED 1
▁ar 1
aggio 1
▁single 1
Pa 1
yuk 1
▁1992. 1
▁make 1
▁Cast 1
850 1
▁Lewis 1
▁gene 1
▁poster 1
▁Matthew 1
posit 1
▁Ajax 1
▁Bruno 1
▁Villar 1
▁Rhod 1
▁Net 1
aca 1
made 1
aw 1
old 1
IT 1
▁Infinit 1
▁Ama 1
borough 1
▁KB 1
TAT 1
ota 1
Hay 1
▁Book 1
▁Pepe 1
5-1 1
andra 1
▁Omar 1
right 1
▁Cab 1
▁Cau 1
▁Das 1
▁Irina 1
issa 1
▁Walter 1
▁Vá 1
nd 1
▁VIDEO 1
▁21% 1
▁Lug 1
▁Pad 1
hem 1
▁Lisa 1
▁Firefox 1
WHO 1
▁NAM 1
▁Warner 1
bay 1
steiger 1
▁Hum 1
▁Take 1
▁clo 1
bert 1
▁Ethiopia 1
cent 1
ISS 1
▁Nur 1
▁Iz 1
▁blogger 1
▁Azerbaijan 1
▁Moro 1
Si 1
▁Stephan 1
▁Garcia 1
form 1
▁Smartphone 1
ille 1
▁8) 1
▁Grammy 1
LM 1
▁Salman 1
▁Mats 1
▁Acer 1
▁Channel 1
▁2018: 1
▁Marcelo 1
▁Guill 1
▁Surface 1
▁131 1
▁3-6 1
▁BA 1
▁Jen 1
yer 1
▁Low 1
▁8-9 1
IoT 1
▁Dụng 1
▁Hua 1
VE 1
▁3.2 1
rian 1
▁Him 1
▁Opera 1
▁ko 1
quet 1
▁Kend 1
its 1
New 1
▁Laurent 1
▁Douglas 1
▁139 1
▁Has 1
▁Was 1
more 1
Har 1
▁Berg 1
LOS 1
▁Bio 1
▁Sale 1
▁ami 1
▁Billboard 1
dus 1
▁Rus 1
lev 1
999 1
▁2016-2017 1
▁Market 1
oli 1
uch 1
lash 1
rium 1
Ka 1
SAT 1
Te 1
▁Dow 1
ume 1
Mos 1
▁1937 1
▁LA 1
UN 1
cati 1
▁Well 1
mét 1
lock 1
▁152 1
▁Nikola 1
teur 1
▁Capel 1
care 1
vát 1
uca 1
▁1991. 1
▁Cay 1
pto 1
3.8 1
ins 1
▁129 1
▁Dance 1
▁Non 1
450 1
▁Lú 1
▁911 1
▁Kop 1
▁titan 1
ala 1
VA 1
▁Bran 1
▁Singh 1
▁Maha 1
▁Alvar 1
lich 1
gna 1
▁Jorge 1
yla 1
▁Cle 1
▁Phantom 1
▁Basel 1
ada 1
▁Football 1
▁Rubi 1
▁Herre 1
▁Syn 1
▁Emily 1
▁168 1
▁Yuri 1
▁Rani 1
halli 1
▁Sum 1
UNC 1
▁Row 1
▁Om 1
sper 1
▁Connect 1
▁cara 1
china 1
▁Bull 1
grad 1
AT 1
lú 1
▁Holl 1
▁break 1
rê 1
▁Blade 1
gne 1
▁185 1
▁Wen 1
stin 1
▁Rat 1
▁0-3 1
▁Rihanna 1
▁hybrid 1
vit 1
▁Stein 1
mal 1
pore 1
are 1
vít 1
▁Owen 1
US 1
▁Bez 1
HO 1
▁para 1
▁23% 1
ous 1
sic 1
tah 1
▁136 1
▁1993. 1
▁Korea 1
▁Radio 1
▁Chap 1
▁Trust 1
▁LL 1
1-8 1
▁Force 1
▁Ort 1
▁Bart 1
▁Arizona 1
▁HI 1
▁Jess 1
▁Vienna 1
▁É 1
here 1
▁Susan 1
▁short 1
rod 1
▁PA 1
▁iPod 1
▁Hat 1
▁Denis 1
▁NO 1
ale 1
▁People 1
jan 1
▁Aviv 1
▁Kaspersky 1
nim 1
morph 1
IA 1
▁Mich 1
FI 1
mine 1
▁Panda 1
▁Latvia 1
▁Minnesota 1
▁Grande 1
▁Middle 1
ip 1
▁WA 1
▁Schol 1
yahoo 1
▁Got 1
▁Evans 1
▁Macedonia 1
▁táp 1
▁Dal 1
▁Rico 1
▁pe 1
▁Nike 1
kaya 1
▁Jersey 1
antha 1
▁Dominic 1
▁Emer 1
Settings 1
321 1
▁Studio 1
▁Naga 1
▁Of 1
stic 1
▁Tayyip 1
7,7 1
▁India 1
ora 1
▁Gib 1
ef 1
Sport 1
▁Maxim 1
▁po 1
▁om 1
▁0,9 1
▁AB 1
dio 1
him 1
▁Eo 1
▁Moz 1
▁cent 1
▁hack 1
▁Gel 1
ONG 1
▁Shanghai 1
▁2009) 1
Ụ 1
▁Gan 1
▁Naka 1
▁146 1
▁Championship 1
lina 1
▁Cape 1
bó 1
▁5000 1
ith 1
▁Link 1
-47 1
dic 1
▁Rá 1
▁Ble 1
ici 1
▁Dry 1
hed 1
▁omega 1
▁Jur 1
▁Toma 1
▁estrogen 1
▁Yi 1
essa 1
ving 1
ím 1
▁Ted 1
▁Tung 1
▁2010) 1
VB 1
▁167 1
▁soda 1
but 1
▁Sco 1
▁ró 1
▁420 1
▁Beauty 1
▁Alba 1
5,9 1
tai 1
7,4 1
▁vir 1
AG 1
rena 1
ula 1
▁1994. 1
Star 1
▁hún 1
Da 1
ddy 1
NEWS 1
ICE 1
sko 1
▁Alice 1
▁net 1
tero 1
IB 1
▁Independent 1
▁133 1
pod 1
8,9 1
▁Glen 1
iro 1
py 1
hia 1
ishi 1
▁Digital 1
▁mag 1
inga 1
▁Hans 1
▁Gut 1
▁Lily 1
▁1080 1
▁College 1
▁Dai 1
eh 1
▁Julian 1
▁Titan 1
ops 1
Bar 1
Ó 1
chan 1
ese 1
▁Jama 1
▁Julia 1
dier 1
eve 1
vad 1
▁Shak 1
/2001 1
▁Norman 1
▁Venus 1
▁Javier 1
Germain 1
jin 1
rat 1
▁Arthur 1
▁Blu 1
▁Giu 1
▁ion 1
zel 1
zza 1
▁Aus 1
mmer 1
itz 1
▁Puerto 1
001 1
▁1929 1
▁0,5% 1
2007 1
▁Bernard 1
▁19% 1
▁Little 1
▁Suk 1
660 1
▁Skri 1
phra 1
nikov 1
RIM 1
tý 1
1,6 1
▁Hey 1
▁Cooper 1
▁2.3 1
▁5.0 1
GAS 1
Claude 1
▁Guinness 1
Ex 1
▁Chat 1
▁Richter 1
▁Log 1
▁Science 1
▁Ahmed 1
SK 1
▁Slovenia 1
▁144 1
▁Taj 1
▁Abdullah 1
▁Hab 1
▁Toshiba 1
NR 1
hill 1
▁142 1
lik 1
▁Back 1
Sy 1
▁Sala 1
▁2017: 1
tino 1
ern 1
▁shi 1
▁32. 1
▁SSD 1
▁Spring 1
▁Yuk 1
▁Vincent 1
idi 1
▁Janeiro 1
▁Najib 1
▁Harvey 1
ali 1
las 1
▁Tanzania 1
▁ang 1
ec 1
mura 1
1-6 1
3) 1
oh 1
▁Marcus 1
▁des 1
OA 1
▁VÀ 1
▁showroom 1
gó 1
▁Talent 1
▁Rand 1
149 1
Cho 1
▁DO 1
bro 1
vai 1
▁Kom 1
suke 1
▁2.1 1
art 1
▁Ade 1
▁Nan 1
Sha 1
tap 1
toni 1
HR 1
RV 1
ambi 1
eira 1
of 1
▁SNS 1
▁Jimmy 1
ania 1
1997 1
mg 1
▁Hein 1
AL 1
▁Moore 1
ches 1
mol 1
▁Financial 1
▁Mars 1
▁Stalin 1
view 1
▁Hos 1
▁Philippe 1
PU 1
▁Yun 1
▁Legend 1
▁pizza 1
▁137 1
Col 1
▁VS 1
▁Miguel 1
gger 1
▁insulin 1
▁Mate 1
▁Ian 1
▁Simeon 1
▁163 1
▁Glass 1
▁777 1
▁Ao 1
▁DU 1
▁Uganda 1
eda 1
▁380 1
▁Civic 1
▁stylist 1
▁Kin 1
▁Bruce 1
▁Page 1
▁XIX 1
uz 1
▁Future 1
▁Kra 1
▁View 1
▁mõ 1
▁156 1
▁Brent 1
yen 1
▁Walt 1
▁8-10 1
▁Boko 1
ÀI 1
▁Amy 1
/02/ 1
travel 1
bur 1
bio 1
▁Mul 1
▁Bun 1
▁Missouri 1
▁Four 1
▁UV 1
▁SO 1
▁Zlatan 1
▁Larry 1
if 1
vor 1
XU 1
▁Security 1
-80 1
▁Baker 1
/2000 1
▁Alfred 1
▁Bug 1
ios 1
BL 1
board 1
yp 1
▁Kings 1
tico 1
▁British 1
650 1
▁mafi 1
KL 1
plo 1
▁30-40 1
yz 1
▁Quin 1
ike 1
ks 1
▁Toni 1
▁Gui 1
▁boot 1
▁Blatt 1
▁Santiago 1
▁Schu 1
MI 1
▁Vision 1
glo 1
▁Everest 1
▁anti 1
7,9 1
and 1
VO 1
888 1
▁1934 1
▁1-4 1
rid 1
▁Guatemala 1
/2003 1
▁Julie 1
▁Case 1
mel 1
▁Fat 1
▁Bis 1
istan 1
▁Manhattan 1
▁Range 1
▁MSN 1
▁Avengers 1
▁Pal 1
ase 1
▁1935 1
▁Hell 1
▁Hilton 1
́ 1
▁Haut 1
▁Craig 1
▁nit 1
▁XD 1
heng 1
bre 1
20% 1
any 1
▁Albania 1
▁Fans 1
▁Indiana 1
▁Dom 1
▁Data 1
8,7 1
737 1
▁Silicon 1
port 1
▁Kel 1
ent 1
▁Rosa 1
rata 1
▁Spec 1
▁Award 1
▁Bosni 1
▁950 1
̣ 1
kra 1
▁Gmail 1
▁testosteron 1
▁UFO 1
ksin 1
▁Hussein 1
▁Ob 1
▁Pala 1
quo 1
▁studio 1
▁Brook 1
chá 1
atti 1
COM 1
▁Style 1
▁Cin 1
▁Levi 1
▁Wikipedia 1
▁Skype 1
▁Oliver 1
▁Graham 1
▁sê 1
▁coca 1
hydrat 1
▁Turk 1
▁Kawasaki 1
▁Wy 1
bull 1
▁RO 1
▁nè 1
▁caro 1
▁English 1
▁Lip 1
feld 1
set 1
▁test 1
▁Vie 1
ela 1
bis 1
▁AR 1
quin 1
bom 1
▁Explorer 1
ij 1
▁Rossi 1
▁Lenin 1
▁Petr 1
our 1
▁Hydro 1
▁Wit 1
ean 1
▁(*) 1
▁March 1
TI 1
imi 1
▁143 1
2001 1
▁LP 1
▁Ong 1
▁2014) 1
▁ac 1
REA 1
▁Bir 1
tner 1
▁Jer 1
World 1
Ự 1
▁Hand 1
▁XP 1
▁2015-2016 1
▁1932 1
get 1
▁Rachel 1
▁Muller 1
▁sul 1
ib 1
▁Vidal 1
▁Foundation 1
▁Miranda 1
▁IN 1
My 1
▁153 1
TO 1
quez 1
▁click 1
put 1
bet 1
agan 1
▁menu 1
sama 1
onal 1
▁br 1
▁Laura 1
▁Bit 1
ance 1
▁Loe 1
uti 1
fera 1
▁Doha 1
▁310 1
Malaysia 1
▁Sean 1
▁Cross 1
-36 1
▁Challenge 1
▁Dark 1
▁Sheikh 1
▁212 1
▁147 1
▁Nathan 1
▁Mohammad 1
-2007 1
war 1
▁Masa 1
▁from 1
wr 1
\ 1
▁NY 1
dl 1
▁Novo 1
NCH 1
▁Heart 1
kel 1
lever 1
960 1
▁Ché 1
▁Happy 1
nak 1
etta 1
Pad 1
▁1933 1
DG 1
▁block 1
▁Lisbon 1
ee 1
▁1931 1
▁Premium 1
▁NC 1
-70 1
▁Eugen 1
shu 1
000 1
wick 1
▁Dio 1
LL 1
hel 1
▁sofa 1
▁Start 1
▁4.2 1
▁9-10 1
▁Fiorentina 1
▁Chip 1
lai 1
YP 1
▁See 1
eu 1
▁Sne 1
CI 1
esc 1
ball 1
▁Scan 1
▁Made 1
1995 1
Philip 1
▁FM 1
680 1
▁mail 1
zur 1
▁33% 1
▁Indo 1
▁Glo 1
▁158 1
▁Bul 1
▁Hamilton 1
▁8.1 1
▁Abbas 1
9,6 1
khar 1
▁Campbell 1
▁Dis 1
▁Wong 1
▁System 1
125 1
▁Sharp 1
▁162 1
break 1
▁Hoo 1
▁Alexandr 1
▁148 1
Cola 1
▁CL 1
▁Nicole 1
▁Fra 1
▁IQ 1
ậ 1
▁6-8 1
▁Hunt 1
▁Anth 1
▁(3) 1
Book 1
▁OP 1
▁Raj 1
▁iTunes 1
▁State 1
sar 1
▁off 1
▁Brooklyn 1
ambia 1
life 1
▁Berlusconi 1
▁Fort 1
▁Lou 1
Ợ 1
▁Charlotte 1
▁Plan 1
▁Linux 1
Ju 1
wol 1
2003 1
Mac 1
▁Bros 1
▁Sierra 1
379 1
▁Roberts 1
▁Sanders 1
▁Kabul 1
▁Aires 1
▁Horn 1
GG 1
▁Pier 1
▁Helen 1
kka 1
KK 1
ctus 1
nick 1
▁Champ 1
▁Valde 1
ión 1
Tam 1
ctic 1
▁Sak 1
tham 1
chel 1
▁Renault 1
▁par 1
hop 1
Tri 1
▁DM 1
chter 1
▁520 1
▁Stre 1
▁Sali 1
▁balla 1
▁oli 1
▁Rhy 1
11) 1
koha 1
Ò 1
▁Matteo 1
ech 1
▁Brit 1
pula 1
▁174 1
▁concert 1
▁Pot 1
thro 1
▁178 1
WE 1
▁430 1
▁Panasonic 1
▁Guy 1
▁Vor 1
▁Tara 1
▁Test 1
▁Hard 1
▁Sp 1
▁36. 1
▁Parker 1
▁How 1
ett 1
▁Nelson 1
▁Band 1
Fa 1
▁teaser 1
▁XV 1
▁Make 1
mit 1
Cycl 1
▁Mog 1
▁Gear 1
10) 1
▁hip 1
▁Dou 1
-150 1
▁PP 1
▁Hindu 1
zen 1
▁Kay 1
News 1
▁1917 1
▁Britney 1
▁Tah 1
+3 1
▁Bag 1
▁10-12 1
cat 1
oni 1
▁Pak 1
▁Design 1
AF 1
watch 1
▁Vic 1
2000 1
VAS 1
▁Kid 1
▁198 1
xia 1
▁Demi 1
▁gluco 1
▁corti 1
dine 1
▁KV 1
▁code 1
cán 1
▁Mode 1
▁Ag 1
▁pH 1
▁CBS 1
DR 1
▁Jam 1
Land 1
▁Muhammad 1
world 1
▁1925 1
hol 1
tura 1
▁Sto 1
760 1
▁Aaron 1
Par 1
asia 1
▁Rin 1
▁Sach 1
550 1
▁Buenos 1
od 1
▁Dic 1
▁1912 1
▁34. 1
hman 1
eva 1
dd 1
pot 1
▁Orlando 1
sland 1
▁Point 1
nôm 1
ets 1
264 1
▁Gerard 1
▁Limited 1
▁Epi 1
gin 1
-1) 1
▁Share 1
▁Wisconsin 1
rak 1
▁DK 1
▁Control 1
▁Sound 1
▁smart 1
vada 1
inka 1
▁Chun 1
▁Philipp 1
▁Gha 1
▁Scu 1
▁Pink 1
▁Lei 1
/01 1
▁Lung 1
▁Nice 1
▁cup 1
card 1
chip 1
enne 1
ison 1
1993 1
▁Interes 1
El 1
cket 1
▁Rak 1
kes 1
/09/ 1
anum 1
tv 1
Ge 1
QQ 1
▁1.1 1
bs 1
far 1
▁149 1
▁Eye 1
▁1914 1
▁Falk 1
▁nylon 1
lé 1
/18 1
▁Knight 1
▁Lata 1
TY 1
▁Lion 1
▁Wann 1
▁Main 1
illy 1
1996 1
cut 1
▁Pia 1
▁BM 1
101 1
▁Seven 1
lee 1
▁Aqua 1
▁Peugeot 1
▁Corporation 1
▁Wind 1
– 1
▁Now 1
▁Report 1
kira 1
▁AM 1
▁box 1
9,9 1
Men 1
9,8 1
▁Spur 1
▁Papua 1
AA 1
▁159 1
ties 1
▁Sou 1
▁Karim 1
▁Stockholm 1
Cloud 1
▁Nintendo 1
▁gel 1
▁Hil 1
▁1922 1
▁Xbox 1
▁microSD 1
ow 1
1,7 1
▁Drive 1
▁Raja 1
icum 1
▁Catherine 1
▁comment 1
▁Sil 1
kura 1
▁Are 1
▁Hongkong 1
/07/ 1
▁171 1
ding 1
▁Av 1
dom 1
▁Xiao 1
tron 1
hard 1
isha 1
NET 1
▁Vel 1
▁Rein 1
NJ 1
▁KP 1
▁Block 1
yle 1
rida 1
cant 1
llus 1
▁toilet 1
▁2012) 1
▁460 1
▁Sebastian 1
Cor 1
▁Spider 1
▁1500 1
ISA 1
▁Lima 1
▁1800 1
BRE 1
▁ne 1
▁Hend 1
▁Research 1
▁Visa 1
fol 1
bil 1
illo 1
▁Mans 1
1,8 1
▁Final 1
▁Joan 1
▁Haram 1
▁Ele 1
▁love 1
▁1918 1
dra 1
▁Hid 1
zin 1
CW 1
▁1928 1
hur 1
▁Cr 1
▁Brother 1
▁Nano 1
dow 1
vel 1
▁MI 1
ppa 1
▁oz 1
lá 1
▁Bry 1
polis 1
ym 1
▁Casa 1
▁Kati 1
▁Malta 1
mino 1
ddin 1
670 1
▁Pru 1
▁Technology 1
▁Fir 1
kova 1
cast 1
▁McDonald 1
▁blue 1
dale 1
bike 1
sine 1
7.0 1
eko 1
▁Ol 1
-33 1
▁Grace 1
▁Birmingham 1
▁1924 1
mani 1
110 1
wald 1
▁2013) 1
▁Sud 1
iyah 1
link 1
▁Kras 1
▁Kansas 1
vic 1
▁Kenn 1
wat 1
▁McLaren 1
▁viol 1
lı 1
▁Bryan 1
▁Mot 1
esh 1
▁Mind 1
▁Flores 1
het 1
fish 1
▁290 1
ds 1
▁cap 1
amine 1
▁Turbo 1
ming 1
▁1910 1
hida 1
că 1
▁full 1
▁Lor 1
Can 1
▁Dead 1
▁Madonna 1
uan 1
▁Tik 1
IFF 1
rop 1
hou 1
llis 1
▁245 1
zne 1
fax 1
▁Focus 1
▁pô 1
lat 1
▁Cesar 1
hiya 1
▁Blanco 1
24. 1
▁Mumbai 1
▁1919 1
elo 1
TU 1
fur 1
▁1927 1
nova 1
tá 1
▁Ata 1
ssum 1
▁Mill 1
▁dô 1
▁Barry 1
▁Side 1
CES 1
BU 1
nê 1
▁Marcos 1
LG 1
▁sam 1
oto 1
▁Ek 1
ore 1
tte 1
▁Llo 1
▁Pablo 1
95% 1
Real 1
ppy 1
lê 1
Miss 1
▁Elite 1
▁Schi 1
game 1
aux 1
▁Cru 1
raz 1
▁Square 1
▁Stefan 1
▁AH 1
▁Dara 1
▁Chart 1
▁5.5 1
▁Morris 1
sio 1
▁Woman 1
RG 1
▁Watson 1
▁6- 1
rani 1
ere 1
von 1
▁Carol 1
▁33. 1
abad 1
▁Gordon 1
▁Bach 1
▁Hub 1
jar 1
▁Koh 1
▁Blanc 1
▁Jaguar 1
oso 1
ari 1
▁Math 1
▁540 1
▁Arka 1
das 1
▁XVI 1
-32 1
▁157 1
▁4.4 1
▁Deportivo 1
Fe 1
▁181 1
▁Ala 1
▁Thom 1
▁México 1
wn 1
▁Pla 1
▁12,5 1
▁Bee 1
▁not 1
▁ESP 1
▁2011) 1
usta 1
▁gara 1
ted 1
Don 1
PAC 1
▁Tele 1
279 1
IFA 1
▁opera 1
▁Shir 1
gam 1
▁Way 1
kull 1
▁Sz 1
▁Cloud 1
▁Med 1
▁Salvador 1
▁Hack 1
▁1911 1
▁item 1
▁Under 1
▁Yak 1
▁Jazz 1
Indonesia 1
▁Mono 1
▁Joachim 1
omi 1
▁Patriot 1
FP 1
333 1
▁Universal 1
OP 1
▁199 1
▁đươ 1
ade 1
▁Law 1
vă 1
▁Marine 1
nach 1
▁Valle 1
▁anime 1
/16 1
Gazprom 1
pat 1
anada 1
rella 1
▁1913 1
▁Batman 1
▁Vatican 1
uki 1
3,0 1
▁Film 1
▁Gill 1
▁Copenhagen 1
▁Mina 1
champ 1
▁192 1
▁Jag 1
/04/ 1
use 1
▁Trip 1
egi 1
cea 1
▁10,5 1
▁Ruby 1
▁176 1
▁Arte 1
▁151 1
▁154 1
▁Pyr 1
tamine 1
olla 1
gno 1
Ỳ 1
▁1908 1
▁Hugh 1
▁Story 1
▁Dur 1
▁Borussia 1
berry 1
▁Athletic 1
▁Coco 1
▁Luxembourg 1
▁Fre 1
▁Antoine 1
▁Last 1
▁Marca 1
▁Pana 1
10% 1
▁Prime 1
venta 1
pti 1
▁Bot 1
▁Liberty 1
nell 1
hr 1
▁Dam 1
key 1
▁VE 1
▁Seattle 1
3.7 1
dele 1
▁Company 1
▁Talk 1
Per 1
tze 1
wal 1
▁Viss 1
▁Pradesh 1
▁1923 1
▁Franklin 1
▁Dick 1
sida 1
▁CCTV 1
747 1
shop 1
cti 1
▁179 1
▁VR 1
odon 1
▁Mir 1
▁Grant 1
▁Sociedad 1
roy 1
bé 1
nsa 1
▁Valley 1
lac 1
▁Maz 1
1994 1
▁Zara 1
dle 1
▁Luz 1
ovina 1
▁Gray 1
▁out 1
▁Stanford 1
ders 1
mata 1
▁CÔNG 1
▁189 1
lata 1
▁Pac 1
▁tè 1
ké 1
▁blockchain 1
▁Lac 1
lea 1
sit 1
▁4.5 1
NB 1
▁Mus 1
▁Cos 1
▁Not 1
dou 1
▁KI 1
hir 1
▁bons 1
▁cy 1
▁Gri 1
360 1
IF 1
▁Dyna 1
▁Marshall 1
ction 1
▁Barbara 1
▁Senegal 1
▁bra 1
▁184 1
▁Meghan 1
▁INS 1
▁Josh 1
▁Sat 1
cla 1
xt 1
sam 1
180 1
Ga 1
▁Marina 1
/05/20 1
▁Kwa 1
lene 1
▁Set 1
hev 1
nza 1
▁Lazada 1
Eco 1
BR 1
coli 1
color 1
kawa 1
▁DV 1
bí 1
FE 1
vina 1
▁mobile 1
▁Friday 1
eth 1
emon 1
▁Astra 1
▁Friedrich 1
▁Linda 1
56% 1
▁kil 1
rif 1
té 1
▁Silver 1
229 1
One 1
iso 1
▁Musta 1
▁Mem 1
lux 1
▁Vivo 1
rik 1
▁Ok 1
▁un 1
rett 1
▁2023 1
yun 1
30% 1
▁6.5 1
ges 1
▁Ander 1
core 1
icky 1
▁Apollo 1
▁Arch 1
idea 1
▁Word 1
▁Rup 1
▁Pit 1
▁Kyoto 1
▁Sarkozy 1
▁His 1
▁2018-2019 1
▁Stewart 1
sberg 1
AO 1
▁2008) 1
neo 1
▁Coupe 1
▁Virgin 1
af 1
1972 1
▁Player 1
▁Neuro 1
▁Mand 1
25% 1
▁Hali 1
▁Philadelphia 1
▁Mae 1
3.6 1
RI 1
▁Kal 1
INA 1
285 1
▁Pil 1
Australia 1
mur 1
Gra 1
ém 1
SU 1
rica 1
▁post 1
eau 1
lands 1
corp 1
▁Number 1
▁164 1
▁Klo 1
▁Blog 1
▁Lauren 1
enberg 1
▁mono 1
end 1
▁04. 1
▁Typ 1
yon 1
▁AMD 1
▁Natal 1
WD 1
▁fashion 1
007 1
▁Kush 1
jah 1
may 1
For 1
1988 1
▁2014-2015 1
We 1
▁× 1
▁Sunny 1
yana 1
▁Cali 1
▁172 1
▁Wid 1
▁1905 1
▁Milo 1
▁Hea 1
teng 1
▁Thunder 1
iki 1
770 1
▁1926 1
tone 1
▁Classic 1
As 1
▁Year 1
zie 1
▁Slim 1
▁Think 1
gay 1
▁Christine 1
490 1
hd 1
▁Over 1
▁(?) 1
llo 1
▁440 1
▁Adidas 1
entia 1
gabe 1
▁512 1
4.9 1
▁201 1
▁it 1
ras 1
▁1916 1
Pe 1
YG 1
▁Ghost 1
780 1
bb 1
▁Komp 1
▁SAR 1
▁Thompson 1
graph 1
▁Angola 1
chet 1
ries 1
▁Let 1
▁Optim 1
▁Vigo 1
XL 1
140 1
ego 1
▁OK 1
▁Tem 1
▁Field 1
▁Dallas 1
Cal 1
▁Sparta 1
▁Delta 1
190 1
▁183 1
▁TA 1
▁4000 1
▁Like 1
▁gra 1
zuki 1
15% 1
pô 1
▁Virus 1
▁Pet 1
▁Asi 1
▁Islam 1
▁Citi 1
▁DAP 1
▁Who 1
baby 1
VR 1
▁Oregon 1
▁Bing 1
▁Ud 1
▁Kru 1
▁nua 1
▁Gin 1
▁Steel 1
▁name 1
enburg 1
▁Sant 1
▁Hunter 1
ies 1
ovi 1
vir 1
ssen 1
▁Sunday 1
1991 1
▁Albi 1
GIA 1
sir 1
▁mon 1
▁Display 1
▁Evan 1
▁Gonzalo 1
ulatus 1
787 1
▁Nie 1
▁OnePlus 1
tier 1
▁197 1
▁dó 1
eye 1
ald 1
▁3.1 1
▁SI 1
▁202 1
▁640 1
▁177 1
▁Kry 1
▁Ris 1
oth 1
▁Einstein 1
▁195 1
nas 1
gram 1
ught 1
IL 1
▁161 1
▁EP 1
▁Aquino 1
▁Solo 1
gun 1
▁PCI 1
IG 1
pte 1
cap 1
▁10-11 1
▁Electric 1
orum 1
nor 1
NHK 1
plu 1
-01 1
nel 1
ulia 1
lica 1
▁Carne 1
▁Review 1
▁Aga 1
sion 1
▁Chao 1
▁Hava 1
▁Tumblr 1
2002 1
▁Caroline 1
▁Fen 1
▁marathon 1
▁LO 1
▁Mig 1
MIT 1
▁Alzheimer 1
▁MAI 1
-2019 1
▁Qi 1
▁1915 1
1990 1
stre 1
sula 1
▁This 1
▁Vista 1
▁chr 1
bie 1
▁Suu 1
▁Gon 1
▁Find 1
▁(2016) 1
▁2018) 1
783 1
▁Hello 1
▁macro 1
nal 1
1992 1
▁Fas 1
SCI 1
170 1
▁Gigi 1
1,2 1
▁Lukas 1
ttoman 1
▁~ 1
▁Recep 1
inus 1
▁Beau 1
gata 1
gra 1
sto 1
▁Amar 1
ose 1
ré 1
▁Ninja 1
▁Florence 1
▁Sci 1
PD 1
▁5- 1
thal 1
toma 1
▁Sofia 1
▁Speed 1
▁Otto 1
oglu 1
▁moi 1
usa 1
▁215 1
▁Arian 1
▁Pres 1
▁Espanyol 1
▁Pictures 1
▁Oracle 1
▁Gent 1
ax 1
▁QR 1
▁(2015) 1
▁Hero 1
pra 1
▁LPG 1
MZ 1
▁173 1
sten 1
298 1
▁Ant 1
+2 1
▁560 1
▁his 1
Mas 1
▁Cass 1
▁Heb 1
▁Playboy 1
▁Mana 1
▁Boys 1
▁Jeremy 1
▁Rum 1
nico 1
cci 1
umi 1
ila 1
rel 1
▁Goo 1
▁Sche 1
▁nép 1
▁1906 1
▁Hz 1
ily 1
▁Gab 1
▁tweet 1
▁Iphone 1
lez 1
ue 1
▁au 1
1.5 1
▁Neil 1
đen 1
LN 1
Or 1
khon 1
pel 1
▁Vital 1
ugh 1
▁Bei 1
tting 1
ili 1
▁EUR 1
▁Falcon 1
▁Bobby 1
▁Mix 1
kr 1
▁(2013) 1
▁Stu 1
lius 1
990 1
▁DW 1
▁Boa 1
▁Swe 1
▁bah 1
lander 1
▁Att 1
▁205 1
▁Magic 1
▁Captain 1
suit 1
▁(2014) 1
dora 1
nian 1
/2002 1
road 1
▁Confe 1
2005 1
mun 1
ardo 1
tata 1
▁German 1
▁Blind 1
▁Just 1
▁HDMI 1
▁Holmes 1
▁Montenegro 1
dorf 1
▁gly 1
▁Titanic 1
▁1921 1
▁EX 1
▁Kiss 1
▁Aleksandr 1
ū 1
▁Bert 1
zar 1
▁den 1
▁Adams 1
▁AMOLED 1
LK 1
cou 1
log 1
▁Hyper 1
virus 1
yor 1
▁Mia 1
poro 1
yk 1
▁203 1
▁Austin 1
▁5.1 1
$ 1
OTT 1
▁Hit 1
Plus 1
740 1
▁BK 1
▁With 1
▁Bau 1
▁GSM 1
buri 1
▁Afrin 1
kistan 1
▁BO 1
▁Management 1
▁Dave 1
anto 1
▁Franc 1
5.9 1
tella 1
▁hoe 1
ozni 1
rand 1
▁Ná 1
nier 1
▁Olivier 1
cium 1
▁Celtic 1
220 1
▁Hip 1
▁Ring 1
▁630 1
▁Palermo 1
▁ura 1
▁Prix 1
▁coup 1
▁Madagascar 1
▁Summer 1
▁AG 1
40% 1
Live 1
iko 1
▁Blake 1
▁Indi 1
▁Wright 1
hon 1
▁Suma 1
trop 1
pon 1
NEN 1
▁1909 1
pras 1
▁Himalaya 1
▁193 1
▁Ave 1
1954 1
▁Pul 1
llow 1
▁Division 1
GI 1
▁Dome 1
pia 1
ory 1
▁Chamber 1
▁Luci 1
▁Nord 1
▁Vale 1
:00 1
▁Elle 1
▁Joel 1
▁cross 1
▁-1 1
280 1
lop 1
tle 1
▁186 1
sty 1
380 1
▁Studios 1
▁street 1
▁LAN 1
sim 1
Je 1
phal 1
▁DB 1
▁Rom 1
▁Vara 1
chol 1
bey 1
/12/2018 1
▁Russell 1
/03/ 1
135 1
Ờ 1
▁Schneider 1
Tech 1
cú 1
▁2.6 1
▁RM 1
hov 1
Gu 1
mai 1
Eu 1
llen 1
▁Af 1
▁bas 1
jon 1
rell 1
▁Het 1
▁4.1 1
bane 1
▁Lance 1
▁Work 1
▁Wein 1
▁Indian 1
bah 1
▁THÀNH 1
▁Henri 1
▁Lead 1
ntes 1
6-0 1
▁manga 1
▁166 1
▁José 1
oba 1
shik 1
▁4.3 1
▁1891 1
▁Phoenix 1
▁copy 1
chung 1
▁Bala 1
sser 1
Bay 1
lama 1
▁Geno 1
▁Habe 1
RR 1
cre 1
kina 1
roll 1
she 1
Mobile 1
NAS 1
eno 1
former 1
▁Monroe 1
▁Flam 1
ping 1
▁nõ 1
▁talk 1
768 1
sz 1
RF 1
ibo 1
90% 1
xxx 1
▁40-50 1
SKA 1
12) 1
▁Oto 1
636 1
nú 1
psy 1
1989 1
▁SBS 1
ms 1
▁Caribbean 1
▁Greg 1
sie 1
▁Lov 1
▁390 1
▁Sahara 1
▁Nico 1
cic 1
▁Og 1
You 1
5.8 1
▁Alam 1
CEP 1
356 1
8.5 1
/09 1
Ữ 1
▁Hughes 1
▁Stanley 1
leri 1
▁True 1
Ke 1
IZ 1
zzo 1
▁Moldova 1
▁EA 1
▁Tong 1
▁217 1
▁Guz 1
▁Alg 1
wer 1
▁Chro 1
Mbps 1
▁Paolo 1
▁CHI 1
EV 1
▁Deep 1
666 1
▁Ricardo 1
▁ball 1
▁HR 1
▁Safari 1
cking 1
▁208 1
▁Zero 1
345 1
▁ton 1
dera 1
▁Kno 1
▁er 1
▁Age 1
▁Merc 1
▁mic 1
▁Complex 1
:45 1
ful 1
▁Dro 1
▁Vladi 1
ML 1
United 1
▁Nag 1
▁Defense 1
Ỷ 1
105 1
▁Slav 1
max 1
▁nãy 1
Her 1
water 1
▁Off 1
▁PlayStation 1
▁Stuttgart 1
▁rating 1
▁(4) 1
▁are 1
▁End 1
02. 1
▁MD 1
▁news 1
▁Rao 1
▁mac 1
▁Jak 1
▁bari 1
▁Chuck 1
▁Ernest 1
▁photoshop 1
233 1
tom 1
fre 1
anti 1
aren 1
▁Kis 1
-38 1
▁Isabel 1
▁530 1
lett 1
post 1
▁Trend 1
Ben 1
oya 1
aj 1
▁Audio 1
col 1
cke 1
tric 1
vus 1
fen 1
▁Service 1
0.4 1
1946 1
dge 1
▁3.3 1
▁Eiffel 1
4) 1
+0 1
cine 1
▁(2009) 1
▁999 1
▁Ferrer 1
cata 1
▁Guan 1
shan 1
▁Anand 1
▁all 1
▁melan 1
8,1 1
ons 1
1968 1
▁QUỐC 1
Air 1
tics 1
980 1
▁Florentin 1
Cam 1
▁Bengal 1
▁Comp 1
▁Vancouver 1
band 1
▁Fun 1
▁PK 1
▁kW 1
BY 1
▁Geo 1
ullah 1
▁Bremen 1
▁Ó 1
▁Russia 1
▁That 1
▁Lie 1
▁Sylv 1
▁salon 1
▁Baha 1
nett 1
RB 1
▁Grey 1
iti 1
▁Software 1
▁Tê 1
▁Oz 1
nga 1
▁Sev 1
▁1.1. 1
▁10- 1
▁Alp 1
▁Sana 1
ob 1
▁gala 1
▁470 1
Dan 1
etti 1
▁Nes 1
ret 1
ttle 1
uc 1
▁Maritim 1
1,4 1
▁Khal 1
plan 1
▁187 1
bri 1
▁Cala 1
▁Sid 1
oma 1
▁Kindle 1
iner 1
varia 1
▁Hei 1
▁Soft 1
1,9 1
ET 1
▁Pie 1
bou 1
▁August 1
axi 1
diff 1
▁England 1
mbu 1
▁Oil 1
288 1
▁Celta 1
-45 1
▁Dylan 1
▁Stoltenberg 1
▁download 1
thri 1
▁Concert 1
WC 1
▁Nang 1
Bag 1
pil 1
▁List 1
vili 1
▁(100 1
240 1
ct 1
▁Ericsson 1
▁2,0 1
▁Reus 1
▁Tot 1
▁Andrei 1
▁Să 1
[ 1
▁Spark 1
leg 1
THI 1
▁Margaret 1
▁Narendra 1
▁182 1
ANA 1
▁Sel 1
Mari 1
▁169 1
monia 1
▁homes 1
room 1
1999 1
tran 1
▁Rub 1
▁hand 1
chester 1
▁(2012) 1
▁Styl 1
▁Andreas 1
▁pan 1
mang 1
else 1
70% 1
head 1
mix 1
▁Concept 1
▁pseudo 1
▁py 1
yol 1
▁1200 1
▁Systems 1
▁Tea 1
▁BN 1
nah 1
▁AL 1
▁204 1
bile 1
▁KBS 1
▁zoom 1
lei 1
igi 1
▁Barne 1
▁Gustav 1
park 1
▁IPS 1
vara 1
▁Sten 1
▁eBay 1
▁Cel 1
MW 1
▁Claudio 1
▁Nicaragua 1
▁Avia 1
cano 1
èng 1
▁235 1
▁sin 1
6.9 1
870 1
232 1
▁1907 1
▁Ré 1
▁Union 1
▁Enterprise 1
SEM 1
CAF 1
▁Ice 1
7) 1
bes 1
fun 1
▁Us 1
lt 1
lâ 1
▁Mood 1
ega 1
▁Ari 1
▁sushi 1
/02 1
▁Luxury 1
cks 1
08) 1
9.9 1
▁Desi 1
hane 1
nelli 1
/04 1
▁Dí 1
▁Volvo 1
▁Bey 1
▁start 1
vante 1
▁Medi 1
▁1895 1
▁Dennis 1
▁Tata 1
▁Roosevelt 1
bir 1
mato 1
ui 1
▁bâ 1
▁222 1
Ru 1
qi 1
BO 1
Mon 1
▁Forest 1
▁(2011) 1
▁Dhabi 1
▁Eve 1
▁Wer 1
tris 1
▁module 1
▁DOC 1
ilo 1
▁(2010) 1
▁Flickr 1
roc 1
tten 1
▁Och 1
flu 1
▁Manga 1
▁Tommy 1
bana 1
bour 1
CIA 1
ole 1
▁brevi 1
▁2013-2014 1
050 1
pas 1
▁Dj 1
dur 1
690 1
gre 1
uli 1
▁Kosovo 1
▁1904 1
▁Alt 1
Shi 1
▁410 1
▁Prat 1
▁Ras 1
▁209 1
imo 1
soni 1
▁Basti 1
▁Kova 1
▁Nicholas 1
eli 1
RA 1
▁RC 1
▁Bordeaux 1
▁CI 1
KB 1
ama 1
▁Christina 1
fried 1
flo 1
▁Vice 1
chat 1
~ 1
tii 1
▁Mandela 1
bak 1
▁Boldsky 1
▁Kawa 1
rina 1
amp 1
880 1
▁Expo 1
▁Meli 1
2,8 1
LP 1
inn 1
tif 1
▁+1 1
▁foli 1
260 1
Ly 1
▁Hud 1
daily 1
▁Nancy 1
▁Nar 1
lade 1
▁Vis 1
▁194 1
▁Code 1
zaki 1
▁Front 1
▁Hel 1
▁Andres 1
lang 1
▁Vivi 1
space 1
pher 1
▁Res 1
tene 1
tek 1
▁Gum 1
▁Women 1
▁Kent 1
mber 1
mini 1
▁County 1
▁2-5 1
▁Records 1
▁Stad 1
▁Fay 1
rac 1
zio 1
ILO 1
▁Netflix 1
ical 1
fort 1
▁Cisco 1
385 1
7.9 1
▁Lithuania 1
▁Vicente 1
▁Jerry 1
▁Village 1
▁data 1
ential 1
▁Ann 1
done 1
▁(2008) 1
▁Coin 1
▁Kala 1
▁Ei 1
435 1
248 1
hóp 1
▁one 1
9.5 1
▁Monster 1
▁kilo 1
hee 1
▁Bald 1
▁Galatasaray 1
dron 1
▁Stars 1
Am 1
▁NTB 1
4.6 1
May 1
▁188 1
eg 1
▁: 1
mum 1
mobile 1
IO 1
teri 1
MU 1
rogen 1
Ad 1
▁Fon 1
▁510 1
▁Lille 1
▁1901 1
▁Look 1
cz 1
▁Kou 1
▁Ou 1
razil 1
cil 1
▁jazz 1
▁Aki 1
▁Napoleon 1
▁Residence 1
▁rin 1
hun 1
oce 1
2,6 1
▁UNICEF 1
▁SR 1
▁Rey 1
▁Search 1
▁1902 1
▁Family 1
curi 1
psi 1
▁Cafe 1
NAM 1
mba 1
▁Alexandre 1
▁Goth 1
▁Single 1
▁Wifi 1
suk 1
-2000 1
para 1
▁Tiffany 1
nja 1
too 1
2.5 1
▁Razak 1
Wal 1
▁Gay 1
▁Jens 1
▁Dana 1
press 1
stel 1
▁Def 1
▁Urban 1
tsen 1
355 1
▁Tomas 1
eline 1
▁Head 1
-2005 1
▁bak 1
6.8 1
pina 1
vil 1
▁Marg 1
ICS 1
▁Joshua 1
▁Schl 1
mono 1
▁Frederic 1
▁Ú 1
lec 1
sca 1
Arsenal 1
▁Alberto 1
8.9 1
SF 1
▁Winter 1
OI 1
copy 1
▁206 1
1973 1
ater 1
▁325 1
▁Orange 1
▁Adobe 1
▁we 1
▁Newton 1
▁Schul 1
▁Fight 1
▁Ole 1
▁Lé 1
KI 1
▁shoot 1
VM 1
▁216 1
▁IL 1
ffer 1
tak 1
▁3- 1
▁Isa 1
▁Vers 1
DH 1
Mai 1
down 1
▁Schmidt 1
▁Tag 1
▁Kazan 1
▁Robinson 1
ics 1
▁1898 1
▁1903 1
▁Brenda 1
▁Discovery 1
tsch 1
▁Color 1
675 1
▁Omega 1
kers 1
▁5.2 1
▁kara 1
craft 1
▁Aba 1
nio 1
▁Sava 1
▁Cop 1
▁mp 1
FM 1
Pre 1
bala 1
Ci 1
▁electro 1
med 1
nata 1
nc 1
▁Modern 1
▁1899 1
▁Active 1
▁Beg 1
sex 1
▁20-25 1
▁Malcolm 1
▁Taka 1
▁Est 1
▁Kaz 1
890 1
▁Pearl 1
▁If 1
▁218 1
▁Australian 1
▁Tyr 1
▁Rim 1
asto 1
▁Cent 1
▁Schwarz 1
▁Only 1
▁Diva 1
▁UK 1
▁Claire 1
▁Jenny 1
▁Kes 1
▁Santo 1
bê 1
dina 1
5-8 1
kash 1
LONG 1
▁Ore 1
gá 1
unu 1
vie 1
▁KHÔNG 1
BF 1
▁XVII 1
▁ez 1
488 1
trát 1
▁GPU 1
▁Nina 1
▁Beyonce 1
Food 1
uddin 1
▁Rah 1
▁Eagle 1
▁CASA 1
▁Mati 1
work 1
plex 1
▁191 1
/03 1
wiki 1
rol 1
▁Sham 1
▁GE 1
▁Kash 1
▁Pá 1
nna 1
rano 1
▁suit 1
▁Balkan 1
▁Kep 1
▁offline 1
▁YPG 1
▁Karen 1
air 1
wall 1
590 1
▁Kum 1
▁Fro 1
▁Pav 1
fat 1
̀ 1
▁Hope 1
▁Diesel 1
▁Gaz 1
▁Mura 1
▁Soul 1
▁Coffee 1
▁275 1
lip 1
mela 1
▁cor 1
▁was 1
dini 1
tung 1
bic 1
▁Atom 1
▁Lem 1
/20 1
▁Ley 1
270 1
▁DI 1
▁Hut 1
▁SPD 1
▁wa 1
▁Scr 1
▁Nation 1
istic 1
king 1
rs 1
ces 1
▁Mona 1
KN 1
278 1
▁Collins 1
▁DF 1
▁Academy 1
▁Beta 1
▁(2017) 1
▁Solar 1
lem 1
▁Hybrid 1
lone 1
▁Pick 1
tius 1
▁File 1
▁Spiegel 1
▁Atlanta 1
▁Romeo 1
▁Ami 1
▁Georgi 1
IN 1
▁BG 1
▁Sophia 1
point 1
rá 1
▁Bron 1
stri 1
▁Gregor 1
▁Starbucks 1
pyr 1
▁ES 1
7.8 1
▁Edin 1
04) 1
SIS 1
▁Allianz 1
▁cocktail 1
oid 1
▁í 1
▁Lotus 1
Í 1
PJ 1
▁What 1
▁q 1
▁IR 1
▁Wie 1
ih 1
▁Shell 1
▁Investment 1
▁Pris 1
▁Fern 1
▁10-20 1
▁Ott 1
imet 1
▁SOS 1
▁Yer 1
▁Strauss 1
obo 1
igh 1
▁Act 1
rise 1
▁1896 1
▁bio 1
▁Special 1
▁AV 1
▁Qa 1
▁Valeri 1
▁Beth 1
ATA 1
ROS 1
mara 1
É 1
▁Farm 1
▁Torino 1
/1999 1
oku 1
▁Wilhelm 1
aba 1
102 1
▁Kill 1
▁Christi 1
▁Atlantic 1
950 1
lep 1
▁Kirk 1
▁Johan 1
6,0 1
iston 1
aka 1
ilen 1
sti 1
▁Praha 1
OJI 1
Pay 1
▁Cassi 1
▁Moses 1
today 1
▁Alabama 1
▁Papa 1
city 1
kon 1
▁Lah 1
▁NBA 1
386 1
▁Map 1
▁Part 1
▁Ace 1
CERT 1
pura 1
▁Beli 1
▁Vir 1
Alpes 1
iv 1
▁WiFi 1
▁Luc 1
▁made 1
▁Sax 1
▁Belle 1
isia 1
790 1
▁Blair 1
▁Racing 1
ES 1
▁mas 1
Que 1
▁IE 1
▁Mitchell 1
tari 1
▁pic 1
▁Champion 1
▁Snapchat 1
iger 1
▁Asta 1
▁Buch 1
▁Spy 1
8.8 1
▁spin 1
▁Pag 1
▁Pato 1
▁Vuitton 1
▁Eddie 1
lí 1
rock 1
▁IELTS 1
liner 1
▁PLA 1
▁Rosen 1
8) 1
▁1890 1
▁Nielsen 1
▁Trop 1
8.2 1
hl 1
▁Chau 1
▁cur 1
▁207 1
▁over 1
75% 1
5.6 1
▁1897 1
APE 1
▁Ano 1
andro 1
▁Step 1
ott 1
fra 1
toria 1
▁Jar 1
▁Cool 1
▁Sandra 1
▁Giz 1
▁(2007) 1
▁(2006) 1
▁Dual 1
440 1
▁3.4 1
NZ 1
▁size 1
att 1
elka 1
▁7- 1
▁Jeffrey 1
▁Noi 1
cs 1
lera 1
▁Digi 1
GR 1
▁GR 1
▁WhatsApp 1
ulus 1
▁Sup 1
▁Sultan 1
ienne 1
rir 1
▁Arnold 1
▁pastel 1
▁213 1
stov 1
▁Marin 1
Ste 1
ika 1
▁ASUS 1
jima 1
ost 1
6-9 1
aga 1
della 1
▁Crypto 1
▁XXI 1
5.7 1
▁Abraham 1
▁224 1
quia 1
cie 1
tory 1
▁Harrison 1
▁Ida 1
▁Phr 1
rom 1
▁Ober 1
0% 1
▁Gat 1
▁Jonas 1
She 1
cosa 1
▁Jab 1
835 1
dro 1
ayo 1
câ 1
món 1
▁Detroit 1
▁Vinci 1
bau 1
tong 1
▁Geographic 1
▁VM 1
▁Kashmir 1
dych 1
/05 1
▁Gym 1
▁MHz 1
9,99 1
▁50-60 1
▁XVIII 1
▁JP 1
▁Pr 1
▁Patri 1
▁Militar 1
ntino 1
tive 1
Za 1
▁196 1
▁Amanda 1
ggy 1
vik 1
Un 1
aine 1
▁Petrov 1
▁Quick 1
esia 1
▁Samar 1
▁Lucy 1
▁Ralph 1
▁Western 1
-55 1
▁Kristen 1
▁Vanessa 1
▁Led 1
▁Mada 1
▁Meg 1
cto 1
cn 1
edu 1
mb 1
▁Alca 1
/100 1
2-3 1
▁Calvin 1
▁HDR 1
vos 1
▁Ach 1
▁Phar 1
code 1
▁Felipe 1
▁Iso 1
▁Cohen 1
▁Push 1
▁server 1
print 1
uga 1
tani 1
▁Bam 1
bul 1
▁Budapest 1
▁Planet 1
▁Rada 1
▁fax 1
2,3 1
2022 1
Max 1
tă 1
▁Credit 1
▁cri 1
law 1
▁Citizen 1
▁Hier 1
▁Weekly 1
▁Fost 1
eman 1
▁Grim 1
▁Oli 1
▁Honey 1
▁Monde 1
NY 1
▁Swa 1
En 1
mania 1
ovan 1
▁Monica 1
RD 1
tok 1
▁Storm 1
kal 1
▁margin 1
09. 1
▁Nin 1
VIN 1
zaj 1
▁Bean 1
▁Raymond 1
:1 1
Euro 1
VIDEO 1
cili 1
▁Continental 1
▁Lux 1
▁Montreal 1
kis 1
nder 1
▁Este 1
IPA 1
▁Constantin 1
evi 1
▁tone 1
7-1 1
▁Joy 1
970 1
ssi 1
▁Pap 1
▁ngan 1
sung 1
▁7.5 1
▁room 1
▁Mam 1
▁SU 1
ans 1
▁Colle 1
60% 1
quat 1
80% 1
▁Pun 1
08. 1
▁NFC 1
ON 1
mac 1
bú 1
gly 1
lid 1
▁DE 1
DIC 1
evo 1
FX 1
eb 1
▁tab 1
elen 1
hala 1
▁Kung 1
▁Palo 1
cchi 1
▁Ep 1
rier 1
▁214 1
▁Two 1
taka 1
1981 1
IX 1
zzi 1
▁router 1
bridge 1
▁ARM 1
elia 1
leo 1
▁265 1
▁Koch 1
nar 1
▁chips 1
rut 1
▁Fund 1
▁Lub 1
▁ju 1
ners 1
▁Lite 1
▁Diploma 1
▁Soy 1
Yosh 1
▁Buffalo 1
▁hop 1
▁Giuseppe 1
▁Herald 1
▁Movie 1
▁Clear 1
ETF 1
rant 1
▁PAK 1
dock 1
▁Fran 1
▁Kamp 1
cis 1
2020 1
▁CON 1
▁NE 1
▁Thierry 1
▁Cinema 1
rry 1
night 1
Han 1
▁Franz 1
▁Helsinki 1
ive 1
RO 1
▁Place 1
▁Bild 1
▁Kumar 1
▁Gerald 1
ciel 1
▁Adi 1
▁315 1
kai 1
San 1
wen 1
▁Sic 1
eni 1
kit 1
366 1
GF 1
act 1
▁sandal 1
horn 1
bos 1
▁211 1
▁10.1 1
Pal 1
igan 1
▁Murphy 1
▁Tell 1
▁Billy 1
▁Centre 1
fire 1
▁Tennessee 1
▁Cosmo 1
▁Julius 1
▁Keith 1
1950 1
▁(2005) 1
▁sport 1
▁Musa 1
▁VW 1
1979 1
tul 1
▁Had 1
kara 1
▁30- 1
▁die 1
MR 1
bec 1
AR 1
rp 1
vers 1
▁pen 1
NI 1
mma 1
seid 1
ithe 1
▁Jura 1
lit 1
MX 1
culus 1
▁Colin 1
▁Cele 1
▁2012-2013 1
▁Konstantin 1
▁Alma 1
manni 1
▁60-70 1
▁ICC 1
France 1
ick 1
Val 1
▁305 1
ink 1
▁Petra 1
▁Theodor 1
▁Duke 1
▁Peri 1
▁RA 1
wit 1
oca 1
▁Armstrong 1
▁bank 1
▁Mountain 1
JS 1
ew 1
▁Cola 1
▁fus 1
▁sín 1
VID 1
rap 1
▁Ono 1
bara 1
340 1
David 1
▁Saf 1
▁event 1
nji 1
▁Cul 1
ls 1
▁255 1
▁home 1
▁Romero 1
imit 1
nca 1
▁Blockchain 1
list 1
nde 1
Ko 1
▁ob 1
1) 1
▁lipid 1
▁chlor 1
▁Rik 1
rine 1
▁Liam 1
▁Mü 1
1977 1
▁Bara 1
▁Meta 1
DE 1
▁Cherry 1
▁Scha 1
100% 1
▁18+ 1
▁shopping 1
▁Philips 1
▁match 1
▁Louisiana 1
720 1
Bill 1
kur 1
▁Bed 1
▁Luca 1
▁Kurt 1
384 1
▁Warriors 1
▁ad 1
Mal 1
iae 1
ƯỚC 1
▁Stock 1
Para 1
UH 1
John 1
kir 1
▁Gali 1
▁Saddam 1
▁Olivia 1
mei 1
tâ 1
▁242 1
▁Gur 1
▁Sus 1
yr 1
▁Kol 1
▁Samu 1
Art 1
RE 1
▁Dora 1
FO 1
▁Rice 1
▁scan 1
3-7 1
dt 1
bha 1
▁Mahathir 1
372 1
court 1
▁1889 1
slav 1
▁08. 1
yd 1
▁Wo 1
TEX 1
rt 1
Pod 1
▁Subaru 1
▁Mash 1
TEC 1
▁Abhi 1
▁247 1
▁Grigor 1
▁Pix 1
▁Sex 1
289 1
folk 1
▁Pos 1
▁Lega 1
▁Malik 1
IR 1
▁Mann 1
▁Sed 1
iri 1
▁Partner 1
pt 1
kat 1
▁234 1
▁304 1
▁tie 1
/15 1
▁Education 1
▁Samantha 1
▁Five 1
vost 1
▁Saga 1
▁Ela 1
▁Roh 1
mana 1
▁Laptop 1
ssy 1
▁Mess 1
▁Juncker 1
iba 1
▁Logo 1
érie 1
▁Felix 1
9.2 1
kos 1
PE 1
amo 1
tzer 1
▁Twin 1
eken 1
▁România 1
week 1
sche 1
eux 1
▁Pack 1
▁var 1
▁Kah 1
/07 1
371 1
gni 1
lion 1
video 1
▁228 1
qa 1
▁226 1
▁ved 1
mbra 1
▁Roth 1
ires 1
razzi 1
hes 1
▁Rangers 1
▁GO 1
ér 1
▁Sophie 1
atra 1
▁Christ 1
dian 1
hám 1
Qa 1
All 1
ario 1
090 1
▁Rag 1
Ber 1
mad 1
▁219 1
▁hormon 1
gard 1
▁sit 1
▁Usa 1
王 1
6.7 1
bona 1
▁gla 1
6.6 1
ndro 1
▁227 1
▁trans 1
ezh 1
sat 1
▁Bologna 1
thar 1
lap 1
▁Eng 1
▁Oak 1
▁Lec 1
▁1880 1
Fan 1
sp 1
wart 1
▁bla 1
▁Domini 1
▁Sense 1
▁MA 1
480 1
▁Mississippi 1
Pi 1
▁Marx 1
▁Smo 1
▁Robo 1
▁DH 1
nici 1
▁Jacques 1
▁Luk 1
▁Bog 1
▁Khalid 1
▁pent 1
cino 1
▁POS 1
▁Server 1
▁Dela 1
▁São 1
dha 1
▁Boo 1
▁MR 1
▁375 1
-02 1
▁magie 1
▁Mama 1
368 1
PTI 1
▁Marcel 1
1947 1
Mail 1
367 1
▁(5) 1
▁Vos 1
▁Add 1
▁Doctor 1
▁tag 1
▁that 1
▁249 1
▁Pon 1
anna 1
boo 1
▁Rot 1
mê 1
▁6.2 1
zhi 1
camp 1
hle 1
▁Lars 1
Ol 1
▁Meri 1
jong 1
▁Quo 1
gt 1
99% 1
ground 1
idad 1
393 1
▁Sem 1
RNA 1
yah 1
MMA 1
trat 1
tea 1
tori 1
010 1
▁Bac 1
unk 1
ody 1
▁Photos 1
} 1
▁Buzz 1
▁1894 1
▁Party 1
cé 1
sum 1
▁Fol 1
▁Barra 1
mak 1
▁Sad 1
ISI 1
▁31- 1
▁Fiat 1
1967 1
▁Seng 1
ule 1
ellus 1
1987 1
5) 1
▁Pavel 1
nger 1
▁Granada 1
▁Kri 1
▁Hus 1
▁Samo 1
kut 1
▁Rumani 1
▁papa 1
▁(2004) 1
▁ci 1
▁Orion 1
▁Race 1
hid 1
Count 1
EE 1
xico 1
▁Fara 1
▁mela 1
punct 1
▁Reyn 1
▁Corte 1
▁Pang 1
wana 1
▁Boom 1
▁Energy 1
408 1
lak 1
▁Café 1
▁led 1
IEM 1
ony 1
▁Deutsche 1
oro 1
lava 1
▁Bah 1
ism 1
▁Cyber 1
pping 1
Black 1
▁Cana 1
rdi 1
chos 1
▁Crown 1
bry 1
sman 1
Drive 1
▁70-80 1
▁PDF 1
/14 1
xx 1
STEM 1
gs 1
vid 1
▁2- 1
▁Bloom 1
mand 1
▁Én 1
▁Bow 1
▁Lord 1
▁TOP 1
▁Kad 1
ceri 1
KG 1
Wa 1
alo 1
▁Abd 1
▁cotton 1
▁Psycho 1
▁Til 1
cons 1
WW 1
▁Caesar 1
ples 1
▁Bha 1
GE 1
wel 1
▁Sag 1
▁-2 1
▁Grad 1
nat 1
fin 1
▁1885 1
RL 1
chino 1
▁Gram 1
▁Multi 1
atum 1
▁Madison 1
DK 1
Love 1
▁Gem 1
363 1
▁your 1
run 1
▁Rh 1
Bab 1
graphic 1
mah 1
meli 1
bok 1
rado 1
06. 1
338 1
▁Nat 1
.11.20 1
▁Webb 1
▁Century 1
▁Wir 1
DU 1
▁ngươ 1
03. 1
iden 1
ulo 1
www 1
▁Clara 1
▁HPV 1
▁Ish 1
▁Siemens 1
▁plu 1
07. 1
▁Evo 1
1986 1
485 1
tie 1
296 1
pers 1
ACE 1
mie 1
▁Mikel 1
▁Loren 1
▁Von 1
334 1
▁Chal 1
Kon 1
▁CF 1
▁Bass 1
▁EL 1
▁MIT 1
▁buffet 1
live 1
▁Fried 1
▁Viol 1
▁baby 1
▁Hudson 1
anja 1
▁Simpson 1
pete 1
▁Adolf 1
AU 1
iel 1
lot 1
▁Saka 1
bbi 1
clo 1
dul 1
▁Cornel 1
▁ya 1
byte 1
▁History 1
cana 1
▁299 1
▁Jamal 1
lut 1
eria 1
mio 1
▁Stella 1
123 1
▁Tablet 1
▁Puli 1
cht 1
pru 1
gil 1
▁Ec 1
▁Bravo 1
film 1
gara 1
lyse 1
▁ISBN 1
gala 1
meria 1
nagar 1
nit 1
▁Té 1
Ver 1
mbele 1
ghan 1
▁Put 1
▁Lib 1
▁Tama 1
Chat 1
osta 1
xay 1
▁app 1
377 1
▁Aur 1
▁Rene 1
67) 1
▁Uttar 1
▁Sever 1
▁Eur 1
▁AA 1
▁Cord 1
395 1
spor 1
▁Buck 1
ikh 1
illard 1
▁Tina 1
▁analog 1
▁ISIS 1
▁Terra 1
XC 1
▁Saa 1
▁Edi 1
dí 1
rico 1
asi 1
▁modem 1
rer 1
▁Honor 1
▁Gross 1
▁Services 1
▁Solomon 1
▁Want 1
ub 1
ws 1
▁Tol 1
357 1
köy 1
▁ROM 1
▁Darwin 1
hum 1
moji 1
▁Eli 1
ais 1
▁Pascal 1
▁new 1
▁Fernandez 1
342 1
▁Excel 1
Che 1
strom 1
016 1
▁231 1
ushi 1
cari 1
hari 1
▁IF 1
▁audio 1
AUD 1
▁25-30 1
bella 1
iano 1
▁Raz 1
Master 1
modo 1
nen 1
jen 1
▁Eduardo 1
SOS 1
utin 1
tical 1
▁Leipzig 1
▁Rita 1
pido 1
▁seri 1
799 1
▁Globe 1
▁edge 1
asa 1
lana 1
▁Kav 1
▁Carbon 1
▁Mé 1
▁SAM 1
Mes 1
▁Manu 1
ogen 1
▁AZ 1
▁Lago 1
Game 1
▁Cash 1
At 1
CU 1
▁LE 1
▁Ontario 1
rab 1
▁Liz 1
▁fer 1
cina 1
fas 1
▁CDU 1
▁GMT 1
tropi 1
rar 1
cules 1
▁221 1
▁Fiesta 1
▁1860 1
nker 1
fest 1
▁type 1
▁FE 1
school 1
▁Oct 1
▁compact 1
▁Tito 1
doc 1
▁Mozilla 1
1961 1
raj 1
▁Lea 1
ids 1
kim 1
▁Lili 1
▁Tie 1
cid 1
▁Donna 1
▁Empire 1
KIM 1
▁Kita 1
460 1
899 1
kê 1
lab 1
▁Els 1
garde 1
chor 1
uter 1
▁Price 1
raya 1
▁Country 1
kowski 1
mari 1
tain 1
▁Social 1
388 1
HF 1
▁Ellen 1
▁Semi 1
XA 1
▁Palma 1
rua 1
▁multi 1
▁Boot 1
ahi 1
▁Kana 1
▁Proto 1
9-1 1
0.9 1
▁Jeep 1
Pop 1
▁Stuart 1
stern 1
▁Silk 1
297 1
▁Vac 1
▁Viva 1
HK 1
fla 1
▁Anda 1
glad 1
▁Stand 1
▁cui 1
378 1
iu 1
cular 1
gens 1
▁Phuket 1
7.3 1
Fac 1
▁sur 1
OPE 1
8,0 1
hra 1
ige 1
cock 1
ante 1
hip 1
▁Class 1
▁Yeah 1
104 1
Sp 1
▁Army 1
▁Leopard 1
103 1
▁Alta 1
Ã 1
6) 1
ife 1
sian 1
▁Invest 1
▁Derby 1
▁Kami 1
▁Melissa 1
▁Metal 1
▁vin 1
▁Pl 1
0.6 1
▁Chrysler 1
1.0 1
Mer 1
▁Nikon 1
emia 1
▁Southern 1
nella 1
7.7 1
lope 1
▁Malo 1
colo 1
▁Br 1
▁Luna 1
▁share 1
▁Antoni 1
▁Mrs 1
▁Avatar 1
lom 1
▁Lys 1
kaz 1
▁Spar 1
▁Money 1
▁(2003) 1
337 1
▁Bourg 1
▁Gli 1
pri 1
▁Cry 1
▁Dil 1
▁302 1
Ros 1
▁Summit 1
▁palli 1
1980 1
1962 1
trix 1
▁Chloe 1
456 1
igne 1
▁Beatles 1
▁Faro 1
pix 1
▁festival 1
109 1
▁hem 1
▁Fax 1
buk 1
▁rupe 1
jal 1
now 1
▁Tat 1
▁stream 1
▁Pokemon 1
▁Spirit 1
YM 1
▁Dawn 1
1970 1
dum 1
EMA 1
Play 1
▁1888 1
Char 1
UP 1
▁MBA 1
like 1
▁Karaoke 1
kas 1
leigh 1
▁6000 1
▁sne 1
dai 1
349 1
ket 1
▁cos 1
002 1
113 1
bilis 1
meno 1
▁Novi 1
▁Penn 1
▁format 1
aya 1
cilla 1
▁Cand 1
▁TRA 1
▁Then 1
pul 1
▁Gav 1
▁ka 1
▁mili 1
kami 1
▁API 1
▁Walk 1
▁Shield 1
8.4 1
▁Pê 1
Tur 1
mene 1
ÊN 1
▁Send 1
pit 1
vio 1
▁Gue 1
▁Ota 1
▁Save 1
linda 1
EL 1
ná 1
▁Flu 1
BK 1
spa 1
330 1
mati 1
▁Niger 1
On 1
imus 1
sít 1
cter 1
▁Herbert 1
rita 1
▁Marathon 1
mund 1
zing 1
▁Blood 1
789 1
▁(!) 1
MF 1
04. 1
▁Clare 1
▁Hoe 1
▁Reg 1
1.2 1
UU 1
Zo 1
▁Barri 1
▁Pereira 1
▁Quad 1
Stream 1
bru 1
▁Mobil 1
▁PET 1
glia 1
̉ 1
Tek 1
liver 1
ked 1
▁Cleveland 1
sana 1
▁Burg 1
ymi 1
▁UC 1
▁Nature 1
▁Season 1
▁Zy 1
▁Hamid 1
pta 1
rman 1
▁Technologie 1
▁Dag 1
CF 1
▁è 1
▁1870 1
▁Pure 1
ope 1
▁time 1
▁Carra 1
▁BD 1
▁Aman 1
154 1
▁Joko 1
elles 1
gle 1
xis 1
ander 1
rk 1
201 1
▁Economic 1
▁Beng 1
▁albo 1
▁Kitty 1
dir 1
9.7 1
stal 1
▁Access 1
▁312 1
▁rua 1
aire 1
▁Highlight 1
UX 1
▁Anders 1
▁Maka 1
▁Wis 1
▁slogan 1
▁Roche 1
365 1
vat 1
▁Ton 1
▁WC 1
1965 1
ations 1
Ỗ 1
▁Reading 1
465 1
witz 1
▁OC 1
tag 1
▁Rit 1
▁Six 1
▁Tun 1
559 1
rach 1
▁Adel 1
▁Koro 1
▁Winner 1
CON 1
hab 1
Ĩ 1
▁Zum 1
ED 1
pidi 1
▁André 1
Vo 1
▁Superman 1
mys 1
rix 1
▁Nata 1
EB 1
▁1886 1
▁mar 1
▁EOS 1
▁Toy 1
▁1893 1
▁Pinterest 1
▁Elena 1
▁Natalia 1
▁Scho 1
Inter 1
umo 1
▁Mic 1
riya 1
▁Oklahoma 1
▁Fish 1
▁Anastasi 1
IỆN 1
bold 1
rice 1
wu 1
INE 1
rau 1
▁super 1
▁Cath 1
▁Rei 1
▁talu 1
▁Lar 1
▁youtube 1
▁Pere 1
quita 1
hui 1
gol 1
▁desktop 1
▁Polo 1
▁Vera 1
▁Pă 1
495 1
data 1
pong 1
ione 1
▁254 1
dent 1
ÂY 1
▁Arm 1
Kha 1
394 1
anta 1
▁Ambros 1
3-8 1
hil 1
taria 1
rash 1
▁Rwanda 1
▁Wand 1
▁Dog 1
▁Bern 1
▁• 1
cur 1
-03 1
rim 1
spire 1
▁HBO 1
BE 1
CEO 1
quad 1
Mor 1
▁TRI 1
▁support 1
383 1
Super 1
▁Body 1
▁Bristol 1
▁Oslo 1
▁Sunda 1
LIP 1
udi 1
725 1
▁FAR 1
▁Khalifa 1
▁Have 1
/13 1
▁Stro 1
▁Gara 1
8.7 1
rini 1
suka 1
▁Apo 1
▁Justice 1
hine 1
▁Hoff 1
door 1
sul 1
▁Vall 1
rou 1
tinen 1
▁DNS 1
▁PO 1
▁Industrie 1
▁Zor 1
▁BE 1
▁Books 1
▁Fisher 1
▁back 1
332 1
▁Dari 1
▁Give 1
Video 1
▁Klein 1
Barcelona 1
MOS 1
▁Retail 1
▁AU 1
▁Bari 1
560 1
▁Magazine 1
▁Mom 1
1930 1
▁Mubarak 1
▁Pran 1
▁Seine 1
chon 1
lys 1
avi 1
MDB 1
▁Davies 1
▁Ath 1
▁DDR 1
▁Startup 1
▁Vita 1
▁AE 1
▁ED 1
born 1
▁251 1
▁Aristo 1
▁Gren 1
▁MBC 1
FG 1
▁Churchill 1
1985 1
pec 1
▁Sig 1
hod 1
▁Catalunya 1
▁Coast 1
▁0,25 1
▁Juli 1
▁Artur 1
▁Moo 1
ECO 1
▁flag 1
▁FI 1
▁LU 1
upp 1
▁idol 1
isse 1
▁Comic 1
TAS 1
▁Generation 1
▁Julio 1
SIL 1
▁Crow 1
1969 1
mát 1
Home 1
▁Mercur 1
gida 1
jun 1
▁Gate 1
raq 1
▁2017- 1
▁Corre 1
sara 1
▁Kla 1
▁sun 1
llin 1
▁Olymp 1
gaard 1
▁Blo 1
47) 1
NIC 1
media 1
yar 1
ów 1
rec 1
style 1
▁MO 1
767 1
▁Computer 1
▁Ludwig 1
▁Lloyd 1
▁301 1
▁Mano 1
ryn 1
etin 1
rius 1
▁Orleans 1
▁webcam 1
▁Bă 1
▁Gera 1
995 1
dam 1
AZ 1
▁Shakespeare 1
Work 1
help 1
▁Rush 1
▁Ava 1
ique 1
▁Seri 1
spur 1
IE 1
teria 1
348 1
Port 1
▁Philippine 1
nut 1
▁Choice 1
351 1
▁Fog 1
tov 1
▁Archi 1
obi 1
▁Louise 1
▁Redmi 1
uto 1
LY 1
IDE 1
▁1882 1
▁223 1
▁Sla 1
▁Kentucky 1
▁Bab 1
▁Path 1
▁Nvidia 1
1976 1
▁dá 1
1,0 1
▁Boss 1
▁Pass 1
▁RPG 1
▁Sami 1
▁Aj 1
neri 1
▁Atlas 1
▁under 1
397 1
ated 1
▁1600 1
shing 1
▁Ing 1
▁Know 1
▁Pam 1
▁Smile 1
bula 1
▁Kli 1
fia 1
Ỹ 1
▁Kya 1
got 1
eke 1
hli 1
late 1
▁Rebecca 1
cade 1
ppel 1
Pan 1
ndra 1
Italia 1
▁Update 1
bun 1
▁NI 1
▁Salam 1
body 1
enza 1
▁Eisen 1
▁LT 1
▁ste 1
pili 1
ât 1
640 1
mount 1
▁Era 1
rni 1
▁Verge 1
dinho 1
khan 1
uci 1
gran 1
▁1878 1
▁6.1 1
▁Kao 1
Power 1
▁Tau 1
-05 1
oo 1
0000 1
▁Aff 1
▁Kolo 1
▁Sti 1
▁Ferra 1
Ngươi 1
encia 1
alla 1
▁Andri 1
▁SB 1
cella 1
wara 1
EAD 1
ça 1
▁316 1
▁balo 1
▁face 1
0,00 1
▁track 1
115 1
pse 1
▁Spr 1
Bal 1
▁6.3 1
225 1
dung 1
lette 1
▁tré 1
577 1
▁Battle 1
▁ken 1
▁Hag 1
▁Metropol 1
mena 1
Ặ 1
▁host 1
soma 1
▁Obi 1
ASA 1
7.6 1
▁Mum 1
▁Sass 1
Top 1
▁Hypo 1
▁Valentin 1
tape 1
▁Barro 1
▁Development 1
rons 1
▁vol 1
gad 1
▁Toulouse 1
▁bal 1
▁Pred 1
339 1
▁Institute 1
387 1
▁Poli 1
398 1
1982 1
Robert 1
loc 1
ký 1
▁1850 1
hiko 1
359 1
mendi 1
smart 1
▁Tian 1
▁Total 1
uko 1
▁glu 1
▁granit 1
▁Alexandra 1
▁Short 1
▁this 1
KA 1
oko 1
▁Não 1
1953 1
▁7.1 1
bij 1
eld 1
▁7.2 1
▁Fantasy 1
▁Yok 1
raf 1
▁Iris 1
▁LV 1
▁Ig 1
▁Kle 1
tage 1
oz 1
vet 1
ESA 1
Peter 1
lof 1
▁802.11 1
▁form 1
otus 1
▁(2001) 1
▁Ucraina 1
aris 1
rest 1
▁Stefano 1
bai 1
lack 1
liga 1
tery 1
▁1871 1
▁Command 1
406 1
osan 1
▁Disc 1
▁Drake 1
dys 1
▁Annie 1
▁Herz 1
IV 1
byl 1
▁Gilbert 1
▁Hannah 1
▁MAC 1
▁Chama 1
▁THÔNG 1
▁ce 1
▁AAA 1
▁CỦA 1
▁EN 1
▁IB 1
▁Szczecin 1
▁26- 1
▁Tac 1
Bra 1
Tá 1
bla 1
353 1
688 1
▁VAR 1
mea 1
▁19- 1
▁Prague 1
UE 1
illi 1
cole 1
mpi 1
lish 1
▁Rosario 1
▁Death 1
Big 1
cken 1
int 1
▁Dolce 1
forme 1
▁Finance 1
4- 1
▁Klin 1
▁ge 1
haya 1
011 1
▁Colli 1
▁HTML 1
▁Milano 1
▁Baza 1
iah 1
roz 1
▁Sca 1
668 1
uru 1
▁Tags 1
▁Capit 1
celi 1
yna 1
▁Bear 1
duc 1
gli 1
▁Dw 1
▁Trail 1
▁1859 1
teen 1
Tip 1
565 1
nton 1
▁Mohamad 1
hila 1
▁Ville 1
gian 1
oxid 1
▁Trade 1
CHI 1
▁Dios 1
▁Winston 1
kki 1
lini 1
dah 1
LR 1
UK 1
▁Kram 1
▁Strange 1
BJ 1
iller 1
West 1
iva 1
opa 1
Ầ 1
als 1
▁Fill 1
Fer 1
▁Bora 1
▁Vul 1
347 1
vard 1
▁Kola 1
WER 1
▁sch 1
Life 1
▁5.3 1
▁Ori 1
▁cr 1
▁Bok 1
▁Cham 1
▁Johannesburg 1
Ử 1
111 1
▁Salva 1
▁Portland 1
▁Rahman 1
Prin 1
detto 1
▁8- 1
▁Hita 1
▁Never 1
▁Camar 1
▁Sharif 1
▁Thailand 1
ein 1
px 1
▁Gott 1
ect 1
gat 1
fly 1
▁riu 1
▁Olga 1
▁(6) 1
▁Conta 1
▁Stop 1
ONE 1
eed 1
bani 1
yt 1
290 1
▁Edinburgh 1
▁debut 1
aki 1
Pen 1
kle 1
▁Samir 1
▁Tren 1
344 1
▁María 1
▁ful 1
hit 1
▁Eri 1
▁Massage 1
▁phone 1
wear 1
buch 1
ebe 1
OT 1
392 1
yli 1
LF 1
ccio 1
strum 1
▁Youth 1
777 1
▁Laser 1
pian 1
ère 1
▁Bett 1
▁Staff 1
▁trend 1
▁Tym 1
▁Pou 1
▁Ef 1
Islam 1
QA 1
Va 1
▁Maine 1
▁Arts 1
AST 1
ller 1
▁Mount 1
▁Parkinson 1
▁[1] 1
bler 1
▁Galli 1
358 1
Pu 1
▁Jos 1
knapp 1
nasta 1
▁Manager 1
▁Zone 1
▁243 1
▁Nak 1
117 1
nou 1
▁Riz 1
▁Tree 1
badi 1
▁Again 1
▁Yellow 1
▁GA 1
▁Hopkins 1
▁Jackie 1
hihi 1
▁Font 1
▁Photoshop 1
▁Piano 1
tona 1
▁cut 1
▁Cream 1
▁Dre 1
▁Africa 1
IMO 1
how 1
635 1
ske 1
vali 1
wong 1
▁Berry 1
hand 1
laya 1
kie 1
▁MG 1
▁Vit 1
▁Hui 1
TED 1
▁pu 1
68) 1
▁Giovanni 1
868 1
▁Amir 1
▁Tip 1
126 1
0.8 1
476 1
thai 1
▁Baba 1
vert 1
dev 1
▁Halle 1
▁THE 1
Trans 1
rane 1
▁1887 1
RM 1
▁én 1
verde 1
▁1883 1
▁Cum 1
▁† 1
▁Dok 1
▁MAMA 1
▁(2002) 1
▁Scot 1
shma 1
REE 1
▁Det 1
fast 1
▁Ismail 1
1960 1
444 1
▁Devil 1
▁Pavi 1
Sullivan 1
▁1892 1
▁què 1
vre 1
▁Viking 1
8.6 1
Israel 1
▁Meh 1
▁Roja 1
49) 1
1984 1
gera 1
▁1875 1
▁rai 1
▁1884 1
▁tenu 1
tama 1
▁Flower 1
khe 1
▁Heidi 1
▁Mozart 1
Wil 1
rama 1
gène 1
▁Dropbox 1
▁voucher 1
▁From 1
main 1
▁Dama 1
▁Dublin 1
▁Bil 1
▁Riv 1
369 1
▁Ramadan 1
765 1
▁Daw 1
mane 1
sik 1
▁Anonymous 1
▁world 1
02/2018 1
SW 1
fil 1
illon 1
▁Capitol 1
▁Christmas 1
pala 1
2.2 1
vol 1
152 1
9.6 1
5000 1
▁Enter 1
▁bina 1
UF 1
568 1
gos 1
▁Cell 1
▁Paradise 1
EZ 1
▁Osasun 1
elt 1
lanta 1
onis 1
▁Cale 1
dana 1
ilia 1
rek 1
▁Borg 1
▁Jefferson 1
tê 1
0/5) 1
▁Moh 1
▁Bata 1
808 1
▁Adventure 1
bab 1
▁Una 1
▁Sabah 1
▁Waka 1
gur 1
▁but 1
Bri 1
▁detox 1
361 1
sher 1
▁80- 1
▁Yum 1
1964 1
hm 1
▁Production 1
468 1
spo 1
ncy 1
▁Kenneth 1
2.0 1
bli 1
▁mid 1
▁Screen 1
USA 1
fus 1
▁Gard 1
▁mega 1
437 1
:// 1
▁und 1
Sal 1
434 1
▁Bath 1
▁Cagliari 1
▁Milit 1
▁EM 1
▁{ 1
................ 1
iza 1
under 1
▁nia 1
▁Angeli 1
War 1
▁Raf 1
▁1873 1
lerin 1
▁Cinc 1
3.5 1
ESCO 1
▁Perfect 1
▁Beer 1
▁Pus 1
▁browser 1
GW 1
75) 1
ulin 1
▁Kris 1
▁Rut 1
▁Doc 1
▁Emil 1
▁Montana 1
rzy 1
▁Glaz 1
tland 1
▁Sharon 1
WA 1
allah 1
1941 1
▁1861 1
ril 1
▁Ada 1
▁ER 1
▁pis 1
381 1
▁Brenn 1
479 1
ARA 1
Rhône 1
▁Pizza 1
544 1
Crypt 1
rne 1
CIO 1
▁Dmitri 1
bora 1
▁PE 1
755 1
DSL 1
▁Society 1
this 1
▁Raff 1
▁Carvalho 1
▁Psy 1
▁Beverly 1
▁Cost 1
Ac 1
ivo 1
▁APP 1
▁Paper 1
recht 1
gom 1
uel 1
not 1
itra 1
▁1865 1
quis 1
▁7000 1
▁DHA 1
isch 1
▁Meyer 1
79) 1
BTTTT 1
FW 1
▁Olimp 1
▁UFC 1
View 1
litz 1
▁Sigma 1
genti 1
halu 1
oida 1
▁Flor 1
1963 1
667 1
▁jack 1
▁steroid 1
hof 1
▁Things 1
85% 1
uji 1
pv 1
463 1
nchi 1
stor 1
▁Mallorca 1
▁Glad 1
▁bis 1
▁Ç 1
ind 1
fon 1
▁Agro 1
775 1
mé 1
omis 1
▁CE 1
▁Elliot 1
▁Korean 1
▁Moral 1
bud 1
▁Ruth 1
FL 1
567 1
▁Deb 1
Ser 1
▁drone 1
+4 1
Bor 1
604 1
▁Buy 1
▁Alder 1
idan 1
lent 1
442 1
▁Jordi 1
1944 1
556 1
scen 1
▁Drag 1
▁serotonin 1
▁Watt 1
sien 1
▁punct 1
108 1
▁NHÂN 1
▁1879 1
▁Carles 1
bird 1
uce 1
▁Plu 1
ely 1
2025 1
zidi 1
▁Ayu 1
▁Said 1
oki 1
dot 1
▁fol 1
tesa 1
▁Comme 1
smith 1
kul 1
ffin 1
▁Daimler 1
sign 1
▁Arna 1
▁Gir 1
0.5 1
mona 1
885 1
MAS 1
▁Hold 1
▁fly 1
▁mom 1
▁organic 1
edo 1
▁Wor 1
107 1
605 1
iye 1
▁Advanced 1
sider 1
705 1
Ant 1
▁her 1
▁demo 1
▁fill 1
MAX 1
ský 1
▁Flo 1
ury 1
▁Male 1
▁Yen 1
▁group 1
agh 1
235 1
▁Lambert 1
▁Tamil 1
▁Leng 1
▁Public 1
bound 1
▁Hayat 1
▁Kata 1
▁Nach 1
lino 1
▁Mut 1
454 1
106 1
▁Swi 1
▁Katherine 1
Sho 1
nap 1
▁Communication 1
▁mót 1
baya 1
hydro 1
ingo 1
▁Russ 1
nius 1
▁Torna 1
▁Hed 1
▁Direct 1
▁Guide 1
▁Snap 1
cak 1
▁Dinamo 1
▁Geni 1
Ya 1
nol 1
▁Babylon 1
▁Princess 1
onne 1
▁Amin 1
▁Mission 1
374 1
master 1
ved 1
▁→ 1
/30 1
▁Gibraltar 1
lova 1
▁Kok 1
CIS 1
plin 1
438 1
Was 1
fal 1
▁Bowl 1
miz 1
Link 1
▁Fest 1
Franc 1
tol 1
blanc 1
his 1
▁DVB 1
▁(7) 1
▁Ide 1
rí 1
sure 1
▁Civil 1
▁Easy 1
FAT 1
▁Baik 1
▁garage 1
▁jump 1
▁Westminster 1
469 1
czesny 1
meni 1
nang 1
▁Genesis 1
▁Jud 1
ag 1
west 1
▁OM 1
▁jackpot 1
RAM 1
▁grandi 1
dog 1
hana 1
▁Action 1
1974 1
▁ĐẠI 1
▁ship 1
▁Kre 1
552 1
▁1864 1
Park 1
ales 1
020 1
433 1
tures 1
▁1869 1
▁Floyd 1
▁Feng 1
▁JW 1
anda 1
▁PKK 1
▁Lup 1
app 1
▁Francesco 1
St 1
borg 1
thala 1
ude 1
▁Spencer 1
NF 1
tions 1
▁1881 1
134 1
LAM 1
▁Peng 1
ards 1
lick 1
tú 1
Los 1
bell 1
▁Koz 1
▁MX 1
▁VOA 1
SY 1
▁COP 1
▁Spotify 1
▁1863 1
▁Wick 1
▁Wake 1
EG 1
stig 1
▁Bes 1
▁Spin 1
:15 1
ADA 1
▁Self 1
tyl 1
▁Gou 1
▁Esco 1
▁Safe 1
391 1
FR 1
Tan 1
suku 1
trí 1
▁rim 1
74) 1
ITA 1
▁Boro 1
▁Filip 1
▁Spot 1
▁Valentino 1
▁Agency 1
jung 1
▁Lara 1
▁fi 1
NEC 1
▁UT 1
▁Johansson 1
▁Edgar 1
▁Aleks 1
▁Velvet 1
▁motor 1
tore 1
12.2017 1
fri 1
icos 1
▁Alle 1
▁Lorenzo 1
mite 1
por 1
▁Feed 1
▁Fig 1
▁Candi 1
▁Ping 1
cient 1
lmaz 1
marin 1
mash 1
▁Pod 1
▁Pani 1
▁ab 1
▁call 1
tty 1
735 1
▁599 1
▁Creek 1
▁Human 1
▁carb 1
▁skin 1
scott 1
▁Silvi 1
ithi 1
▁Reddit 1
Trump 1
sensi 1
0.0 1
3.0 1
▁Break 1
▁SAS 1
▁Engine 1
▁Engineering 1
▁Henrik 1
655 1
sub 1
▁Dollar 1
▁Liv 1
▁Nicola 1
▁Sarri 1
▁Leonard 1
▁Shadow 1
▁tuli 1
gano 1
▁Brig 1
▁Troll 1
▁ultra 1
hro 1
▁Vega 1
▁Slo 1
428 1
▁quadri 1
▁za 1
ering 1
glob 1
▁Cour 1
▁12- 1
/17 1
▁pi 1
roni 1
▁rám 1
ADI 1
UV 1
▁Even 1
▁Lop 1
▁Pis 1
thin 1
▁DR 1
▁Fam 1
▁Gandhi 1
▁Saab 1
▁Wheel 1
439 1
▁sandwich 1
▁Artist 1
▁Produc 1
005 1
▁Kama 1
▁fair 1
▁Milk 1
photo 1
▁Lucky 1
-08 1
▁Graf 1
▁Gry 1
▁cell 1
▁will 1
▁pre 1
JT 1
rink 1
▁loi 1
Bro 1
448 1
▁Bona 1
▁Consum 1
▁Harri 1
▁Ms 1
998 1
▁1868 1
self 1
tí 1
▁Room 1
eran 1
▁hir 1
/50 1
▁Elvis 1
▁Cras 1
EW 1
cala 1
▁Days 1
431 1
zz 1
▁Record 1
76) 1
fit 1
ladi 1
rush 1
ort 1
cles 1
▁Mass 1
amba 1
bble 1
▁(2018) 1
lio 1
bolt 1
▁Machine 1
STAR 1
Tor 1
arius 1
▁Duo 1
▁Minute 1
▁Pont 1
▁Salt 1
yut 1
haka 1
▁Yes 1
ld 1
▁sap 1
477 1
▁turbin 1
ovo 1
▁Cyn 1
▁lia 1
▁Giorgio 1
▁Change 1
shot 1
spre 1
colli 1
uni 1
▁Association 1
601 1
uzu 1
mag 1
462 1
pre 1
wak 1
elin 1
▁Abid 1
atia 1
blo 1
canta 1
lou 1
▁Canal 1
PAN 1
hall 1
nog 1
▁MM 1
3- 1
▁525 1
▁Marriott 1
OL 1
Ve 1
yal 1
naise 1
▁Marino 1
▁Dig 1
nke 1
▁Rolex 1
▁Tank 1
555 1
▁Glu 1
▁Saw 1
baut 1
▁Carmen 1
▁Sabi 1
▁AF 1
▁Pale 1
▁Click 1
▁Ante 1
▁Jupiter 1
▁ver 1
eiro 1
mid 1
▁Braun 1
TECH 1
Hel 1
pl 1
▁(1999) 1
▁1877 1
▁Lut 1
Gar 1
tian 1
486 1
Watch 1
1.9 1
▁1876 1
11.2017 1
▁After 1
▁Patricia 1
390 1
805 1
▁Raphael 1
0.7 1
1948 1
cell 1
▁9- 1
UI 1
arena 1
mil 1
▁WWF 1
2,0 1
Bur 1
▁Belo 1
▁Pari 1
1978 1
▁Auckland 1
table 1
689 1
▁Jú 1
▁KW 1
▁Kurz 1
▁CÁC 1
685 1
785 1
ates 1
iers 1
▁Manda 1
▁Hop 1
▁os 1
stadt 1
ellen 1
2018) 1
▁Lazar 1
▁TE 1
moi 1
▁Mundo 1
drom 1
▁Raven 1
▁CAN 1
ARS 1
▁Kaya 1
rle 1
Sc 1
▁Nimi 1
▁Ani 1
bine 1
mila 1
Mad 1
TRA 1
pid 1
▁KTM 1
▁Outlook 1
GN 1
171 1
make 1
▁Burundi 1
▁Moi 1
441 1
▁Alb 1
roma 1
1.8 1
▁club 1
egu 1
▁malware 1
1983 1
entra 1
▁Mga 1
▁Nouvelle 1
▁Friends 1
▁1866 1
kih 1
112 1
ques 1
▁JA 1
▁Phen 1
rr 1
64) 1
▁Jasmin 1
▁Candy 1
538 1
arra 1
▁1874 1
▁Track 1
SNS 1
645 1
▁Kul 1
▁Haw 1
▁Right 1
TSE 1
soo 1
▁Reve 1
▁Teg 1
▁Zaragoza 1
ctos 1
tele 1
549 1
▁KM 1
Kat 1
dil 1
drum 1
▁(1997) 1
452 1
rate 1
▁20- 1
GHz 1
▁Sulawesi 1
aye 1
▁info 1
edes 1
ente 1
shika 1
▁Name 1
▁peso 1
owe 1
▁BBQ 1
▁CAD 1
tronic 1
▁1:1 1
▁Halep 1
vac 1
olu 1
▁Hannover 1
▁Jaya 1
continent 1
lf 1
487 1
▁1867 1
▁Kohl 1
▁Child 1
▁Most 1
▁Mili 1
eur 1
▁PD 1
1971 1
▁Jenkins 1
▁ber 1
▁Lamb 1
1966 1
vao 1
Tro 1
443 1
955 1
▁RI 1
▁beat 1
abi 1
alan 1
send 1
686 1
xen 1
679 1
tiva 1
▁Double 1
71) 1
855 1
▁VGA 1
▁(2000) 1
ety 1
itis 1
ral 1
▁Idea 1
230 1
▁Avenue 1
▁Pó 1
▁come 1
titi 1
haus 1
▁Gabon 1
▁Operation 1
IAN 1
ender 1
Ab 1
▁Alejandro 1
▁key 1
222 1
▁2500 1
745 1
AFI 1
471 1
coop 1
▁Factor 1
▁Moll 1
453 1
igo 1
▁Klaus 1
▁Supra 1
Die 1
cen 1
▁phar 1
OB 1
trip 1
▁Bangalore 1
▁sc 1
cul 1
uar 1
▁NB 1
665 1
▁ram 1
▁Meng 1
▁Rohingya 1
▁Jal 1
661 1
skie 1
▁Cate 1
▁Logi 1
426 1
▁Regen 1
-06 1
▁maxi 1
▁Mika 1
58) 1
dens 1
▁Mimo 1
Red 1
▁Mp 1
word 1
474 1
novic 1
robi 1
▁MINI 1
▁Sm 1
bris 1
sad 1
▁Matu 1
▁Wireless 1
▁Kristin 1
478 1
Il 1
489 1
▁Agus 1
▁fu 1
588 1
Up 1
301 1
▁Baile 1
▁Passa 1
▁Performance 1
só 1
▁DPR 1
▁Cami 1
▁ser 1
▁Protein 1
▁gall 1
143 1
Pri 1
pene 1
▁Eriksson 1
apa 1
ffi 1
▁Paula 1
vana 1
▁Baltimore 1
168 1
cát 1
tomi 1
▁Flori 1
▁EF 1
hart 1
▁Platinum 1
▁Wad 1
▁Simone 1
Sam 1
bac 1
▁robust 1
— 1
▁Bana 1
▁Juni 1
▁Ghe 1
▁Raw 1
53) 1
hic 1
stad 1
▁volle 1
436 1
Dia 1
FB 1
▁Three 1
▁Kamal 1
see 1
▁Sila 1
▁Gast 1
▁Viagra 1
798 1
spot 1
▁Normandi 1
▁1400 1
▁Mitt 1
▁Rolling 1
elis 1
▁hashtag 1
KP 1
▁GL 1
779 1
▁Our 1
illian 1
oon 1
▁Haji 1
586 1
hina 1
tern 1
tto 1
mbang 1
▁Pokémon 1
551 1
nev 1
▁1862 1
▁22:00 1
52) 1
▁Lego 1
695 1
▁Fag 1
▁GTX 1
▁(10) 1
aha 1
▁Ernst 1
dioxid 1
▁Grove 1
▁Ethereum 1
155 1
Jack 1
chal 1
quer 1
▁Station 1
bras 1
dem 1
707 1
▁Quint 1
rón 1
▁Any 1
IEN 1
▁Here 1
lling 1
▁Bosch 1
▁Christoph 1
003 1
wei 1
▁Oro 1
3.2 1
led 1
▁Aziz 1
Club 1
IFI 1
ilis 1
▁Alfa 1
bata 1
VAC 1
▁Dali 1
anga 1
hya 1
▁Johann 1
▁Lula 1
649 1
sby 1
▁(1998) 1
anne 1
▁Loch 1
▁Thrones 1
114 1
420 1
atu 1
lium 1
▁Freedom 1
▁Ramon 1
507 1
▁12-13 1
464 1
678 1
bbe 1
Wi 1
jad 1
536 1
EI 1
JAS 1
▁Vald 1
175 1
▁drama 1
OK 1
Blue 1
lig 1
oga 1
trag 1
és 1
mman 1
cial 1
cion 1
luk 1
▁ku 1
verse 1
▁Session 1
▁Clean 1
▁Match 1
ute 1
▁Peace 1
cyclo 1
▁1840 1
alia 1
▁Alo 1
KIA 1
cov 1
▁Dim 1
▁Heritage 1
CHU 1
ography 1
ingu 1
▁Horizon 1
TCH 1
uf 1
vette 1
▁Train 1
sikt 1
leb 1
▁games 1
496 1
749 1
▁Zoo 1
449 1
riana 1
070 1
gramm 1
▁31.12. 1
▁Tomat 1
▁touch 1
ento 1
culi 1
▁Massa 1
▁Pé 1
GO 1
▁Children 1
▁HAI 1
czyn 1
cura 1
▁Molin 1
▁Tes 1
472 1
stria 1
▁1848 1
▁Pauli 1
Ằ 1
KM 1
vari 1
484 1
497 1
▁Medical 1
rup 1
▁Bone 1
celli 1
endra 1
mpe 1
▁ON 1
▁Hep 1
▁Organic 1
▁Sano 1
▁Bunga 1
▁calci 1
margin 1
polit 1
▁TẠI 1
sl 1
▁Check 1
▁heli 1
abe 1
148 1
organ 1
▁aspirin 1
▁MAX 1
▁tum 1
usha 1
▁01. 1
orno 1
▁KO 1
▁Kot 1
▁head 1
989 1
▁(8) 1
▁Gore 1
!). 1
▁Base 1
▁Carp 1
▁alu 1
▁cre 1
▁Zon 1
III 1
▁SAT 1
▁plasma 1
▁Bomba 1
▁Admiral 1
▁Barbie 1
310 1
579 1
fps 1
▁1830 1
795 1
esco 1
wide 1
▁Tourist 1
cito 1
▁Claudia 1
▁SOM 1
▁Saul 1
Mag 1
▁Dona 1
een 1
▁pul 1
▁vlog 1
ats 1
etto 1
▁Edit 1
▁google 1
176 1
gis 1
mone 1
mot 1
▁Fusion 1
543 1
vila 1
▁555 1
▁Demo 1
▁Economi 1
▁Wolfgang 1
▁icon 1
Green 1
export 1
dov 1
cing 1
vier 1
ht 1
iwa 1
▁Saya 1
▁shock 1
mans 1
ush 1
▁PIN 1
▁franc 1
zett 1
▁Rapid 1
▁Sergi 1
467 1
izer 1
lag 1
▁pp 1
▁Ariel 1
Gold 1
▁Wort 1
▁Gl 1
▁Zip 1
tio 1
▁Castle 1
▁Puigdemont 1
895 1
love 1
▁Saad 1
158 1
▁21:00 1
tili 1
▁French 1
taba 1
561 1
▁Close 1
gut 1
▁Atlant 1
▁har 1
ilor 1
WI 1
▁Guerre 1
▁Blas 1
▁Image 1
▁McCartney 1
483 1
▁Hoffman 1
7- 1
▁50- 1
lift 1
▁Emilia 1
▁Kuma 1
anka 1
hea 1
▁Zagreb 1
USB 1
inski 1
kii 1
▁Kick 1
▁Politic 1
hos 1
▁Michal 1
571 1
▁city 1
838 1
▁Mandal 1
▁carton 1
▁Broadway 1
ulis 1
▁Uh 1
rot 1
▁271 1
▁Europe 1
..... 1
498 1
jero 1
▁Skin 1
137 1
▁Charge 1
1959 1
▁Ik 1
guard 1
▁proto 1
lý 1
▁Hour 1
▁Mister 1
glio 1
▁Valla 1
459 1
masa 1
▁SHI 1
▁Norton 1
ABA 1
Mont 1
este 1
iche 1
tim 1
▁Kil 1
▁Mother 1
558 1
cru 1
zano 1
▁Tím 1
Group 1
▁Luther 1
▁Sofi 1
inter 1
▁Mahal 1
▁Tartu 1
632 1
▁Mie 1
▁bor 1
▁(1995) 1
▁Irene 1
▁aur 1
▁Sav 1
▁book 1
iona 1
porn 1
▁Lufthansa 1
▁Werner 1
midi 1
ptic 1
▁Carnaval 1
622 1
▁Collection 1
▁Teresa 1
CAP 1
Ku 1
▁Vad 1
▁mash 1
▁Reich 1
▁Sop 1
66) 1
Mark 1
gren 1
▁GeForce 1
▁http 1
▁plus 1
572 1
lice 1
pla 1
zal 1
▁mazu 1
enstein 1
▁Picasso 1
578 1
63) 1
▁Koi 1
▁sõ 1
553 1
lau 1
▁Cookie 1
▁Kingdom 1
Smart 1
usti 1
▁Second 1
varo 1
ní 1
▁turbo 1
▁DSLR 1
njom 1
stop 1
701 1
▁Als 1
TZ 1
008 1
sant 1
pora 1
pag 1
▁Major 1
roda 1
▁Adnan 1
ła 1
▁Temer 1
69) 1
▁Gim 1
▁Miko 1
▁Tax 1
▁has 1
▁Boc 1
vé 1
▁SAP 1
1.3 1
608 1
▁Barba 1
▁sco 1
▁eu 1
210 1
▁0.0 1
▁Zub 1
mov 1
wad 1
▁Lex 1
bian 1
▁Glasgow 1
sset 1
▁Tek 1
iy 1
▁(9) 1
▁Sey 1
mida 1
▁(1996) 1
▁Clement 1
▁Ein 1
446 1
▁Mathe 1
ors 1
Ed 1
dri 1
▁15- 1
bow 1
▁Ark 1
loo 1
▁Read 1
▁Scandinav 1
gale 1
mAh 1
odi 1
▁Jump 1
dre 1
▁basa 1
641 1
▁1872 1
▁Belgrad 1
▁Mare 1
▁Sut 1
▁kit 1
205 1
51) 1
554 1
kah 1
strada 1
▁Rhe 1
syn 1
QI 1
tice 1
▁pec 1
ndi 1
JD 1
▁Exchange 1
▁Henrique 1
▁retro 1
▁Capri 1
sini 1
▁Amor 1
▁Elev 1
▁Sei 1
▁Blackberry 1
FD 1
▁Community 1
alle 1
▁Nis 1
▁Pea 1
21) 1
RU 1
▁Pero 1
▁ky 1
hausen 1
▁Tex 1
▁fasci 1
IST 1
prop 1
124 1
crypt 1
IMA 1
004 1
face 1
wind 1
▁ERP 1
+5 1
tse 1
▁Martha 1
788 1
soft 1
til 1
▁Monta 1
lani 1
▁Baja 1
rish 1
Hz 1
▁Heavy 1
iser 1
189 1
zka 1
▁FO 1
ATI 1
▁Asa 1
▁Halo 1
▁Lav 1
▁chun 1
EST 1
Music 1
▁AND 1
fir 1
▁Somali 1
▁Montpellier 1
shah 1
▁Maga 1
119 1
▁Esse 1
berger 1
▁MSI 1
▁Michelin 1
▁line 1
142 1
tara 1
▁Vaz 1
bing 1
dit 1
gnac 1
bag 1
mons 1
White 1
osto 1
sili 1
▁Dev 1
▁Kap 1
▁Pena 1
557 1
rra 1
▁Brug 1
tem 1
466 1
cycle 1
els 1
▁col 1
▁Quer 1
peri 1
▁Gael 1
meri 1
oj 1
▁Soccer 1
658 1
Gal 1
▁Bord 1
belle 1
▁tong 1
▁Sweet 1
652 1
cafe 1
roid 1
▁Fantastic 1
MH 1
South 1
▁Krishna 1
▁Gud 1
mier 1
▁makeup 1
Web 1
▁Rasmussen 1
▁Adelaide 1
▁NGƯỜI 1
▁tuk 1
129 1
256 1
RN 1
rite 1
▁[1 1
OX 1
▁Grind 1
▁Sole 1
▁Analytic 1
▁Tala 1
Gre 1
cord 1
osi 1
▁Sonic 1
▁Architect 1
877 1
NES 1
▁Mauro 1
6.5 1
542 1
owo 1
store 1
▁Tale 1
thana 1
▁1857 1
844 1
Fu 1
force 1
▁Mani 1
▁Amal 1
▁Bibi 1
▁Rashid 1
▁sticker 1
▁Britain 1
beli 1
▁Cons 1
▁[2] 1
▁free 1
eto 1
ific 1
▁Beijing 1
▁us 1
▁Gob 1
722 1
▁Strik 1
▁och 1
itar 1
65) 1
▁DP 1
▁Print 1
ITE 1
▁Toro 1
tegi 1
▁Kari 1
LED 1
▁page 1
757 1
fred 1
▁light 1
▁Xer 1
▁pano 1
bita 1
fel 1
rii 1
site 1
609 1
hni 1
▁Nairobi 1
aku 1
national 1
▁Alliance 1
uka 1
▁Download 1
▁ôl 1
▁Maurice 1
5- 1
serie 1
▁Emp 1
▁kayak 1
logen 1
▁Odd 1
▁Paz 1
▁Zach 1
▁font 1
▁sale 1
669 1
▁lut 1
▁Stat 1
139 1
Sta 1
116 1
cliff 1
lago 1
▁Ard 1
▁best 1
PLA 1
▁% 1
776 1
stia 1
▁Charm 1
pica 1
131 1
▁8000 1
▁Jelly 1
▁have 1
491 1
eros 1
▁Benedict 1
▁Chocolate 1
▁Wagner 1
Wat 1
uld 1
▁Maj 1
▁Casi 1
Ẵ 1
▁Join 1
▁SF 1
▁Herbal 1
▁ME 1
villa 1
▁Ní 1
▁OG 1
▁Sue 1
▁semi 1
492 1
Mil 1
lita 1
Wo 1
▁Marian 1
1942 1
255 1
▁sop 1
▁try 1
4.2 1
▁DAN 1
▁Metropolitan 1
▁Ref 1
▁Roo 1
▁Asha 1
▁Living 1
hey 1
▁Plo 1
▁SPF 1
vá 1
▁Como 1
pak 1
dula 1
▁bot 1
▁Mello 1
▁don 1
060 1
537 1
589 1
▁olive 1
▁Mustafa 1
▁Dutch 1
▁Xavier 1
arium 1
▁Deli 1
▁Vid 1
▁Cold 1
子 1
OH 1
▁Flight 1
634 1
▁tele 1
▁Sicilia 1
▁obscur 1
kari 1
▁Lev 1
▁sten 1
▁Frei 1
▁music 1
eras 1
fam 1
▁air 1
landi 1
wy 1
▁Mickey 1
▁Transit 1
569 1
▁Canyon 1
gene 1
▁spam 1
672 1
mere 1
▁Brin 1
▁Epic 1
▁Vilanova 1
▁Columbus 1
▁Rif 1
▁mode 1
laus 1
thú 1
info 1
▁Dynamics 1
ating 1
rce 1
hita 1
trac 1
vut 1
▁Building 1
▁nail 1
Mü 1
ifi 1
598 1
base 1
▁Flex 1
127 1
▁Taiwan 1
Ter 1
brand 1
Ce 1
▁Activ 1
onto 1
▁Helena 1
▁León 1
▁Lig 1
▁Uz 1
uso 1
▁Sino 1
Myanmar 1
▁Casino 1
▁cas 1
▁down 1
677 1
▁life 1
scar 1
▁Amazing 1
▁Weiss 1
ventus 1
zana 1
▁IM 1
▁KA 1
▁Wah 1
▁Castell 1
▁Zoom 1
57) 1
blog 1
▁Amma 1
132 1
zole 1
lant 1
rog 1
▁Sedan 1
▁ampli 1
▁Biel 1
▁vintage 1
165 1
▁Signal 1
amin 1
▁sì 1
niki 1
pati 1
▁FN 1
fell 1
▁Motion 1
▁Flip 1
▁rose 1
▁tom 1
▁About 1
▁cacao 1
▁kung 1
70) 1
▁Beh 1
▁Basic 1
oria 1
▁Pine 1
▁fo 1
ratti 1
shir 1
▁Andersen 1
▁Heng 1
▁Rac 1
Space 1
▁Georg 1
▁Policy 1
▁Wine 1
▁Baz 1
▁Dimitri 1
Sun 1
▁Sushi 1
drome 1
▁Capo 1
▁Puma 1
▁lét 1
ash 1
host 1
nau 1
▁update 1
bari 1
▁Hermann 1
▁Tec 1
belo 1
136 1
▁Batt 1
▁Nations 1
▁Giêsu 1
wazi 1
size 1
▁Boca 1
▁SEC 1
▁Skr 1
zhou 1
bago 1
▁Cata 1
▁Stal 1
▁(1994) 1
▁There 1
▁Vene 1
▁25- 1
ango 1
uza 1
▁Basil 1
▁film 1
kram 1
thra 1
tang 1
▁Highland 1
Chan 1
kwa 1
▁Spiel 1
FK 1
Les 1
▁Anu 1
▁Fis 1
▁Tep 1
▁Foreign 1
▁Goethe 1
▁Menu 1
▁Ruben 1
461 1
▁Nah 1
▁11- 1
▁Josef 1
▁formal 1
ouvre 1
Sh 1
▁Ent 1
▁hom 1
bourg 1
panda 1
quel 1
▁Abel 1
CCP 1
Nor 1
▁BẢN 1
▁Guillermo 1
648 1
dej 1
▁Brod 1
▁Huo 1
▁dop 1
▁inter 1
▁star 1
144 1
642 1
659 1
▁Alessandro 1
▁60- 1
▁Spir 1
▁Vest 1
▁Hasan 1
▁Tuli 1
guin 1
▁Johor 1
▁Language 1
▁Sleep 1
▁war 1
1955 1
▁90- 1
▁Joyce 1
141 1
ogram 1
cka 1
▁Drama 1
▁Rebel 1
▁Sok 1
56) 1
▁Pli 1
▁Suite 1
25) 1
TRO 1
lane 1
▁tv 1
133 1
rsi 1
▁Aber 1
...] 1
grand 1
was 1
587 1
965 1
Bas 1
159 1
▁HDD 1
494 1
pac 1
tir 1
27) 1
145 1
bek 1
ete 1
ingen 1
▁Versailles 1
arte 1
tya 1
Girl 1
fighter 1
nei 1
▁Griff 1
vine 1
▁Pittsburgh 1
ICT 1
cept 1
rul 1
▁Sven 1
Paul 1
TAC 1
mala 1
mium 1
4.0 1
▁Varga 1
▁Wander 1
Ap 1
ło 1
▁MAS 1
▁Verona 1
ache 1
ses 1
▁Oy 1
▁Rabi 1
rail 1
tit 1
▁Forever 1
▁Ito 1
▁Strip 1
▁UNI 1
23) 1
thing 1
brook 1
cello 1
ood 1
▁Drew 1
Bru 1
av 1
mien 1
uh 1
bad 1
kot 1
▁Launch 1
onder 1
▁Compact 1
American 1
fie 1
iji 1
▁Sunshine 1
▁Dub 1
blad 1
▁Punjab 1
vest 1
xel 1
128 1
GET 1
▁Bukit 1
▁Hennes 1
766 1
inha 1
▁(1993) 1
AWA 1
▁Gö 1
guru 1
375 1
▁Sachsen 1
▁Sugar 1
matic 1
tany 1
euro 1
▁Daisy 1
▁Schwa 1
858 1
tation 1
▁les 1
pio 1
▁baza 1
test 1
▁Assistant 1
▁Mine 1
▁Mok 1
28) 1
feed 1
▁Alto 1
▁Heinrich 1
vig 1
▁Sasa 1
▁Vip 1
▁Wald 1
Ang 1
sev 1
▁Kut 1
▁Ora 1
▁Axel 1
escu 1
place 1
sele 1
ffa 1
rosa 1
▁Ruiz 1
pino 1
▁Allan 1
stis 1
848 1
▁ir 1
1958 1
▁Inver 1
▁ze 1
4.5 1
▁Kaiser 1
kay 1
▁Tee 1
▁VPN 1
ardi 1
▁Pegasus 1
▁Fico 1
▁Revolution 1
▁Ding 1
▁NVIDIA 1
▁α 1
539 1
949 1
pie 1
gros 1
▁Hó 1
foot 1
▁Karachi 1
744 1
547 1
wis 1
▁Lot 1
▁Rem 1
▁brun 1
lles 1
▁Reader 1
Serie 1
tik 1
▁Sherlock 1
▁Svet 1
▁Wellington 1
PAD 1
▁Garri 1
▁Shiva 1
854 1
▁Pisa 1
▁Switch 1
It 1
▁sy 1
nine 1
▁Esp 1
▁list 1
tali 1
fram 1
▁Temp 1
Win 1
ien 1
▁dello 1
▁Braga 1
▁Joker 1
▁Lent 1
▁Rotterdam 1
nski 1
▁Zabal 1
club 1
tuna 1
▁Nic 1
204 1
▁Edu 1
▁ANC 1
▁shot 1
889 1
▁Route 1
7.5 1
▁Tani 1
etan 1
▁Allah 1
hyd 1
▁Audrey 1
▁Dijk 1
548 1
eix 1
rente 1
▁Turki 1
676 1
ubi 1
▁Bikin 1
▁Herman 1
▁lock 1
Dis 1
▁Pali 1
26) 1
llon 1
voir 1
▁2018- 1
▁Str 1
54) 1
573 1
isio 1
▁Serra 1
▁2100 1
▁Intelligence 1
▁disco 1
rose 1
▁Torre 1
▁vietnam 1
▁Baden 1
agri 1
ATE 1
uge 1
▁Devi 1
▁high 1
▁LinkedIn 1
gono 1
▁toi 1
arne 1
nai 1
HE 1
▁Palu 1
TES 1
▁Bund 1
▁instagram 1
828 1
Saint 1
omia 1
▁Boli 1
638 1
Sab 1
▁Crazy 1
▁Kron 1
▁Beautiful 1
▁Salon 1
639 1
RAF 1
▁Eibar 1
clip 1
pos 1
▁Nim 1
Marc 1
ctis 1
endi 1
▁KHAN 1
▁Pool 1
▁Surabaya 1
gues 1
▁Dhaka 1
▁Too 1
59) 1
API 1
drob 1
▁amp 1
cele 1
ń 1
▁lymph 1
199 1
AX 1
mora 1
▁Hash 1
▁Mez 1
▁Comput 1
▁Holy 1
▁Cristina 1
481 1
▁Chor 1
▁band 1
▁Sob 1
▁hoc 1
▁ter 1
sters 1
▁Clari 1
Str 1
kata 1
▁Campo 1
hing 1
▁boli 1
▁Abi 1
901 1
nost 1
▁Songs 1
▁press 1
llisten 1
055 1
ede 1
web 1
▁Prav 1
▁Ting 1
jor 1
rga 1
▁Pilot 1
▁Cart 1
▁LLC 1
▁Siva 1
sek 1
▁Picha 1
sler 1
▁Creative 1
▁Zar 1
▁Round 1
▁− 1
▁Deloitte 1
▁20:00 1
▁Sari 1
3.3 1
592 1
cycli 1
nig 1
▁Edwin 1
▁dia 1
▁Corinthians 1
▁Masha 1
▁fa 1
▁rúm 1
637 1
▁Grip 1
dé 1
▁Boz 1
▁Stru 1
Ur 1
tela 1
▁OH 1
▁Plas 1
5.5 1
▁HỘI 1
▁Pata 1
Ō 1
flex 1
▁cla 1
▁monta 1
▁Apps 1
739 1
gul 1
otto 1
Hol 1
▁Muk 1
ACT 1
sari 1
soon 1
▁slide 1
...... 1
607 1
ACA 1
Gene 1
▁Zahar 1
633 1
dien 1
▁follow 1
▁Shaq 1
ecta 1
ayi 1
offre 1
hood 1
pea 1
▁Tul 1
tors 1
▁Clic 1
▁Clinic 1
▁Beethoven 1
tima 1
121 1
poly 1
uria 1
▁Schengen 1
Luc 1
rino 1
▁Cover 1
89) 1
WR 1
nega 1
▁Concord 1
­ 1
▁Eb 1
▁Pastor 1
▁Vari 1
:05 1
ization 1
19) 1
2- 1
ain 1
▁+2 1
dag 1
lagi 1
ā 1
762 1
assa 1
dat 1
dhi 1
hk 1
▁Ey 1
▁Nad 1
202 1
Sil 1
vesti 1
▁HOT 1
agne 1
ppu 1
▁codice 1
566 1
dino 1
▁Pip 1
pass 1
▁Fil 1
564 1
▁Corri 1
▁mol 1
det 1
inde 1
▁Liebe 1
988 1
scher 1
propyl 1
Kar 1
isk 1
▁OF 1
▁Pelo 1
bby 1
iai 1
luca 1
rone 1
▁Jove 1
▁Oo 1
▁console 1
uyu 1
▁Mick 1
China 1
▁Boh 1
▁Rog 1
683 1
itan 1
hali 1
▁Kota 1
▁Rodríguez 1
985 1
sina 1
spec 1
▁Lucia 1
866 1
138 1
unda 1
▁Quart 1
▁min 1
6.3 1
hla 1
1957 1
▁Device 1
izar 1
▁Nemo 1
▁nầy 1
ites 1
sah 1
▁9000 1
▁Esca 1
664 1
ovski 1
▁Mb 1
48) 1
702 1
▁Karlov 1
▁Pola 1
▁Ripp 1
▁villa 1
ffen 1
dell 1
ních 1
veri 1
▁Qas 1
▁Zuma 1
izo 1
▁Circle 1
dica 1
▁Keep 1
stich 1
tou 1
▁Coll 1
ylli 1
▁Gallery 1
Far 1
TAN 1
▁Griffith 1
▁Proc 1
886 1
▁Dot 1
mode 1
▁Clan 1
▁Eindhoven 1
▁Medel 1
▁TIME 1
▁Taba 1
786 1
illes 1
IEC 1
▁925 1
/25 1
▁Lucian 1
778 1
sole 1
▁Dala 1
▁does 1
-42 1
rei 1
▁Jedi 1
▁sám 1
122 1
546 1
rre 1
sdorf 1
▁Psi 1
rossi 1
▁Lud 1
▁Rox 1
rag 1
rion 1
▁1280 1
▁Aku 1
▁Ethernet 1
▁Renato 1
24) 1
979 1
gong 1
WF 1
mbria 1
▁bur 1
756 1
▁Cambodia 1
▁Quant 1
Internet 1
▁Impossible 1
▁Status 1
195 1
tress 1
ç 1
265 1
594 1
London 1
▁Susi 1
178 1
Yo 1
dari 1
gir 1
▁Baro 1
▁Rond 1
▁Savo 1
tun 1
ÍCH 1
dorp 1
▁Verde 1
859 1
fall 1
▁APC 1
879 1
uba 1
▁sal 1
NIS 1
acte 1
giri 1
▁MAN 1
656 1
▁Illustr 1
▁START 1
▁driver 1
647 1
996 1
ally 1
682 1
kun 1
ł 1
▁Try 1
▁ringgit 1
▁Pride 1
SIM 1
ava 1
▁Dich 1
▁Lund 1
▁iso 1
peta 1
Din 1
▁(1992) 1
uer 1
ild 1
rari 1
▁Extrem 1
▁Okay 1
▁camp 1
share 1
▁Monitor 1
▁Zam 1
673 1
▁Pach 1
166 1
niya 1
zad 1
山 1
▁auto 1
▁HỌC 1
▁Via 1
▁tur 1
pant 1
▁Gloria 1
▁HE 1
大 1
30) 1
kou 1
race 1
ès 1
Finan 1
PRI 1
▁Fau 1
5.0 1
▁Dé 1
188 1
zak 1
uke 1
▁Akbar 1
▁Tsa 1
trans 1
▁Kod 1
▁Pull 1
yg 1
▁1:2 1
▁Gogh 1
▁cad 1
:10 1
ña 1
▁Giulia 1
▁Hair 1
▁por 1
read 1
▁Aqui 1
▁Stern 1
1.4 1
▁Origin 1
▁media 1
▁serie 1
▁Ax 1
▁Emin 1
▁ore 1
208 1
hati 1
iff 1
▁Rhein 1
chie 1
owi 1
wig 1
▁FOR 1
fari 1
vod 1
849 1
ader 1
yard 1
▁amino 1
▁giga 1
772 1
cham 1
ters 1
▁Osa 1
▁Petit 1
▁Tok 1
738 1
▁Select 1
▁Temple 1
nina 1
sema 1
clair 1
lize 1
porte 1
▁Palau 1
247 1
ER 1
asis 1
86) 1
▁Ctrl 1
▁Feel 1
pila 1
▁Forum 1
STO 1
▁Inn 1
▁neutro 1
front 1
Angel 1
tenberg 1
597 1
606 1
mada 1
▁Dec 1
▁only 1
milia 1
▁Inside 1
▁case 1
864 1
RCA 1
CAS 1
ildi 1
▁Trading 1
574 1
gari 1
pou 1
xer 1
▁she 1
▁Kuch 1
IDA 1
▁Allar 1
▁Kaf 1
adis 1
imin 1
▁fake 1
gina 1
▁1300 1
lagen 1
▁FF 1
dere 1
mele 1
rana 1
▁more 1
203 1
▁Ion 1
▁Johannes 1
Best 1
gí 1
▁Hamma 1
898 1
の 1
guan 1
▁Carrer 1
▁Navarro 1
4.4 1
you 1
▁Finn 1
▁Lombard 1
lijst 1
liv 1
▁Return 1
▁road 1
163 1
Ỏ 1
▁European 1
▁Novgorod 1
▁Singer 1
▁Ça 1
mate 1
▁Bohemia 1
▁gamma 1
83) 1
bama 1
inami 1
▁Kurs 1
177 1
date 1
▁Conrad 1
▁Prima 1
▁UTC 1
▁Vettel 1
Photo 1
Des 1
ions 1
zuka 1
▁Dorot 1
1.6 1
build 1
kém 1
rath 1
氏 1
apo 1
gona 1
hlo 1
▁Aby 1
▁Clu 1
▁Ost 1
▁organ 1
1940 1
MHz 1
kom 1
tano 1
▁Gateway 1
▁Industry 1
Kan 1
cere 1
enta 1
▁Holiday 1
▁austral 1
41) 1
bida 1
▁Hora 1
▁sil 1
167 1
Tom 1
issima 1
▁Russian 1
BAN 1
nant 1
nz 1
▁Velo 1
646 1
dern 1
▁Zul 1
▁Gale 1
lín 1
▁Radi 1
tros 1
▁Croc 1
▁Mev 1
009 1
185 1
arrow 1
▁Dit 1
▁Insight 1
/06/2018 1
dze 1
▁Kura 1
Mit 1
Gen 1
▁Lina 1
3000 1
764 1
▁Host 1
▁hetero 1
▁Belg 1
▁dollar 1
734 1
vant 1
▁Bernardo 1
▁Kau 1
▁Pig 1
Der 1
▁Hammer 1
▁gelatin 1
▁Hubert 1
Centr 1
loh 1
▁Links 1
sma 1
▁Vila 1
fran 1
▁Friend 1
▁art 1
▁rum 1
▁Augsburg 1
bei 1
oke 1
▁Rajoy 1
708 1
facebook 1
▁Rainbow 1
▁18- 1
▁BAS 1
▁Sind 1
▁town 1
nte 1
55) 1
▁Poi 1
▁Scal 1
22) 1
ITU 1
▁Kiri 1
657 1
Build 1
DAC 1
▁upload 1
147 1
dhar 1
yri 1
▁Bada 1
taro 1
▁Chinese 1
792 1
tola 1
Rock 1
micro 1
742 1
▁j 1
▁(1991) 1
▁07:00 1
▁Mohd 1
FZ 1
check 1
▁Salzburg 1
▁Rep 1
▁big 1
nil 1
sein 1
▁Ane 1
▁Baku 1
▁Republic 1
▁foot 1
ark 1
▁Navig 1
uck 1
▁Kalo 1
▁Dos 1
▁1100 1
▁Blanche 1
653 1
▁Ski 1
15) 1
60) 1
chod 1
gou 1
▁Tennis 1
▁Negre 1
151 1
13) 1
▁Budd 1
▁Monkey 1
▁pí 1
Ze 1
▁Tribun 1
SSA 1
hag 1
wati 1
ymo 1
▁Koke 1
▁Peak 1
88) 1
pack 1
nese 1
▁fur 1
▁70- 1
UC 1
crates 1
Ye 1
▁Cen 1
736 1
pang 1
▁Ces 1
▁Vil 1
▁Helm 1
▁Naj 1
▁Poor 1
▁Centro 1
▁Suh 1
eren 1
vey 1
awi 1
new 1
▁mil 1
chine 1
iPhone 1
▁Sarawak 1
▁Termin 1
ester 1
hasa 1
▁Barn 1
▁Foot 1
▁Qan 1
riz 1
▁17:00 1
▁Pí 1
▁account 1
31) 1
644 1
▁Sko 1
▁Leopold 1
Holstein 1
▁Boer 1
▁Mug 1
▁Professional 1
▁bluetooth 1
esse 1
▁Freiburg 1
▁Hak 1
▁Ultimate 1
▁bob 1
cross 1
mella 1
▁Bollywood 1
▁Fine 1
865 1
▁Aurora 1
▁June 1
662 1
pr 1
▁Million 1
▁Cine 1
▁Visual 1
aldi 1
xor 1
▁Blau 1
▁Elect 1
▁Kier 1
696 1
corr 1
▁mal 1
▁samu 1
173 1
▁Barak 1
RK 1
▁(1990) 1
▁pub 1
684 1
44) 1
Alb 1
Daily 1
969 1
usi 1
▁Egypt 1
hre 1
▁Stel 1
▁plan 1
987 1
Pierre 1
Sync 1
gaz 1
▁Orig 1
Shabaab 1
Direct 1
lman 1
dala 1
▁Coral 1
▁Haf 1
▁power 1
RED 1
kaze 1
sted 1
oder 1
▁Chemi 1
▁Federico 1
kên 1
loni 1
▁Ame 1
▁Lena 1
▁Mango 1
▁gris 1
vision 1
▁Nit 1
Den 1
▁Medicine 1
brio 1
maker 1
nad 1
yst 1
rz 1
▁elegan 1
▁year 1
iant 1
▁Condo 1
TOS 1
Touch 1
▁François 1
YS 1
ğ 1
▁Dru 1
▁URL 1
887 1
etus 1
▁Account 1
oslav 1
trici 1
inis 1
▁Imp 1
▁cari 1
ETA 1
dr 1
▁Common 1
▁Corona 1
MIC 1
ckel 1
urs 1
verti 1
prote 1
tila 1
▁Vau 1
Van 1
▁Airbnb 1
▁Reporter 1
dding 1
▁xxx 1
206 1
oval 1
▁Kanda 1
shen 1
▁Stri 1
four 1
▁banner 1
ized 1
mbro 1
▁Bike 1
869 1
chten 1
trin 1
▁Eh 1
▁Sales 1
frame 1
▁Kolkata 1
▁Rota 1
784 1
yuan 1
▁Babi 1
▁Still 1
Reuters 1
thyr 1
cze 1
vr 1
tender 1
AFP 1
orna 1
▁PayPal 1
rma 1
▁Strong 1
▁Teo 1
Ham 1
anche 1
▁COM 1
▁Sharma 1
35) 1
case 1
gula 1
179 1
771 1
International 1
WG 1
▁1789 1
▁metal 1
sons 1
viv 1
▁Desktop 1
▁RF 1
dida 1
▁Gus 1
▁Program 1
698 1
OTO 1
gwa 1
noma 1
sette 1
vice 1
▁vec 1
▁Mila 1
92) 1
▁Nacional 1
▁Saha 1
▁Yeni 1
AK 1
lean 1
Rus 1
▁Escape 1
ński 1
▁Trek 1
▁cali 1
alta 1
stu 1
▁Saba 1
ants 1
vill 1
▁boto 1
Cre 1
▁Bomb 1
OOO 1
RAT 1
tych 1
▁Indra 1
rc 1
▁Chef 1
▁Beyond 1
▁Cliff 1
▁Maas 1
▁tau 1
YH 1
mpel 1
▁Olive 1
▁Vida 1
rge 1
sura 1
▁Bud 1
▁Madi 1
usan 1
▁Nazar 1
▁0.5 1
20) 1
qué 1
ÁT 1
nek 1
▁Oriental 1
▁Rakh 1
018 1
Bad 1
type 1
▁Edmund 1
966 1
mbar 1
▁cli 1
quen 1
▁Direction 1
▁Solutions 1
▁Tourism 1
▁producer 1
986 1
kop 1
▁[3] 1
chem 1
▁Kato 1
▁Voyage 1
mpo 1
vien 1
Type 1
99) 1
samba 1
▁Flag 1
chow 1
▁Jav 1
▁cine 1
ades 1
zela 1
▁pit 1
AMI 1
▁Moni 1
itas 1
kiri 1
▁kip 1
lara 1
tiny 1
▁Rho 1
▁aero 1
dho 1
▁Fru 1
▁Driver 1
escent 1
plast 1
bed 1
▁Guitar 1
other 1
▁stri 1
Pfalz 1
quam 1
tania 1
andi 1
trum 1
▁Tada 1
Ỉ 1
36) 1
asta 1
mento 1
▁Mesa 1
zam 1
▁Marta 1
▁Mio 1
▁TripAdvisor 1
.01. 1
kala 1
863 1
ias 1
▁corona 1
UND 1
▁Bold 1
▁Sama 1
01) 1
ILA 1
▁Homo 1
▁sem 1
1956 1
46) 1
sumi 1
action 1
inum 1
vang 1
▁Need 1
305 1
▁Machi 1
oper 1
titude 1
▁Augustus 1
▁Kubi 1
:20 1
Af 1
wir 1
1.7 1
▁Pati 1
▁Ivo 1
dec 1
▁Grass 1
▁roa 1
versa 1
album 1
lur 1
▁Chic 1
153 1
gado 1
▁CEN 1
▁Natural 1
▁Warszawa 1
êrê 1
▁Bate 1
▁PAN 1
▁Suisse 1
▁PowerPoint 1
▁Rail 1
▁food 1
▁house 1
sena 1
▁Senti 1
2.4 1
lulu 1
▁Alpin 1
944 1
gent 1
▁CHÍNH 1
▁vote 1
vania 1
▁Naruto 1
DIG 1
tree 1
▁Elise 1
tzen 1
▁Aureli 1
izen 1
▁Kerala 1
▁side 1
LI 1
TTE 1
xus 1
▁firmware 1
29) 1
holm 1
172 1
▁got 1
18) 1
▁BU 1
▁KG 1
▁Licht 1
▁Private 1
32) 1
pov 1
▁Tir 1
09) 1
pano 1
▁Rab 1
XY 1
loop 1
▁Reuni 1
7.2 1
ALA 1
▁Uk 1
▁López 1
▁Bene 1
▁Bola 1
▁Bonne 1
pun 1
▁Dat 1
▁Mille 1
mica 1
▁Osman 1
▁NLD 1
156 1
2.1 1
▁Jule 1
774 1
uren 1
▁Koo 1
▁Deal 1
▁Evil 1
▁Vien 1
boro 1
▁Cui 1
▁hypo 1
liana 1
GIF 1
igen 1
mut 1
▁Ita 1
▁Wali 1
Au 1
rent 1
▁Cecilia 1
1- 1
ej 1
vê 1
active 1
ş 1
▁password 1
▁1.2. 1
ieri 1
▁Karin 1
nies 1
▁Alum 1
UM 1
nggi 1
▁Marko 1
▁first 1
hau 1
lema 1
Cat 1
IGN 1
mula 1
▁night 1
SPA 1
ixo 1
▁Window 1
▁niti 1
▁Fernandes 1
▁Kommer 1
▁Mendoza 1
▁Ró 1
Es 1
audi 1
jas 1
▁Astro 1
▁Lak 1
▁Siti 1
free 1
▁Rheinland 1
▁vă 1
▁Ragnar 1
endorf 1
round 1
14) 1
5,000 1
risti 1
▁Anadolu 1
▁Murad 1
▁wat 1
▁beauty 1
cate 1
hofer 1
nyi 1
▁Avan 1
▁Stor 1
ixi 1
kid 1
rug 1
wl 1
▁Bli 1
▁WP 1
▁Airport 1
▁Nutri 1
▁Unit 1
aci 1
▁Ende 1
▁Imper 1
▁Paint 1
▁SW 1
▁ed 1
Cast 1
Just 1
kee 1
▁1700 1
▁Richmond 1
520 1
▁Aug 1
▁amb 1
▁capo 1
▁cave 1
▁champagne 1
opis 1
5/5) 1
Run 1
▁Bina 1
▁Haj 1
dig 1
▁States 1
▁bro 1
▁ny 1
leng 1
▁Inspir 1
▁Milli 1
▁Vej 1
friend 1
rova 1
smo 1
▁Lagu 1
power 1
emi 1
shme 1
▁Ella 1
Yu 1
ndri 1
▁Extra 1
▁panel 1
▁pil 1
deb 1
ée 1
▁Bogdan 1
▁Brandenburg 1
▁Sug 1
▁digital 1
lal 1
unt 1
▁FL 1
3.4 1
Box 1
gai 1
holt 1
▁Fr 1
▁Ot 1
997 1
lotte 1
mong 1
▁Lap 1
▁Schumacher 1
CAR 1
islav 1
▁Jai 1
▁Sent 1
bart 1
▁Dori 1
▁Animal 1
▁Schleswig 1
17) 1
track 1
note 1
▁Gwen 1
▁MasterCard 1
▁Ning 1
1-2 1
gge 1
qual 1
▁flo 1
SOM 1
cık 1
poca 1
▁UI 1
78) 1
Associate 1
ffy 1
kita 1
▁Baron 1
▁Ferreira 1
Key 1
tepe 1
157 1
754 1
VIE 1
JR 1
NICE 1
▁Hof 1
Jun 1
878 1
bum 1
rack 1
Auto 1
GES 1
kol 1
poru 1
▁plat 1
▁Anatoli 1
▁Provence 1
lite 1
▁Dresden 1
eme 1
▁Meteor 1
LE 1
▁Strasbourg 1
▁Farg 1
▁Roz 1
▁ap 1
OM 1
Talk 1
erie 1
▁CAS 1
▁Vod 1
/0 1
:39 1
halo 1
muz 1
▁CAR 1
▁Eritrea 1
▁Jude 1
hage 1
gana 1
▁Pare 1
1200 1
dang 1
ruz 1
▁Hata 1
dry 1
hoff 1
836 1
▁Inte 1
169 1
sław 1
hack 1
ians 1
legging 1
▁purpur 1
43) 1
ignon 1
lex 1
▁GIÁ 1
▁Tap 1
▁vod 1
▁Aran 1
▁layer 1
▁Klu 1
030 1
▁Church 1
▁Fung 1
eca 1
▁(1989) 1
▁Patel 1
85) 1
Op 1
Plat 1
▁Why 1
▁gua 1
▁dos 1
1939 1
schi 1
ysk 1
beth 1
▁ET 1
▁Manche 1
▁NGO 1
834 1
iglia 1
▁Leader 1
▁VIA 1
drin 1
▁Half 1
▁stereo 1
avo 1
▁los 1
lung 1
parte 1
/03/2018 1
Is 1
▁Anime 1
▁Anni 1
▁cal 1
kamp 1
ug 1
1949 1
loma 1
ropol 1
▁Soros 1
▁Cavalier 1
/22 1
What 1
▁(1986) 1
▁Lia 1
▁Augustin 1
006 1
▁Cristian 1
▁casca 1
eder 1
velle 1
▁« 1
ás 1
1/2 1
651 1
▁Attila 1
rima 1
▁Baptist 1
lian 1
motion 1
▁Engel 1
ciano 1
pınar 1
tail 1
▁Omni 1
▁daily 1
OMO 1
arto 1
ksa 1
EN 1
ann 1
hear 1
▁Agar 1
▁Genève 1
▁MF 1
687 1
health 1
lips 1
nk 1
otin 1
05) 1
sive 1
OF 1
umbi 1
▁Prie 1
Bol 1
▁Kab 1
▁coin 1
roi 1
▁Resource 1
▁japon 1
> 1
Day 1
▁Bonn 1
▁Io 1
▁Jed 1
KIS 1
OST 1
ification 1
▁Bash 1
▁Culture 1
▁pick 1
Ah 1
geni 1
▁Analytics 1
▁Move 1
Kara 1
▁NHẤT 1
▁Pepper 1
▁12:00 1
▁Kemp 1
0.00 1
697 1
UST 1
huan 1
▁boa 1
▁bull 1
34) 1
kama 1
GIS 1
▁Imperial 1
07) 1
Apple 1
mall 1
▁Kubo 1
▁ok 1
spi 1
stat 1
▁Sper 1
raith 1
ration 1
▁Olsen 1
▁Sera 1
867 1
heid 1
▁dis 1
rott 1
▁HY 1
▁minor 1
Ag 1
▁Amer 1
▁Muse 1
▁Marcell 1
:“ 1
jit 1
amour 1
▁Mush 1
▁Glas 1
▁Hoch 1
▁Lore 1
▁cache 1
▁Emanuel 1
away 1
oti 1
ust 1
vul 1
▁100- 1
▁Massimo 1
837 1
Dar 1
Free 1
dzi 1
rial 1
842 1
▁(1988) 1
▁Kind 1
▁Fad 1
RJ 1
gora 1
hut 1
ých 1
XE 1
bles 1
▁Napa 1
Mel 1
cri 1
fr 1
mek 1
▁Museum 1
709 1
class 1
nature 1
▁Sola 1
wah 1
▁Brigitte 1
▁Graphic 1
▁Ubuntu 1
sou 1
▁Parc 1
3.1 1
vici 1
zes 1
▁Platform 1
raja 1
rno 1
kri 1
▁Nadu 1
bone 1
dova 1
medi 1
▁Bulg 1
Az 1
JA 1
illion 1
▁iphone 1
Office 1
basis 1
market 1
ruf 1
▁Brahma 1
▁Horse 1
-00 1
sett 1
oru 1
:50 1
nema 1
▁Sein 1
▁root 1
884 1
TAR 1
bulo 1
desk 1
ewski 1
file 1
kW 1
nec 1
EQ 1
tolo 1
▁Ceci 1
▁Rok 1
ISE 1
▁Dob 1
▁Toch 1
▁mari 1
♫ 1
187 1
▁core 1
146 1
kade 1
rien 1
eck 1
fé 1
rati 1
▁Custom 1
start 1
aar 1
jer 1
161 1
ister 1
nula 1
▁Ned 1
▁fra 1
unha 1
▁Stadium 1
linger 1
▁Disk 1
▁NAV 1
▁Vam 1
37) 1
▁Sah 1
▁fruct 1
UR 1
arre 1
cious 1
▁2017/2018 1
1943 1
2.6 1
thur 1
vka 1
▁Magi 1
Er 1
Step 1
lund 1
rme 1
▁Nec 1
▁Plant 1
▁hin 1
▁18:00 1
▁Luigi 1
KY 1
▁Stage 1
县 1
stick 1
▁Deluxe 1
MEX 1
33) 1
centro 1
▁Fischer 1
sako 1
▁24- 1
16) 1
82) 1
utus 1
▁Barre 1
▁Selangor 1
4.3 1
ende 1
▁$1 1
▁Swiss 1
▁dich 1
▁este 1
▁hamburger 1
▁uni 1
▁Ses 1
▁Soc 1
▁UPS 1
ERA 1
ddi 1
wyn 1
▁Champagne 1
▁Fitness 1
▁Wag 1
▁Almeida 1
▁Hanna 1
▁Zir 1
come 1
▁Lyd 1
ayat 1
tini 1
▁Perse 1
eya 1
tista 1
▁Thala 1
Tele 1
▁Veronica 1
grin 1
▁party 1
▁zombie 1
794 1
amus 1
▁Leh 1
▁Ahmet 1
▁Drop 1
▁Jul 1
▁Stress 1
llet 1
▁Burger 1
▁Caballero 1
▁Pocket 1
ATS 1
dii 1
▁Judi 1
big 1
usse 1
▁Dura 1
▁Vaj 1
aq 1
▁Frontier 1
▁Address 1
▁Fritz 1
▁García 1
▁Hansen 1
▁Reyes 1
spe 1
▁Rajasthan 1
▁progesteron 1
174 1
aith 1
▁bowl 1
▁sila 1
rend 1
Sol 1
cogni 1
40) 1
dik 1
▁Mask 1
▁Sono 1
▁Tali 1
▁tip 1
▁Katrin 1
▁Ruf 1
▁Boj 1
gami 1
▁NEWS 1
Bel 1
reo 1
▁Chand 1
anca 1
ial 1
▁Every 1
▁Ibiza 1
▁species 1
▁Information 1
▁Job 1
▁Passion 1
▁Pau 1
▁Shri 1
▁Sot 1
▁Afro 1
▁Castel 1
▁Maar 1
bric 1
▁Hotels 1
973 1
OTA 1
ï 1
38) 1
vent 1
▁Wij 1
228 1
ging 1
▁Aldri 1
▁Zvez 1
0.1 1
▁Hoy 1
▁cool 1
▁es 1
books 1
▁Date 1
kla 1
▁Fresh 1
▁Popular 1
▁flu 1
hri 1
Vir 1
kovi 1
91) 1
MAT 1
UD 1
acha 1
▁Lumi 1
▁Oliveira 1
Good 1
Roman 1
▁Praw 1
=" 1
▁Wien 1
▁Camel 1
▁Gina 1
Hub 1
cale 1
pata 1
▁Nun 1
▁fluor 1
Mus 1
Tak 1
cris 1
ged 1
pier 1
▁Lun 1
▁15:00 1
▁Norte 1
李 1
▁Panorama 1
▁suc 1
Oh 1
riad 1
NAH 1
ify 1
▁Jelen 1
▁April 1
▁IG 1
▁OneDrive 1
kada 1
▁Cir 1
▁Circ 1
▁Maison 1
▁Mert 1
▁Letter 1
AFA 1
nych 1
▁Koma 1
ils 1
▁Heaven 1
▁Louboutin 1
eff 1
▁Estate 1
▁Svi 1
▁Journey 1
▁cou 1
▁kang 1
6.2 1
MAP 1
enda 1
Õ 1
▁Flora 1
▁Grin 1
▁Gujarat 1
▁Ima 1
▁Twilight 1
39) 1
wijk 1
Pass 1
owicz 1
▁VY 1
AVI 1
▁(11) 1
▁twitter 1
erne 1
laga 1
dun 1
tional 1
118 1
▁Jou 1
▁Pene 1
lad 1
pc 1
▁pas 1
PAS 1
hold 1
▁tém 1
▁Wester 1
# 1
Lab 1
ismo 1
▁Hau 1
▁Josep 1
▁Poker 1
▁est 1
▁intermedi 1
ando 1
▁Rudolf 1
▁Yana 1
yes 1
▁Blogger 1
▁Desc 1
cero 1
chant 1
▁Panel 1
Pol 1
▁Satan 1
itus 1
▁Wilt 1
sid 1
▁Button 1
▁Hospital 1
▁Graz 1
▁Mitte 1
▁Willem 1
lü 1
How 1
▁Nell 1
▁Rouge 1
kko 1
▁Aja 1
▁Regina 1
ür 1
ː 1
▁Addis 1
▁Banda 1
balu 1
▁Scout 1
▁When 1
LU 1
▁CU 1
▁Mest 1
2-1 1
dz 1
▁Abo 1
geri 1
omat 1
▁Faisal 1
▁Lok 1
▁Santander 1
▁Zeman 1
▁ebook 1
.1.1 1
has 1
ugu 1
▁Chance 1
▁admin 1
45) 1
▁Door 1
▁cer 1
▁pus 1
▁text 1
▁Tere 1
5.2 1
rato 1
▁Mint 1
Tre 1
lach 1
lusi 1
▁München 1
▁Target 1
hei 1
ilin 1
ITS 1
spir 1
cl 1
cover 1
ped 1
▁NAS 1
maq 1
164 1
motiv 1
yat 1
▁2017/18 1
▁viet 1
öl 1
▁Gand 1
▁Abad 1
▁Gaming 1
▁Mene 1
▁pur 1
stry 1
▁Dak 1
into 1
▁Spo 1
▁poker 1
Met 1
esi 1
ées 1
▁AW 1
▁plug 1
cik 1
gumi 1
nicu 1
▁Forte 1
hom 1
Ẫ 1
▁Cabo 1
▁project 1
02) 1
ECT 1
1918 1
Facebook 1
IDI 1
ahu 1
▁Simona 1
▁Ska 1
Hor 1
riza 1
▁DAR 1
▁Eile 1
▁Vill 1
And 1
bino 1
▁Board 1
▁Bod 1
▁Sr 1
ave 1
eter 1
Mobil 1
rev 1
▁Arri 1
Tbilisi 1
▁Crist 1
Pra 1
udin 1
▁Violet 1
rist 1
▁2015/2016 1
Austr 1
▁06:00 1
▁1950- 1
▁Amen 1
▁Prop 1
87) 1
MCA 1
ako 1
hini 1
ying 1
mach 1
App 1
▁hyper 1
inen 1
▁16:00 1
wahi 1
▁Sankt 1
▁Terre 1
皇 1
dim 1
▁ASC 1
Brexit 1
oten 1
▁Saturn 1
arth 1
▁FS 1
▁snack 1
▁Jie 1
▁Other 1
Stra 1
kker 1
Team 1
bl 1
▁see 1
DER 1
Mul 1
know 1
967 1
Share 1
iyo 1
± 1
enter 1
▁Hamza 1
▁cardio 1
dico 1
garh 1
jing 1
found 1
ś 1
▁DHL 1
cian 1
zani 1
ın 1
brew 1
weil 1
▁Slavi 1
▁Rana 1
▁black 1
▁Transport 1
cah 1
como 1
▁Defender 1
▁JE 1
▁Orchestra 1
rias 1
▁Zim 1
▁argent 1
fli 1
hiri 1
▁Ola 1
▁ur 1
ppen 1
pris 1
▁40- 1
▁Claus 1
▁Runner 1
▁Uri 1
▁hum 1
server 1
▁Naz 1
▁Salle 1
Andre 1
▁fast 1
▁Sigur 1
Guard 1
mez 1
tensi 1
ugi 1
▁Fonte 1
▁President 1
▁della 1
Google 1
eti 1
spel 1
▁Mey 1
▁Stig 1
CTA 1
handler 1
olesterol 1
otta 1
▁Volk 1
Ten 1
liance 1
▁Crew 1
▁JO 1
▁Paro 1
▁Vier 1
gha 1
▁major 1
scope 1
▁Azure 1
sys 1
▁Assist 1
gali 1
▁Picture 1
ZE 1
hub 1
ior 1
▁Eid 1
▁Elias 1
Speak 1
deur 1
Ana 1
Bretagne 1
icul 1
Sky 1
heu 1
ove 1
▁Hussain 1
▁fin 1
FSC 1
gere 1
▁RED 1
god 1
▁Sit 1
WIN 1
nne 1
raw 1
vula 1
▁Where 1
▁proti 1
▁true 1
93) 1
Dr 1
High 1
nika 1
▁Francesc 1
▁Haz 1
▁Northern 1
▁451 1
▁Ira 1
Os 1
zbek 1
▁Sada 1
▁fal 1
▁pose 1
▁engine 1
▁mat 1
ejo 1
lv 1
rage 1
▁Lat 1
▁Minas 1
90) 1
arum 1
gach 1
▁Hind 1
▁benze 1
▁Lombok 1
CSI 1
alus 1
KO 1
profe 1
yad 1
▁profile 1
▁05. 1
▁Vent 1
▁broker 1
COS 1
▁ama 1
▁level 1
rig 1
Card 1
drop 1
ggio 1
taire 1
▁Aval 1
seb 1
▁Tomorrow 1
Def 1
FAR 1
cius 1
tip 1
venant 1
▁02. 1
▁Miroslav 1
enz 1
▁kaki 1
▁lit 1
gryp 1
▁Mannschaft 1
EK 1
avour 1
cali 1
▁Stick 1
▁Terri 1
RAS 1
oza 1
vika 1
yur 1
▁Hav 1
▁rac 1
YD 1
ching 1
mics 1
▁Ricci 1
▁Vali 1
yum 1
▁Source 1
▁Gwyn 1
▁Lager 1
▁[4] 1
take 1
▁Quattro 1
▁Scop 1
▁comp 1
bid 1
plat 1
▁Zer 1
▁indi 1
copi 1
schen 1
▁Dum 1
xas 1
▁BY 1
▁mala 1
YEN 1
▁Remote 1
▁Sura 1
▁voice 1
crit 1
Brit 1
kere 1
▁Dir 1
▁Riga 1
Louis 1
cir 1
tig 1
▁Police 1
▁Sign 1
▁Suf 1
Son 1
▁Baca 1
▁Grave 1
▁Mato 1
bhu 1
jana 1
rozen 1
vind 1
▁Properties 1
▁Tuan 1
1920 1
osis 1
▁Diet 1
▁Mayor 1
rici 1
▁Lauri 1
▁Loft 1
centr 1
sports 1
▁Holm 1
▁Innovation 1
▁painting 1
BRI 1
andri 1
plash 1
redo 1
6000 1
▁look 1
▁Safety 1
WP 1
▁Funk 1
▁Order 1
Tai 1
▁Application 1
▁Isla 1
▁Pai 1
▁Primo 1
▁toner 1
count 1
hira 1
rahman 1
▁Laut 1
▁Bela 1
▁Found 1
▁VAN 1
▁site 1
bron 1
▁Dock 1
▁Shab 1
clu 1
▁14- 1
▁2016/17 1
▁lup 1
Packard 1
str 1
Ẻ 1
▁Kina 1
▁Liza 1
▁Radeon 1
pé 1
▁Pik 1
block 1
ecto 1
gum 1
▁Kimi 1
:40 1
voy 1
▁Damian 1
▁Equi 1
▁González 1
ngkok 1
talk 1
▁Ner 1
▁René 1
▁fili 1
hami 1
scape 1
▁Sector 1
Back 1
Chef 1
raman 1
Del 1
IGA 1
NAC 1
rib 1
▁Bihar 1
Bos 1
Mak 1
▁Eduard 1
▁Modul 1
ATO 1
▁Television 1
▁ann 1
Market 1
hah 1
▁LR 1
ló 1
mind 1
▁Rev 1
MEI 1
▁Tava 1
▁val 1
SIA 1
▁st 1
owie 1
steroid 1
ulum 1
▁Alla 1
▁Moment 1
WM 1
ool 1
▁Anwar 1
▁Contest 1
▁bike 1
jia 1
▁Poll 1
▁mens 1
▁sp 1
2.3 1
Alex 1
▁Happ 1
▁Majest 1
Ran 1
tala 1
▁Vasco 1
OV 1
▁Teng 1
▁Animation 1
▁Guard 1
▁Jaa 1
▁Rais 1
▁toe 1
IJ 1
▁Camilla 1
▁Haus 1
▁Hawa 1
▁Jis 1
Donald 1
Qui 1
ont 1
▁Essential 1
▁TÁ 1
cun 1
endo 1
itia 1
▁Hashim 1
▁domino 1
Sen 1
stus 1
▁(1987) 1
rva 1
Online 1
▁Esther 1
Tar 1
▁bil 1
98) 1
GPS 1
▁BANK 1
▁Everything 1
▁color 1
MAN 1
▁Pole 1
▁cream 1
MK 1
RIC 1
araw 1
cad 1
▁Alfonso 1
LAT 1
bran 1
rav 1
RSA 1
fei 1
kent 1
kill 1
▁Kaba 1
▁Text 1
▁simple 1
anza 1
gyr 1
mesi 1
▁ano 1
▁gar 1
awan 1
kava 1
▁Antalya 1
▁Dirk 1
▁Gaur 1
▁Kip 1
ledge 1
▁Frost 1
▁Wide 1
▁08:00 1
▁Markus 1
▁VIS 1
AHA 1
ARD 1
ement 1
▁Cym 1
▁Martina 1
udu 1
▁Liste 1
▁Wow 1
green 1
pf 1
▁Rossiya 1
zig 1
▁Dus 1
▁Stories 1
meter 1
AMP 1
RAW 1
▁Kira 1
nez 1
unter 1
▁Coop 1
▁salmon 1
berto 1
mme 1
▁Conce 1
▁Dua 1
▁Voca 1
▁system 1
Pakistan 1
Sim 1
▁Fry 1
▁Natale 1
▁bombe 1
▁good 1
uit 1
▁Galileo 1
William 1
pari 1
▁calorie 1
▁mis 1
rody 1
▁Díaz 1
▁lac 1
ENT 1
orient 1
▁Esta 1
tium 1
▁Pf 1
eris 1
tán 1
▁Keyboard 1
▁Niko 1
▁bath 1
* 1
Eng 1
keri 1
▁Ee 1
▁User 1
▁Vijay 1
▁Yol 1
culos 1
▁Mond 1
▁novel 1
▁Wizard 1
▁Olu 1
▁SEO 1
mming 1
▁Factory 1
abu 1
▁Drink 1
96) 1
Gro 1
evski 1
▁zero 1
mú 1
siri 1
sú 1
vira 1
yin 1
▁Cé 1
▁Sokol 1
topia 1
▁Eg 1
▁Chandra 1
▁Seg 1
▁ref 1
▁zona 1
OCA 1
TER 1
stes 1
▁Faha 1
brus 1
piro 1
radio 1
▁clar 1
GLE 1
▁Elisabeth 1
▁Regi 1
▁Satya 1
▁point 1
Rah 1
▁alb 1
CAT 1
▁Ashraf 1
▁HAR 1
06) 1
osti 1
▁Property 1
▁ribo 1
▁widget 1
▁Creed 1
Tour 1
pero 1
rub 1
▁Gazeta 1
▁Geh 1
▁dock 1
▁low 1
▁Bili 1
▁Wahl 1
.10.2017 1
Activ 1
UG 1
uran 1
▁dim 1
▁il 1
▁CSS 1
▁Options 1
▁POP 1
▁stop 1
abh 1
pler 1
racht 1
▁PRO 1
▁Syr 1
▁Bere 1
▁Rec 1
▁VO 1
▁lep 1
augs 1
ents 1
▁Nee 1
elor 1
yung 1
▁Pina 1
moc 1
▁Weather 1
Et 1
▁(1985) 1
▁Oda 1
▁Photograph 1
▁dua 1
044 1
boa 1
hisar 1
lyst 1
▁STAR 1
▁pat 1
BIS 1
DJ 1
▁Mere 1
▁Prin 1
▁graffiti 1
inhos 1
▁Library 1
▁Nev 1
▁about 1
ingi 1
vida 1
▁Rolf 1
▁SATA 1
▁kw 1
▁streaming 1
tsa 1
uman 1
▁Dahl 1
▁sor 1
03) 1
Let 1
ija 1
vl 1
▁(1982) 1
kini 1
▁Girona 1
radi 1
▁coa 1
▁Ammo 1
angan 1
zzini 1
Lib 1
▁District 1
enii 1
▁Evolution 1
▁MIL 1
▁hydrat 1
▁oriental 1
977 1
aman 1
ones 1
vini 1
▁Barber 1
▁Wait 1
▁Yvonne 1
elda 1
▁Till 1
nama 1
▁Pom 1
▁Jas 1
▁Supp 1
Global 1
itti 1
esa 1
lied 1
▁Essen 1
yam 1
▁Sva 1
▁Bogor 1
▁Rent 1
▁review 1
后 1
nings 1
tet 1
GU 1
ize 1
kovo 1
▁Coach 1
▁Rahul 1
▁version 1
EO 1
uvi 1
yaz 1
▁wo 1
HAT 1
inne 1
wale 1
▁Help 1
Kr 1
vata 1
▁Mecklenburg 1
▁aff 1
▁kcal 1
nge 1
olin 1
ssin 1
inas 1
ares 1
▁Pomp 1
▁player 1
97) 1
▁2013-2018 1
▁Schle 1
Ray 1
ntana 1
orio 1
review 1
▁Boost 1
ences 1
▁Iza 1
▁Syed 1
▁Trou 1
▁Hannibal 1
IMG 1
bica 1
fico 1
▁Kaj 1
▁Matthias 1
Kun 1
ilu 1
jani 1
▁Linna 1
▁Miro 1
▁Bij 1
▁Duty 1
IH 1
▁Alban 1
▁Swarovski 1
last 1
▁Colon 1
▁QUẢN 1
▁Vlad 1
3-1 1
AME 1
QM 1
▁Fear 1
▁radi 1
▁real 1
assis 1
RY 1
▁Sahi 1
▁meg 1
DEA 1
nci 1
▁Comfort 1
▁Pais 1
mpa 1
tzi 1
▁Meu 1
▁bag 1
ikos 1
▁mun 1
reg 1
.11.2016 1
▁Curios 1
blatt 1
▁flori 1
oor 1
sc 1
▁Organization 1
▁Parent 1
▁Ryb 1
▁Vr 1
▁hool 1
eru 1
maz 1
utum 1
▁SY 1
lub 1
ATH 1
QUA 1
▁Assassin 1
▁las 1
Andorra 1
OVA 1
dara 1
▁Fem 1
▁add 1
vention 1
▁Spil 1
▁Uma 1
▁VOC 1
etes 1
lun 1
IME 1
alny 1
▁Hungari 1
▁mer 1
▁Experience 1
▁Memory 1
ece 1
liti 1
lod 1
▁Toh 1
▁them 1
▁vel 1
80) 1
Michel 1
dhana 1
user 1
▁Adri 1
▁oto 1
National 1
rawan 1
▁Dina 1
▁Hug 1
▁Umar 1
▁insula 1
▁white 1
▁Aceh 1
▁Some 1
▁jo 1
fiq 1
ponin 1
▁Malaya 1
▁polyester 1
held 1
map 1
quar 1
▁Ciudad 1
▁Zem 1
▁Argent 1
▁Huma 1
▁kar 1
Wall 1
▁Multimedia 1
coba 1
▁Globo 1
▁Nutrition 1
▁lum 1
▁Bare 1
▁Polar 1
▁next 1
▁13:00 1
▁Dame 1
▁Shopping 1
bina 1
where 1
▁Ruh 1
Zi 1
gl 1
▁Andhra 1
▁main 1
PIC 1
llinger 1
mish 1
pole 1
pont 1
sep 1
▁Kui 1
▁Vive 1
OU 1
tesse 1
▁Îl 1
IQ 1
MER 1
maha 1
▁Jensen 1
▁β 1
ener 1
siden 1
zona 1
▁Director 1
▁Virtual 1
OW 1
opi 1
▁xil 1
orra 1
▁2016/2017 1
▁TY 1
deli 1
umba 1
vica 1
▁Idris 1
▁story 1
olog 1
pico 1
▁Malin 1
▁Nawaz 1
▁Palacio 1
▁Stol 1
rain 1
▁Browser 1
▁Gift 1
▁Pand 1
bati 1
pana 1
▁Flat 1
▁Vodafone 1
▁az 1
▁end 1
York 1
▁21- 1
▁Tad 1
HIM 1
nem 1
nni 1
volution 1
▁Lombardia 1
▁Mex 1
▁Tool 1
▁epi 1
▁vill 1
anan 1
eel 1
isti 1
trend 1
zii 1
94) 1
▁after 1
0.2 1
SAM 1
▁Kasi 1
▁market 1
▁Larsson 1
▁kan 1
KR 1
cup 1
▁Strand 1
zene 1
zny 1
APA 1
EGA 1
▁AJ 1
▁Bahn 1
▁Hydra 1
eanu 1
▁Zimmer 1
▁Publishing 1
▁miss 1
3-4 1
rami 1
▁JavaScript 1
Vil 1
jara 1
▁(1984) 1
▁FIA 1
▁Palla 1
Frank 1
▁3500 1
▁Dem 1
▁Kraków 1
▁Priv 1
story 1
▁silicone 1
▁CMS 1
▁Pino 1
▁Seal 1
▁hp 1
mberg 1
nique 1
onica 1
▁af 1
rista 1
sier 1
▁Christensen 1
▁Toe 1
▁Hunger 1
▁KK 1
▁Yusuf 1
1952 1
dict 1
cchio 1
email 1
llan 1
▁Spre 1
eze 1
kola 1
liu 1
▁Guangzhou 1
▁Slide 1
eign 1
MIS 1
suh 1
ôr 1
▁Personal 1
▁control 1
▁09. 1
▁Diya 1
▁topic 1
sano 1
antis 1
heri 1
ovka 1
▁Chitt 1
▁Foss 1
▁Sacra 1
▁Bianco 1
▁Tall 1
logo 1
▁17- 1
▁Ary 1
▁patin 1
range 1
▁Effect 1
▁Filipp 1
▁who 1
EDI 1
EUR 1
Mill 1
edi 1
fah 1
▁Movies 1
▁Şanlıurfa 1
▁Pretoria 1
LON 1
ible 1
ovia 1
ried 1
▁Leg 1
1.1 1
mobi 1
spin 1
▁Lahore 1
tat 1
ène 1
▁9001 1
▁Karolin 1
▁Suc 1
▁plastic 1
quil 1
▁Ayat 1
▁cate 1
▁Ulu 1
Bon 1
arat 1
▁Local 1
pedia 1
▁hoo 1
▁items 1
▁Hade 1
▁Pilar 1
12.2014 1
KON 1
▁Bien 1
▁06. 1
Jan 1
ozo 1
spira 1
▁Moc 1
milla 1
▁Advance 1
▁Pietro 1
▁Teh 1
▁Karel 1
▁Klub 1
Ali 1
bini 1
▁Sail 1
Ul 1
NBA 1
ability 1
wari 1
▁EG 1
▁Qala 1
abo 1
foni 1
havi 1
ident 1
nki 1
▁Astrid 1
▁Kale 1
▁Luo 1
cation 1
nitz 1
ossa 1
▁Andra 1
yb 1
▁Tiberi 1
▁rotund 1
Will 1
nzi 1
▁Steam 1
Michael 1
▁Tweet 1
▁Tema 1
▁Falls 1
lete 1
▁Gest 1
▁MAK 1
▁thy 1
jian 1
ligi 1
▁Koko 1
▁OR 1
mper 1
▁14:00 1
▁obli 1
inin 1
kk 1
▁Teodor 1
▁win 1
▁Fac 1
▁Hún 1
▁Metall 1
▁Pérez 1
▁Welt 1
▁Gabi 1
▁Blank 1
▁CHO 1
▁map 1
exe 1
▁lance 1
ignan 1
Sel 1
▁Kép 1
▁Memorial 1
basa 1
▁Wikimedia 1
GEN 1
Happy 1
ador 1
loca 1
pita 1
▁Fortuna 1
sas 1
uze 1
▁Kurdistan 1
▁Lodge 1
Dream 1
▁Hahn 1
▁Tenerife 1
▁[5] 1
▁office 1
▁viola 1
Line 1
Vol 1
nye 1
▁Domino 1
avan 1
nesi 1
shka 1
▁Citroen 1
▁Council 1
▁Faust 1
▁Khair 1
▁Mund 1
▁Pika 1
▁vâ 1
aza 1
nota 1
▁Lassen 1
▁yo 1
PPI 1
cess 1
nite 1
uille 1
zione 1
▁fe 1
ARE 1
NER 1
minen 1
▁Jum 1
▁Paw 1
mers 1
ranga 1
▁Jana 1
▁simili 1
▁Musical 1
▁Tobias 1
Bir 1
EEE 1
iste 1
▁Chennai 1
voi 1
▁Avant 1
▁Quest 1
enzi 1
gres 1
▁Husk 1
mens 1
rü 1
▁calories 1
▁zip 1
letti 1
sed 1
tryk 1
▁Bulgari 1
▁das 1
Fra 1
vita 1
▁Same 1
▁Welle 1
Martin 1
Protect 1
eres 1
ongo 1
▁Lounge 1
4000 1
daw 1
trus 1
ural 1
TĂ 1
erna 1
pane 1
▁Emme 1
▁Nii 1
▁Norr 1
▁came 1
NÁ 1
VAT 1
bela 1
building 1
zep 1
cule 1
▁Dha 1
▁KR 1
▁Mera 1
▁SIN 1
eron 1
inai 1
sore 1
ä 1
▁Domingo 1
▁Lange 1
▁spot 1
文 1
▁(12) 1
▁Taip 1
▁Toledo 1
95) 1
íc 1
▁Congress 1
▁MY 1
▁Wish 1
Atlant 1
FIC 1
ilio 1
▁Pán 1
▁oxid 1
dura 1
hne 1
path 1
▁Attack 1
▁Magnus 1
▁Schiff 1
▁bir 1
dita 1
▁Stav 1
▁tik 1
bc 1
gler 1
▁Area 1
▁Paco 1
▁master 1
IDO 1
african 1
▁Suzan 1
mentos 1
▁07. 1
▁They 1
▁ibn 1
▁linea 1
▁res 1
feri 1
ntium 1
torius 1
with 1
ál 1
▁Conference 1
emo 1
ulu 1
▁Calabria 1
▁EXP 1
▁load 1
6.1 1
nais 1
▁mada 1
enos 1
▁23:00 1
▁avatar 1
OSS 1
acqua 1
zioni 1
▁Guido 1
▁Learning 1
Sur 1
ipe 1
iris 1
sidi 1
vista 1
▁Afg 1
▁herpes 1
▁rupiah 1
Adam 1
Ger 1
Rip 1
Ven 1
load 1
▁gold 1
inos 1
▁Kell 1
▁Rig 1
▁class 1
Grand 1
ggle 1
pire 1
technic 1
▁Please 1
▁UM 1
kke 1
▁acum 1
cem 1
ová 1
▁two 1
egy 1
▁Andrzej 1
LAN 1
kam 1
sci 1
▁Ribeiro 1
tax 1
▁11:00 1
▁Alert 1
▁Muz 1
▁highlight 1
OJ 1
pini 1
▁mit 1
zim 1
▁Authority 1
connect 1
ır 1
▁Gregori 1
▁túa 1
cip 1
Soft 1
▁Heidelberg 1
▁Noor 1
▁Rating 1
▁sneakers 1
sá 1
thom 1
▁Rado 1
Store 1
▁Developer 1
▁Transfer 1
shore 1
▁Cela 1
▁Anita 1
▁Fram 1
▁Peta 1
▁Souza 1
▁Venezia 1
▁gluten 1
Im 1
két 1
lberg 1
▁Zombie 1
ear 1
heli 1
ifa 1
▁Hewlett 1
▁Orient 1
▁search 1
ISCO 1
ijs 1
acht 1
ified 1
▁03. 1
▁Yek 1
ische 1
ussa 1
▁Roque 1
太 1
diana 1
▁Riviera 1
▁Tera 1
JJ 1
meta 1
system 1
zier 1
▁Apartment 1
ables 1
trait 1
▁Auschwitz 1
▁Oku 1
clan 1
team 1
▁Construction 1
▁poli 1
10.2014 1
Not 1
ages 1
saf 1
utta 1
▁Morav 1
ntia 1
vs 1
▁Kost 1
1/4 1
ę 1
▁BIOS 1
▁Mouse 1
nka 1
owska 1
▁Gund 1
▁sing 1
cure 1
ote 1
▁Before 1
▁Gupta 1
AGE 1
▁Fact 1
▁image 1
laq 1
lka 1
nette 1
▁Consulting 1
` 1
science 1
▁FK 1
▁Vou 1
▁BAN 1
▁Madeira 1
▁Progres 1
▁SPA 1
▁Telegram 1
beat 1
rillo 1
▁Bandar 1
▁Solid 1
ringer 1
zol 1
Anti 1
▁Dolor 1
▁modul 1
noc 1
▁Mimi 1
▁Rahim 1
▁Technic 1
biga 1
▁(( 1
▁Wedding 1
part 1
▁BÁO 1
▁Ravi 1
▁Tio 1
elio 1
lma 1
loch 1
maya 1
▁Fateh 1
▁(1983) 1
▁Automat 1
▁Bratislava 1
▁acu 1
▁Nora 1
▁lys 1
▁Nesta 1
▁Vat 1
luci 1
rovi 1
▁Always 1
▁Smer 1
5,00 1
arch 1
ikin 1
visa 1
wers 1
▁Romano 1
metri 1
rna 1
▁Confi 1
304 1
▁Soli 1
bov 1
stell 1
▁Sabri 1
▁burger 1
▁ole 1
YN 1
hak 1
rada 1
▁PSP 1
▁Sinop 1
▁Sorry 1
▁Jona 1
▁into 1
games 1
ssu 1
zola 1
▁Kors 1
▁rup 1
pani 1
▁César 1
hela 1
lă 1
plaz 1
▁Broadcast 1
▁Bursa 1
▁water 1
cima 1
franc 1
gold 1
ouche 1
▁Salomon 1
▁Dad 1
▁Sek 1
▁him 1
公 1
xie 1
LAND 1
publ 1
▁Galicia 1
▁mira 1
vast 1
▁Aut 1
▁Faz 1
▁Upp 1
mile 1
raga 1
▁Zak 1
kirche 1
ndr 1
ą 1
▁Level 1
▁din 1
fare 1
lima 1
▁Lid 1
▁Minor 1
▁Official 1
▁Pavlov 1
▁Saar 1
meye 1
rust 1
lind 1
lood 1
▁Stereo 1
▁Third 1
▁arab 1
▁27- 1
▁Buss 1
lies 1
▁Pretty 1
EED 1
fini 1
quest 1
▁Datuk 1
▁Sac 1
▁pull 1
keh 1
▁Matth 1
▁μ 1
Ji 1
uku 1
▁base 1
▁Ground 1
▁Sanat 1
▁mor 1
ACH 1
Part 1
leta 1
tab 1
tler 1
tyn 1
▁Span 1
▁Prem 1
▁occidental 1
▁· 1
onym 1
▁Father 1
PSI 1
Vai 1
landa 1
lân 1
şehir 1
remo 1
▁Instant 1
alam 1
cim 1
font 1
▁Atlético 1
▁Backup 1
▁soo 1
mente 1
▁(14) 1
▁Kano 1
▁Vand 1
1900 1
DAM 1
Fit 1
édé 1
▁13- 1
▁Bello 1
▁nic 1
Roma 1
hadi 1
lumina 1
ADE 1
sell 1
tua 1
USTA 1
▁Zeitung 1
samo 1
▁mirror 1
shirt 1
▁Kino 1
▁Nil 1
▁also 1
▁Sep 1
▁fri 1
Science 1
belli 1
miss 1
plec 1
AIS 1
OO 1
iam 1
′ 1
▁Independen 1
ibi 1
xos 1
asca 1
▁Kund 1
▁Toto 1
bba 1
ING 1
Info 1
▁Batu 1
Note 1
UL 1
oly 1
▁16- 1
REN 1
jour 1
lici 1
omba 1
Show 1
angel 1
parta 1
voc 1
▁Abra 1
▁Că 1
▁way 1
1-0 1
▁22- 1
▁nucleo 1
SON 1
arna 1
▁Blond 1
▁sali 1
APP 1
pathi 1
udio 1
▁Gull 1
▁Peli 1
▁blou 1
gallery 1
solo 1
telia 1
zem 1
ño 1
▁Petri 1
▁Tit 1
▁ah 1
TON 1
sya 1
▁Johanna 1
▁Piotr 1
▁second 1
reza 1
▁Haben 1
▁Palembang 1
▁VỀ 1
▁pate 1
50,000 1
arin 1
▁28- 1
▁Expedi 1
EAT 1
bili 1
▁lin 1
iq 1
pren 1
▁Both 1
▁Advisor 1
▁CUP 1
▁Calendar 1
▁heart 1
lami 1
opia 1
teh 1
usia 1
2] 1
▁19:00 1
▁mus 1
▁notebook 1
RAV 1
▁Satellite 1
妃 1
Roll 1
nari 1
0.3 1
▁ji 1
then 1
ydi 1
Jul 1
▁2560 1
▁Helmut 1
KF 1
INN 1
INT 1
RW 1
This 1
▁Basa 1
1: 1
Windows 1
hockey 1
▁Chy 1
▁dream 1
▁meta 1
KE 1
dice 1
▁Eliza 1
Wir 1
typ 1
▁Unite 1
Christ 1
RAN 1
▁10:00 1
▁Adria 1
▁Pioneer 1
lozi 1
ruba 1
▁Flamengo 1
▁Python 1
1080 1
amy 1
arm 1
laden 1
opera 1
plot 1
▁fram 1
JI 1
fair 1
gile 1
touch 1
▁Tapi 1
安 1
NU 1
▁Aula 1
▁Gerais 1
▁Sexy 1
nti 1
rgan 1
̃ 1
▁Kern 1
▁Sk 1
▁Stil 1
天 1
ores 1
▁bat 1
dors 1
▁Ret 1
▁adidas 1
ider 1
iere 1
iola 1
leh 1
oir 1
▁now 1
beh 1
weg 1
▁Goran 1
▁Secure 1
▁which 1
DRE 1
bonne 1
pedi 1
▁Foc 1
▁Tools 1
▁Zee 1
▁ye 1
First 1
▁KE 1
hole 1
▁05:00 1
▁Crea 1
tei 1
▁Katha 1
tova 1
▁Chiar 1
veni 1
▁Mahmud 1
▁moto 1
Arch 1
ROG 1
▁Observa 1
▁Sánchez 1
▁sar 1
▁troj 1
nud 1
szt 1
▁Coba 1
▁Exp 1
▁HTTP 1
AY 1
▁Eclipse 1
▁shu 1
▁Bahia 1
▁Industrial 1
▁green 1
▁reset 1
alde 1
▁SQL 1
▁rug 1
SAF 1
Stock 1
▁Gad 1
▁Loma 1
▁som 1
ATM 1
ception 1
leni 1
stien 1
wia 1
▁Miha 1
amu 1
▁Negro 1
ndan 1
▁FU 1
▁MON 1
▁pass 1
mette 1
mod 1
ipi 1
uv 1
zale 1
▁Keller 1
▁Kitchen 1
▁Muha 1
hama 1
palli 1
peng 1
tema 1
▁Content 1
▁Dress 1
・ 1
kran 1
▁sina 1
▁Ingrid 1
▁Protection 1
< 1
ESS 1
RAP 1
flower 1
ifu 1
▁23- 1
▁gy 1
▁order 1
Hab 1
7000 1
1914 1
spar 1
tomat 1
▁pala 1
atos 1
status 1
▁Chapter 1
▁Plz 1
▁Products 1
▁Tic 1
fox 1
tique 1
▁Campan 1
▁Schw 1
DIR 1
azo 1
▁neu 1
stedt 1
▁Crush 1
▁Hyderabad 1
mist 1
ned 1
sec 1
▁get 1
DAT 1
▁£ 1
lder 1
▁Feld 1
▁Tsar 1
Data 1
ventur 1
rro 1
▁CLA 1
▁Loo 1
▁meeting 1
▁Fernández 1
▁boss 1
xta 1
▁Gr 1
▁Inga 1
sud 1
▁Carta 1
▁Fatima 1
▁Split 1
▁speci 1
▁tank 1
9.99 1
anni 1
▁Austria 1
▁Gün 1
llos 1
ological 1
went 1
▁dz 1
▁Kup 1
▁RFID 1
▁mot 1
▁Lad 1
▁NU 1
▁Nagar 1
ruk 1
mare 1
feat 1
▁Wojciech 1
stag 1
rri 1
▁quota 1
▁Hampton 1
▁business 1
▁pitch 1
▁polo 1
REM 1
agi 1
state 1
▁VAI 1
镇 1
▁Liquid 1
▁Saman 1
▁Tampa 1
tada 1
▁Mukh 1
▁Storage 1
12.2013 1
PRO 1
▁Cade 1
▁Ind 1
▁Normal 1
▁eye 1
▁user 1
ampi 1
pose 1
stance 1
▁Neptun 1
enbach 1
▁Simple 1
▁cili 1
agu 1
dela 1
▁bad 1
▁keng 1
▁Chill 1
▁Excellence 1
:55 1
viz 1
kuru 1
menes 1
pola 1
FU 1
ame 1
gini 1
term 1
▁center 1
BIT 1
nome 1
▁Baru 1
▁Eski 1
▁uh 1
:25 1
ALL 1
lega 1
adores 1
iens 1
text 1
▁Arroyo 1
:35 1
gga 1
▁Dah 1
▁Revi 1
abb 1
▁Nori 1
▁its 1
▁mod 1
antes 1
tien 1
▁Lean 1
▁Ruk 1
szczy 1
▁Illa 1
▁Oktober 1
algo 1
divi 1
esti 1
mali 1
wish 1
▁quo 1
▁strong 1
gade 1
kt 1
rok 1
▁Gerhard 1
▁Vehicle 1
hout 1
kry 1
rinho 1
vani 1
▁Kinder 1
cky 1
brid 1
▁Lama 1
▁Mek 1
▁trip 1
▁tubercul 1
ISO 1
harmoni 1
▁Krakow 1
▁Zelen 1
▁gato 1
▁tar 1
Band 1
ssie 1
▁adrenalin 1
VIA 1
lav 1
vii 1
▁Competition 1
▁Gü 1
▁Hits 1
▁Kub 1
trica 1
▁Kazi 1
▁Mussolini 1
COR 1
VU 1
nali 1
upe 1
werp 1
▁TAG 1
arkiv 1
ebi 1
laha 1
sem 1
▁Mutu 1
KZ 1
jang 1
roh 1
▁Notebook 1
▁viri 1
CBN 1
level 1
lico 1
atlan 1
family 1
ilee 1
ply 1
▁Desa 1
▁Original 1
▁dar 1
atha 1
cena 1
mese 1
razi 1
varna 1
▁RGB 1
▁were 1
bashi 1
ovat 1
▁Spal 1
▁Tips 1
▁penca 1
LAB 1
tega 1
▁Egg 1
▁ple 1
RET 1
inni 1
lix 1
luc 1
vand 1
▁Fruit 1
▁Hormon 1
▁Karo 1
ror 1
▁Kak 1
▁date 1
▁(20) 1
1-1 1
OSA 1
Plan 1
fina 1
haru 1
miya 1
▁Fore 1
▁Object 1
▁Steaua 1
▁Theatre 1
▁troll 1
bility 1
sses 1
ways 1
PHA 1
git 1
sola 1
szy 1
Ẹ 1
▁Evi 1
▁Hain 1
▁Kiel 1
▁Lemon 1
▁Supreme 1
▁Veneto 1
▁mân 1
▁» 1
pena 1
▁Beri 1
▁Barbar 1
▁had 1
cone 1
rono 1
rst 1
EVO 1
guri 1
ipa 1
▁Madhya 1
▁[6] 1
▁their 1
Gri 1
xil 1
▁Muh 1
4.1 1
başı 1
chov 1
▁Contact 1
▁Singa 1
Light 1
▁AIR 1
▁Nabi 1
▁pê 1
ité 1
weight 1
▁(1980) 1
▁Highway 1
▁how 1
1936 1
▁Drum 1
▁caramel 1
onta 1
turk 1
▁gal 1
George 1
▁Québec 1
▁Reh 1
▁Unesco 1
trekking 1
vt 1
▁(15) 1
▁zin 1
1938 1
▁African 1
▁cast 1
trap 1
undi 1
zzy 1
▁Amit 1
▁Hebr 1
▁Pey 1
rse 1
tora 1
▁Brut 1
▁OEM 1
enca 1
wor 1
▁Sve 1
1500 1
sime 1
unta 1
▁Canta 1
1919 1
▁Legal 1
▁Opel 1
▁IKEA 1
▁Nel 1
▁fun 1
lép 1
porta 1
▁Ego 1
Mir 1
ments 1
ović 1
rime 1
tuan 1
▁Rath 1
▁hor 1
▁lipo 1
grip 1
lp 1
▁Sre 1
▁learning 1
▁outfit 1
bund 1
credit 1
ière 1
▁) 1
▁Counter 1
Esc 1
resh 1
▁Karp 1
▁Kır 1
▁Mamma 1
▁Yaz 1
▁glob 1
ENA 1
ular 1
▁tren 1
Enter 1
chain 1
fy 1
▁Bakar 1
▁Manufa 1
▁Obra 1
▁Dhamma 1
▁Value 1
ACI 1
KEY 1
lein 1
▁Adapt 1
▁Radu 1
▁Aw 1
▁Pasa 1
▁Rol 1
▁modest 1
▁season 1
Aquila 1
holi 1
▁Bh 1
▁Rez 1
Vision 1
cí 1
linga 1
ull 1
vend 1
▁Habib 1
Flor 1
▁NHÀ 1
▁Password 1
▁sui 1
izou 1
▁Herr 1
▁Support 1
▁linear 1
eiras 1
rosi 1
MIN 1
fl 1
▁Qur 1
7-8 1
cet 1
ssos 1
▁reti 1
dua 1
▁Demir 1
▁Editor 1
▁Hulu 1
▁Madeleine 1
▁Pogo 1
▁Reserve 1
IOS 1
auto 1
ilan 1
itta 1
▁0.2 1
▁Arra 1
SAR 1
seri 1
wani 1
▁Saj 1
▁vam 1
lania 1
▁dubi 1
Anhalt 1
fic 1
▁Aleksandar 1
▁JK 1
▁rich 1
dali 1
itor 1
▁Material 1
hna 1
onga 1
pam 1
tika 1
võ 1
▁Better 1
▁Château 1
▁Element 1
▁Kelantan 1
▁Magnet 1
rem 1
vero 1
▁Site 1
▁GAZ 1
▁Marek 1
▁octa 1
▁roll 1
▁store 1
DAR 1
haven 1
zat 1
▁.. 1
▁hipp 1
▁retin 1
ABC 1
ondo 1
▁Mein 1
ecki 1
▁Cristo 1
▁Mens 1
▁adapter 1
IVA 1
asan 1
▁if 1
▁varie 1
,000,000 1
Radio 1
ewicz 1
rika 1
▁Ponti 1
▁SMA 1
▁soul 1
buck 1
▁00:00 1
▁Zap 1
AVA 1
Pie 1
▁Combat 1
▁remote 1
XI 1
blogspot 1
▁Department 1
▁Jardin 1
BBC 1
HAY 1
▁Hori 1
▁part 1
prise 1
Out 1
RIS 1
ams 1
kui 1
open 1
▁(1978) 1
▁Bandung 1
▁Espa 1
▁Haar 1
▁Ina 1
▁network 1
Commerce 1
wali 1
▁Canadian 1
▁DIA 1
▁nova 1
Univers 1
▁Castillo 1
▁Krav 1
乡 1
2500 1
ABI 1
bt 1
shell 1
▁Tube 1
Sex 1
pai 1
Log 1
hero 1
mam 1
▁2:1 1
▁Mirza 1
▁basi 1
▁ĐỘNG 1
CY 1
Vor 1
fang 1
ró 1
▁(1973) 1
▁0.3 1
▁CHA 1
▁Diario 1
▁Emilio 1
▁Expert 1
dek 1
gner 1
rador 1
seng 1
ŏ 1
▁Seb 1
Het 1
idin 1
lange 1
wikipedia 1
idos 1
limit 1
hta 1
rera 1
▁kick 1
1] 1
▁Irish 1
▁cele 1
Comp 1
Tab 1
lán 1
▁1024 1
▁Hoga 1
▁Hopp 1
▁Larsen 1
SOP 1
SUV 1
▁Resident 1
iyev 1
▁ART 1
▁brom 1
UVA 1
▁Bier 1
▁PU 1
▁Study 1
▁pr 1
sip 1
▁Vend 1
▁ana 1
▁glut 1
▁unico 1
arı 1
robot 1
▁(13) 1
▁Magna 1
grid 1
▁sho 1
lala 1
▁Holocaust 1
▁Qo 1
▁Troch 1
▁caption 1
TEK 1
YO 1
tuz 1
▁Elisa 1
▁Theater 1
ember 1
mán 1
rud 1
▁Ask 1
▁Tutto 1
Connect 1
ROM 1
abri 1
robo 1
semi 1
ced 1
iler 1
sada 1
▁Baum 1
erin 1
▁Hoc 1
EFE 1
Rom 1
jama 1
soy 1
▁Agent 1
▁Table 1
AGA 1
Dom 1
singh 1
terna 1
▁GmbH 1
▁marti 1
Like 1
etate 1
hant 1
.05. 1
enka 1
wil 1
pli 1
▁Constant 1
▁Creator 1
▁Margarita 1
▁Truck 1
BER 1
1-4 1
gru 1
krishna 1
terus 1
working 1
▁yun 1
TEN 1
duk 1
kach 1
▁Bruxelles 1
bila 1
hist 1
▁Agung 1
▁Distribu 1
kow 1
▁Profile 1
chana 1
lga 1
reich 1
tog 1
▁Imam 1
▁Kava 1
▁Sya 1
DOS 1
VIS 1
ió 1
yet 1
▁AKP 1
▁Kauf 1
Android 1
NW 1
iks 1
ldi 1
▁Campus 1
▁KU 1
indi 1
itat 1
LAI 1
▁Frans 1
▁generic 1
Hand 1
ctum 1
prox 1
roga 1
rze 1
dome 1
iad 1
▁Registr 1
▁Senior 1
Kas 1
dru 1
ombre 1
yda 1
▁Khabar 1
▁Mahi 1
▁lira 1
▁school 1
lier 1
reng 1
strict 1
VAN 1
wise 1
▁Score 1
▁nad 1
ongan 1
ë 1
▁Gunnar 1
STA 1
itou 1
▁Breivik 1
▁Teu 1
▁keyboard 1
▁spi 1
aeth 1
boli 1
buy 1
witch 1
▁Neve 1
▁bre 1
▁flor 1
ART 1
Anna 1
STI 1
pron 1
▁Woj 1
htu 1
klon 1
ptu 1
sut 1
▁Grill 1
▁Rally 1
WO 1
tissima 1
lol 1
pens 1
▁Kü 1
▁sha 1
dymo 1
mita 1
sig 1
year 1
▁Stip 1
▁Tuo 1
ECU 1
▁2017-18 1
▁ECO 1
mesti 1
▁Rijk 1
▁forum 1
▁Murat 1
IES 1
ngi 1
novo 1
▁Notre 1
▁Simp 1
czy 1
▁cruise 1
CHA 1
Kbps 1
Med 1
dani 1
▁Taman 1
▁UE 1
▁fit 1
best 1
igna 1
inu 1
ß 1
▁UD 1
▁Cena 1
▁MTB 1
▁Nya 1
▁Version 1
.04.20 1
nju 1
vati 1
▁Guru 1
▁Rabbi 1
▁vitt 1
Stat 1
deep 1
embe 1
haal 1
reck 1
tant 1
velli 1
▁Ekip 1
▁brasil 1
Bot 1
aran 1
tma 1
▁fru 1
▁leng 1
Arabi 1
▁work 1
ANU 1
ERO 1
Medic 1
OG 1
anger 1
iline 1
miti 1
rope 1
tish 1
▁Pry 1
alda 1
bod 1
maga 1
ots 1
ī 1
ción 1
cela 1
pela 1
▁Automobil 1
▁IND 1
aat 1
zir 1
▁! 1
▁mão 1
sof 1
unga 1
visor 1
▁Agnes 1
▁Heroes 1
▁cookie 1
▁sci 1
▁space 1
nta 1
MES 1
cream 1
iese 1
jl 1
telecom 1
▁Instrument 1
▁Rust 1
▁XXX 1
▁concerto 1
dder 1
▁Donat 1
▁Kafka 1
sod 1
▁(...) 1
▁CHF 1
▁Carmel 1
▁Ord 1
toi 1
usz 1
▁Ladies 1
▁bul 1
Lock 1
WAN 1
cile 1
lavo 1
▁Ibn 1
▁TIC 1
owiec 1
tiger 1
▁09:00 1
▁Student 1
▁dot 1
Kur 1
drup 1
itin 1
▁Maji 1
onych 1
otra 1
▁ale 1
bh 1
sona 1
vna 1
Name 1
ever 1
▁Garage 1
Start 1
dağ 1
ár 1
▁$2 1
▁Habsburg 1
▁Jawa 1
Every 1
OD 1
athlon 1
▁Río 1
▁Monday 1
MAG 1
Sor 1
donis 1
learning 1
▁Reis 1
Nov 1
full 1
▁Muss 1
▁fen 1
8.1 1
lát 1
mede 1
tiga 1
tons 1
▁Recovery 1
▁Suka 1
sions 1
▁Interview 1
▁https 1
ibe 1
NAT 1
adh 1
kalo 1
ncia 1
nto 1
▁whisky 1
fes 1
hty 1
zania 1
▁2000- 1
▁Matrix 1
▁Porte 1
▁Walking 1
▁casta 1
▁log 1
Blog 1
RÍ 1
owy 1
▁Explo 1
▁Tallinn 1
▁Techno 1
▁aflat 1
Mod 1
baz 1
call 1
▁Juda 1
▁Weise 1
SHI 1
▁med 1
▁wiki 1
turing 1
uno 1
mega 1
riga 1
▁Chief 1
▁Lola 1
anii 1
▁baz 1
▁been 1
astus 1
nko 1
suf 1
▁Avis 1
▁Document 1
▁Sarı 1
▁zu 1
Por 1
flan 1
▁Evangel 1
▁Interna 1
▁pulchr 1
▁zo 1
cuti 1
fec 1
high 1
▁Kalimantan 1
▁winner 1
PER 1
sund 1
▁Cartoon 1
▁Hast 1
▁Superior 1
▁hóp 1
8000 1
hiz 1
▁Juri 1
▁Kili 1
▁rep 1
▁Desert 1
PAR 1
mico 1
parti 1
▁pep 1
duct 1
pici 1
▁note 1
EMI 1
lde 1
lek 1
plica 1
elsen 1
hib 1
nur 1
▁Meet 1
8/ 1
OOD 1
ascens 1
aug 1
enge 1
glie 1
lise 1
▁Prim 1
prin 1
eniu 1
▁Kanak 1
▁lag 1
diq 1
vance 1
▁Brez 1
▁Stanislav 1
heel 1
maa 1
uzi 1
ș 1
▁Germany 1
▁Hic 1
hale 1
uhan 1
▁ante 1
▁hol 1
▁travel 1
▁wall 1
▁(17) 1
▁0.1 1
▁Entre 1
▁Kl 1
▁OB 1
▁Slow 1
Kal 1
drama 1
▁Create 1
gii 1
▁oh 1
krit 1
lais 1
ticos 1
▁Blizzard 1
▁Nikol 1
▁Porn 1
▁Zie 1
VIP 1
▁Tut 1
▁benchmark 1
bera 1
mès 1
▁Agra 1
▁Bani 1
▁RP 1
▁gigante 1
cr 1
dige 1
motor 1
ofa 1
▁Stay 1
▁display 1
▁typ 1
2/ 1
ICI 1
eaux 1
ük 1
▁Andrej 1
▁Course 1
▁Imagine 1
▁Impact 1
▁mica 1
▁walk 1
▁Terminal 1
mise 1
tane 1
tate 1
ören 1
▁(19) 1
▁Heights 1
▁Labor 1
▁Mechanic 1
▁mur 1
▁synth 1
Var 1
isen 1
rito 1
▁DOS 1
▁Langkawi 1
▁setting 1
monitor 1
tó 1
liber 1
saya 1
▁Primavera 1
▁Protocol 1
▁visual 1
▁Commons 1
▁prae 1
德 1
5.1 1
POS 1
api 1
entium 1
▁Indon 1
▁Juba 1
▁Mell 1
▁Volume 1
cioni 1
hav 1
▁Claudi 1
▁Pow 1
▁ses 1
zip 1
▁Collect 1
▁Critic 1
▁design 1
Kam 1
LEA 1
ucu 1
▁Zur 1
amma 1
tinu 1
▁av 1
▁drift 1
daya 1
ruh 1
sert 1
▁CZ 1
▁Luck 1
▁NỘI 1
▁Sela 1
Württemberg 1
arti 1
elta 1
fana 1
pă 1
veld 1
š 1
▁CRM 1
▁Octavia 1
Mis 1
▁Lust 1
nish 1
sense 1
▁Maku 1
▁alpin 1
▁1980- 1
▁Haha 1
1937 1
db 1
hram 1
▁Aste 1
▁Portal 1
▁Rule 1
▁Aile 1
ră 1
vale 1
▁Bergen 1
Wolf 1
afa 1
bril 1
txa 1
uten 1
▁Internacional 1
▁Martínez 1
fak 1
kone 1
talo 1
▁number 1
vitamin 1
▁Britt 1
▁Reci 1
▁att 1
区 1
ayya 1
▁Munch 1
▁open 1
▁prote 1
▁vocal 1
NUS 1
Pas 1
▁Vino 1
▁cand 1
▁playoff 1
▁Ł 1
HAS 1
expo 1
uks 1
dahl 1
▁Ecce 1
sins 1
▁Anno 1
▁Much 1
sand 1
▁Aloe 1
▁Eure 1
▁other 1
ccia 1
vado 1
vente 1
▁Rights 1
dogo 1
▁Pieter 1
asso 1
ective 1
ssica 1
▁Kapp 1
prot 1
▁Rafi 1
▁rada 1
fter 1
mili 1
▁Genova 1
▁dual 1
▁xx 1
gee 1
▁Masak 1
▁Welcome 1
CAD 1
anie 1
tuk 1
ège 1
▁Tanya 1
▁ibu 1
▁Pano 1
LEX 1
certa 1
menti 1
music 1
▁palm 1
▁Lag 1
haj 1
orin 1
salon 1
ragan 1
rique 1
▁Konya 1
cita 1
▁(18) 1
▁cata 1
iyet 1
kea 1
tiv 1
▁Osta 1
▁Pompei 1
▁rigid 1
WAT 1
control 1
wie 1
▁Dje 1
▁io 1
▁pra 1
▁stra 1
[10] 1
very 1
▁Dewan 1
▁Piet 1
▁Visi 1
金 1
beta 1
isme 1
▁Delfi 1
▁Rodrigues 1
hair 1
iros 1
▁Analys 1
▁Celebrity 1
▁Event 1
▁Pesca 1
▁doesn 1
ebla 1
▁ure 1
MAZ 1
QE 1
erd 1
▁Giovan 1
▁kata 1
mín 1
zze 1
▁20:30 1
1933 1
EJ 1
onin 1
▁Anto 1
▁tran 1
TRI 1
enci 1
guide 1
lele 1
ndry 1
piri 1
rb 1
▁Campania 1
▁MJ 1
▁Ona 1
▁Rend 1
▁dress 1
▁think 1
Ny 1
Spa 1
ağı 1
iyan 1
tune 1
元 1
czyk 1
hnu 1
muk 1
yub 1
▁Millennium 1
IBA 1
dies 1
▁mos 1
ETS 1
Fun 1
lance 1
▁Cura 1
▁hard 1
uja 1
▁(16) 1
▁Bhar 1
▁Nasir 1
▁Potsdam 1
▁vas 1
jpg 1
kken 1
▁RSS 1
▁Suites 1
union 1
▁Dove 1
▁gran 1
LIN 1
ager 1
riel 1
Ẳ 1
▁Hindi 1
▁Kole 1
▁Neben 1
▁Viral 1
▁alba 1
▁just 1
▁land 1
國 1
kiewicz 1
ombo 1
▁PI 1
▁Regal 1
▁Jakob 1
▁Oko 1
▁Pok 1
index 1
▁Durant 1
▁Jor 1
LAMA 1
Point 1
lm 1
Yang 1
eka 1
▁cit 1
maid 1
▁Actor 1
▁Coro 1
▁Gör 1
▁Learn 1
▁ovat 1
武 1
biya 1
▁Ponte 1
baki 1
▁Did 1
Nord 1
RAC 1
ject 1
▁Mukherjee 1
▁Reality 1
▁mes 1
POP 1
lation 1
pera 1
▁FIR 1
▁Marius 1
▁Privacy 1
▁[7] 1
Read 1
amat 1
lige 1
▁Alm 1
▁Fleisch 1
DY 1
RES 1
gato 1
▁Contra 1
▁Poz 1
▁Sommer 1
▁deep 1
ksi 1
riam 1
verge 1
▁stre 1
▁what 1
Reg 1
auti 1
boot 1
tava 1
▁Label 1
▁Mulle 1
kali 1
▁Campos 1
▁wil 1
SAN 1
SSE 1
meh 1
shar 1
▁Agoda 1
▁Drago 1
▁Mohan 1
▁Remember 1
▁aura 1
▁vip 1
ggia 1
▁Format 1
▁Iglesia 1
▁Mastercard 1
karta 1
nse 1
▁board 1
▁strig 1
fs 1
▁Krab 1
▁race 1
ritz 1
▁Lava 1
▁Magdalena 1
▁Tier 1
▁views 1
aru 1
isena 1
▁Ryanair 1
aires 1
doni 1
lose 1
shed 1
3/ 1
jou 1
tase 1
▁Pain 1
cek 1
▁blues 1
tras 1
▁psi 1
州 1
"> 1
erea 1
▁Bunge 1
▁SAN 1
quilla 1
vern 1
▁Cancel 1
▁client 1
yba 1
▁Loh 1
▁Pem 1
▁corn 1
Ob 1
▁Rest 1
▁watch 1
Beauty 1
aura 1
bă 1
yak 1
▁Ivana 1
▁Olli 1
▁Shk 1
DAI 1
doo 1
tot 1
▁Jaro 1
▁ramen 1
cair 1
▁MPEG 1
▁piste 1
明 1
▁ASP 1
▁Also 1
▁Fuente 1
▁Usman 1
▁Muka 1
emp 1
▁Sapi 1
▁sea 1
Lokomotiv 1
bber 1
eks 1
issimus 1
ruth 1
▁Cancer 1
Intel 1
gani 1
▁Lands 1
▁Trots 1
turi 1
▁Tras 1
▁Turismo 1
▁gameplay 1
ady 1
▁2018/2019 1
▁Babel 1
▁Japanese 1
▁homo 1
psa 1
writer 1
▁Truth 1
▁GNU 1
▁Rank 1
▁country 1
Grav 1
TÍ 1
cada 1
▁Finger 1
▁Guild 1
▁Location 1
▁background 1
SMS 1
▁later 1
▁pri 1
▁sand 1
clin 1
covi 1
mpia 1
▁1960- 1
▁they 1
By 1
idio 1
loup 1
wij 1
▁Feature 1
▁Hernández 1
▁ali 1
▁pod 1
▁Jahan 1
▁brand 1
▁stylu 1
CAN 1
lse 1
▁Chapel 1
▁Rug 1
▁Siwon 1
平 1
DIS 1
fino 1
nac 1
riko 1
▁2400 1
LAS 1
amon 1
dw 1
▁BMT 1
▁MIG 1
▁Ware 1
▁feed 1
ITO 1
enie 1
good 1
lug 1
nts 1
search 1
▁Barna 1
▁GK 1
▁Sli 1
1600 1
▁Mehr 1
▁Nos 1
▁SSL 1
▁Theme 1
ERN 1
alba 1
mbe 1
vra 1
lingen 1
▁Halil 1
JP 1
pap 1
square 1
stas 1
deutsche 1
▁Gaziantep 1
▁Investor 1
▁Volt 1
▁tap 1
城 1
▁Monika 1
▁Plastic 1
JM 1
TEL 1
azi 1
ekben 1
ouse 1
tnik 1
▁Aleksander 1
▁Gaya 1
▁LTD 1
▁sola 1
ande 1
fici 1
will 1
▁Matri 1
▁Waziri 1
Hal 1
House 1
▁excel 1
cato 1
mpion 1
▁Ako 1
▁Latino 1
▁Bota 1
▁Martín 1
Open 1
meen 1
▁cute 1
▁place 1
▁sky 1
▁tor 1
uris 1
ETI 1
Sign 1
ZO 1
pk 1
ures 1
▁Electrolux 1
▁Fix 1
▁Krist 1
之 1
Hall 1
hatta 1
istes 1
occhio 1
shq 1
therapy 1
▁Baj 1
▁Medica 1
▁Unity 1
▁basic 1
▁sake 1
▁suma 1
ION 1
wada 1
▁Arabic 1
▁Bek 1
▁Zahid 1
oji 1
rip 1
▁apo 1
▁palu 1
India 1
Vis 1
laki 1
mul 1
▁1990- 1
3] 1
▁Dul 1
▁Formula 1
▁Physic 1
▁Pune 1
▁coffee 1
▁workshop 1
ANS 1
allo 1
culture 1
isty 1
▁10,000 1
▁Mehdi 1
mira 1
▁indica 1
▁pel 1
AIDS 1
MeToo 1
aging 1
volu 1
▁Dó 1
▁Pengu 1
▁Surf 1
JAL 1
Shop 1
▁Ayo 1
▁Silvia 1
▁Tout 1
▁syl 1
arba 1
dden 1
haga 1
▁Dhar 1
JE 1
puri 1
schwe 1
ulio 1
▁Abdu 1
▁ros 1
fta 1
havan 1
▁Kraft 1
eille 1
fro 1
▁FAM 1
▁Rata 1
▁kina 1
essen 1
MIA 1
ggen 1
▁1970- 1
fold 1
▁dog 1
▁wol 1
GEM 1
sap 1
▁Shock 1
▁red 1
▁tuoi 1
7.1 1
USE 1
jos 1
rost 1
rsa 1
▁Balance 1
▁Jy 1
▁Reco 1
▁Rs 1
▁confu 1
buz 1
curr 1
stall 1
▁2600 1
ijn 1
nje 1
▁Montag 1
Now 1
charge 1
dei 1
epi 1
rona 1
▁Miriam 1
IAS 1
YB 1
▁Method 1
▁know 1
▁sh 1
YON 1
steen 1
▁Associated 1
▁Bernhard 1
▁Brass 1
▁Kila 1
▁Nap 1
▁Utrecht 1
▁insigni 1
▁want 1
、 1
fres 1
iak 1
icae 1
▁Bogotá 1
▁HDP 1
▁papu 1
ulan 1
▁Reply 1
▁Stamp 1
hoo 1
isma 1
randa 1
▁Klar 1
▁strict 1
▁vul 1
Av 1
Mini 1
rbi 1
▁JPEG 1
▁disc 1
dám 1
▁Nieder 1
▁SONG 1
▁İ 1
▁Hallo 1
劉 1
kuma 1
▁Scrap 1
▁platform 1
4/ 1
inda 1
specta 1
▁Groot 1
▁MED 1
5-6 1
▁Dacia 1
▁again 1
Digital 1
iset 1
▁Precis 1
wert 1
▁Mire 1
▁bei 1
Over 1
heat 1
▁Jaz 1
▁PHP 1
kana 1
▁Cotton 1
▁Mh 1
▁api 1
▁panorama 1
▁telo 1
Korea 1
iOS 1
▁Hitz 1
▁Kare 1
▁Kızıl 1
AAT 1
valu 1
wok 1
▁Bosna 1
▁EE 1
▁cru 1
image 1
rali 1
▁Hafta 1
▁SEK 1
人 1
1.00 1
Energ 1
timo 1
▁Cluj 1
▁[8] 1
▁plugin 1
南 1
DNA 1
bly 1
laf 1
▁Bauer 1
▁Bodi 1
▁pana 1
HY 1
▁Brat 1
▁Libre 1
▁Loc 1
▁Vilnius 1
richt 1
▁29- 1
▁Ili 1
▁Nye 1
▁Survey 1
9/ 1
▁Executive 1
mental 1
nosti 1
▁Essa 1
Opera 1
ström 1
▁Guri 1
clam 1
ists 1
metric 1
▁Avon 1
▁Hilde 1
▁Ignacio 1
▁milli 1
DAY 1
LINE 1
oil 1
▁Hr 1
HAM 1
lsen 1
oris 1
▁Primer 1
▁Without 1
▁gor 1
Westfalen 1
idas 1
▁papil 1
▁wal 1
▁NOR 1
▁tp 1
brik 1
tach 1
tawa 1
▁Fai 1
sua 1
公主 1
central 1
valent 1
▁Antar 1
▁Toki 1
▁trick 1
ail 1
qe 1
▁Cottage 1
pare 1
qo 1
▁Breaking 1
▁Mihail 1
TIC 1
TTA 1
avat 1
▁Hoop 1
▁ping 1
SAS 1
onio 1
ssar 1
vro 1
▁Auch 1
▁Current 1
▁Product 1
▁Salih 1
▁char 1
▁ster 1
▁syn 1
EY 1
aglia 1
henti 1
same 1
spring 1
▁Hann 1
Next 1
TUS 1
cit 1
wein 1
▁Designer 1
▁Mehmet 1
▁Saturday 1
▁flam 1
IK 1
tempor 1
▁Meer 1
▁Provide 1
SQL 1
STE 1
▁Dalma 1
1-3 1
mple 1
ISU 1
ndar 1
trem 1
▁Aq 1
▁CAM 1
cido 1
letes 1
sugu 1
▁Combi 1
▁kilogram 1
▁Maybe 1
Business 1
ières 1
nomo 1
span 1
▁HAL 1
▁Kies 1
宗 1
Samsung 1
cko 1
iran 1
quette 1
sela 1
▁FPS 1
▁glo 1
▁Hakim 1
▁Monet 1
▁Mă 1
▁take 1
ICH 1
fice 1
ˈ 1
▁Arap 1
▁Bharat 1
▁Yap 1
▁trist 1
capa 1
eil 1
markt 1
vum 1
▁Prak 1
▁lab 1
3,000 1
KHA 1
aan 1
salam 1
▁Bianca 1
▁our 1
ffel 1
nato 1
script 1
▁Kuru 1
▁scut 1
isin 1
pres 1
qvist 1
sala 1
▁Dh 1
▁Oba 1
▁UR 1
WN 1
dhur 1
iska 1
step 1
▁10000 1
▁Freud 1
▁Intra 1
▁Samsun 1
▁viagra 1
bral 1
eling 1
ntis 1
▁Such 1
▁pounds 1
Fr 1
ection 1
goo 1
onda 1
ssing 1
▁Qar 1
▁metalli 1
▁ori 1
hrad 1
match 1
nami 1
▁Initiative 1
▁Masse 1
▁glan 1
Das 1
iglio 1
kart 1
kl 1
▁PAR 1
bele 1
▁Inde 1
ABU 1
WORLD 1
adu 1
dli 1
trice 1
vosti 1
▁there 1
1800 1
cours 1
▁Copy 1
▁Maribor 1
▁Willie 1
▁mollis 1
▁section 1
paper 1
nera 1
rido 1
trico 1
Ð 1
▁1⁄2 1
▁Yeşil 1
▁doc 1
▁sol 1
ingia 1
kyl 1
▁Taur 1
▁Use 1
ECA 1
isan 1
oğlu 1
palo 1
▁build 1
▁holo 1
Form 1
ckar 1
dop 1
metall 1
rti 1
▁Madde 1
▁Müller 1
▁talent 1
exp 1
eyn 1
idah 1
▁VG 1
▁ere 1
gener 1
▁Danish 1
▁NR 1
▁ms 1
shoot 1
▁Dane 1
▁João 1
▁Maksim 1
高 1
svet 1
▁Impuls 1
▁Skill 1
中 1
ghar 1
▁Bureau 1
▁pun 1
gelin 1
spon 1
▁PEN 1
Nav 1
▁18:30 1
▁Gazi 1
▁Gis 1
▁Scen 1
screen 1
▁Boga 1
▁Promo 1
▁Romani 1
▁pyl 1
AIR 1
itum 1
lular 1
zek 1
▁Lourdes 1
▁Nicolás 1
▁Yay 1
▁lucid 1
▁slow 1
EAN 1
aste 1
tale 1
▁Arif 1
▁Rede 1
▁Spor 1
▁Tattoo 1
▁max 1
▁repo 1
Press 1
tau 1
▁Druk 1
▁when 1
▁gre 1
市 1
Human 1
ird 1
▁Clima 1
▁Střed 1
▁volume 1
20,000 1
lust 1
▁Molt 1
▁people 1
3-5 1
zga 1
▁EMS 1
▁Harald 1
▁wi 1
bolo 1
cake 1
kasa 1
taş 1
▁Novell 1
▁Skar 1
▁Vogel 1
▁pru 1
iera 1
oče 1
pide 1
uş 1
▁(@ 1
dham 1
nty 1
▁Argi 1
▁Jord 1
▁Niedersachsen 1
-01- 1
ETH 1
Stop 1
fle 1
ncing 1
▁Babu 1
▁Eurovision 1
▁Timur 1
▁cash 1
▁service 1
▁vari 1
kja 1
vidi 1
▁Afganistan 1
▁Qara 1
▁Régi 1
pok 1
rta 1
а 1
▁Novel 1
▁Zapo 1
▁4500 1
▁Glau 1
▁Raza 1
▁bac 1
▁tampon 1
7,00 1
WT 1
halla 1
nod 1
▁(21) 1
▁1,000 1
teni 1
vera 1
▁Grub 1
▁Gwa 1
If 1
SPORT 1
center 1
lda 1
olon 1
xana 1
▁Circuit 1
▁Hala 1
▁Sme 1
▁CFR 1
▁Michelangelo 1
▁PAP 1
bedi 1
▁Kalyan 1
▁Partizan 1
▁Studies 1
▁Worm 1
▁lip 1
▁pay 1
culum 1
design 1
ujo 1
▁KOS 1
▁Lek 1
▁Spel 1
▁chic 1
▁theme 1
YK 1
hagen 1
magi 1
▁König 1
▁hep 1
inta 1
▁Brz 1
▁LEGO 1
Style 1
plas 1
ref 1
▁Padang 1
When 1
factor 1
fum 1
grave 1
werk 1
▁Eis 1
▁Maza 1
▁Padu 1
▁og 1
▁punk 1
▁via 1
onen 1
sos 1
teli 1
▁Argentin 1
▁Erzurum 1
▁Faiz 1
▁Gero 1
▁PHÁP 1
zada 1
▁Penal 1
▁Yani 1
▁bloc 1
▁bunga 1
gau 1
▁Chicken 1
▁Large 1
IUS 1
html 1
▁Bonif 1
▁Centenar 1
▁Mole 1
▁cum 1
▁gun 1
▁vie 1
See 1
▁Booking 1
▁Gossip 1
▁sig 1
UNA 1
jat 1
model 1
▁GMA 1
▁Loading 1
▁credit 1
▁hal 1
Center 1
rè 1
▁Vintage 1
▁sta 1
Continu 1
OR 1
anos 1
iselle 1
▁Aiz 1
Code 1
HID 1
NASDAQ 1
Off 1
racha 1
two 1
▁Dann 1
▁Çay 1
ROC 1
▁Arti 1
▁CSR 1
1234 1
area 1
centra 1
gget 1
nden 1
▁ADHD 1
▁Bigg 1
▁Kö 1
HAD 1
▁(* 1
▁Armi 1
▁Heim 1
▁Install 1
▁Oni 1
▁Passe 1
Uni 1
toon 1
▁Conti 1
▁Process 1
▁proc 1
LEG 1
UPA 1
alem 1
fos 1
kum 1
qan 1
wala 1
▁ul 1
BLA 1
UMP 1
hud 1
çe 1
▁Emir 1
▁humili 1
BRA 1
mission 1
quart 1
wagen 1
▁Patch 1
▁UL 1
atur 1
schul 1
éry 1
▁Kraj 1
▁lind 1
▁mexicana 1
giu 1
rci 1
xun 1
▁Kanna 1
▁Viz 1
:59 1
TIE 1
bash 1
iac 1
9000 1
Zu 1
rao 1
ALMA 1
EVA 1
kau 1
▁CHỦ 1
▁costa 1
Ale 1
CIE 1
▁IZ 1
▁WE 1
▁tal 1
PPA 1
stina 1
▁Limit 1
ishwa 1
loon 1
xes 1
▁2200 1
▁Agosti 1
▁Another 1
▁barang 1
▁crypto 1
▁BIG 1
▁Lips 1
eer 1
ksana 1
▁Huh 1
▁OL 1
DIN 1
IỄN 1
Microsoft 1
bate 1
tena 1
valo 1
ysa 1
▁Kula 1
alka 1
▁computer 1
▁king 1
dno 1
greg 1
pros 1
▁Litt 1
▁wide 1
ake 1
anak 1
cce 1
▁Bax 1
▁Boutique 1
▁Marianne 1
▁Vincenzo 1
Mind 1
hata 1
zni 1
▁Moja 1
▁Parti 1
TOR 1
domi 1
zky 1
nggu 1
α 1
▁Archive 1
▁Leave 1
rö 1
▁Ema 1
▁Niels 1
▁Ske 1
Bet 1
alli 1
cuta 1
▁Hij 1
▁Imran 1
▁Many 1
▁od 1
▁times 1
CER 1
ppar 1
▁Gómez 1
IMI 1
hind 1
meet 1
mén 1
runner 1
▁happy 1
hez 1
▁Breath 1
▁Infra 1
▁Yerevan 1
▁Zahra 1
▁[...] 1
IKI 1
cloud 1
finder 1
lings 1
▁Haraka 1
▁LINE 1
▁Restaurant 1
▁young 1
AJ 1
ELLE 1
bali 1
dda 1
kem 1
kép 1
▁Adana 1
▁Linn 1
▁gri 1
▁yard 1
UNE 1
▁Heer 1
▁latin 1
rija 1
ulla 1
▁biz 1
fc 1
▁Lulu 1
▁Tipp 1
▁beer 1
God 1
black 1
iol 1
leik 1
▁Cosmetic 1
▁ou 1
JN 1
arii 1
imp 1
issimum 1
izia 1
rilla 1
▁MỚI 1
▁Root 1
▁fibro 1
▁Euch 1
▁Konrad 1
▁Trav 1
▁sele 1
Amb 1
kao 1
▁PRI 1
Minu 1
[9] 1
hej 1
tuvan 1
▁2700 1
▁Selv 1
▁persi 1
boru 1
▁maz 1
孝 1
dak 1
lamp 1
▁Badi 1
▁Conserva 1
▁Itu 1
▁argi 1
▁tera 1
taki 1
▁Afri 1
4-5 1
asse 1
dite 1
dê 1
▁Bolo 1
▁Christo 1
▁Cita 1
▁July 1
FOR 1
ixin 1
▁OD 1
▁Sec 1
anno 1
ragu 1
▁HÀNG 1
▁NEM 1
▁Ranking 1
fors 1
grim 1
▁(22) 1
▁COR 1
▁through 1
IVE 1
Mat 1
lada 1
▁org 1
BOL 1
TIS 1
eza 1
sme 1
▁Prefer 1
MET 1
Travel 1
kowi 1
kumar 1
vora 1
yse 1
▁(= 1
▁Mikael 1
INS 1
lieb 1
panek 1
trage 1
▁Dú 1
▁Engels 1
▁MAR 1
▁Pend 1
▁tien 1
grat 1
▁Ges 1
▁Must 1
▁Silvestr 1
▁Sza 1
▁keto 1
▁minuta 1
terra 1
▁Luft 1
▁TAR 1
ambu 1
hammer 1
mbr 1
▁amo 1
▁id 1
▁public 1
:12 1
aji 1
ruga 1
torial 1
▁Eccles 1
▁Roj 1
▁Vet 1
▁Zil 1
▁years 1
pít 1
▁Maa 1
▁` 1
Image 1
Studi 1
brin 1
▁Apart 1
▁Catarina 1
▁Promotion 1
▁Solution 1
▁Susu 1
▁Mula 1
▁Tomasz 1
▁Training 1
▁mart 1
▁option 1
▁vinyl 1
dama 1
just 1
speed 1
tys 1
▁Arjun 1
▁Lü 1
三 1
SEN 1
UDI 1
bada 1
ual 1
č 1
▁Regional 1
▁Sof 1
▁Tato 1
▁Through 1
▁switch 1
▁Basi 1
▁Mais 1
▁Oskar 1
▁Rural 1
MPI 1
wid 1
− 1
▁Muta 1
▁Nils 1
▁Pulau 1
IRA 1
antic 1
cide 1
ruc 1
▁Frau 1
▁Haber 1
▁IMP 1
▁Taş 1
gyn 1
▁Shahid 1
cı 1
laug 1
▁DIN 1
▁Ghar 1
▁Kickstarter 1
rase 1
toe 1
▁Rescue 1
▁Safar 1
rke 1
▁Birthday 1
▁Sarajevo 1
仁 1
Block 1
ebb 1
include 1
lipo 1
paz 1
stand 1
▁Academic 1
▁DAS 1
▁Dhan 1
▁Noord 1
ūs 1
▁Latina 1
▁Sagar 1
▁SẢN 1
EMP 1
lb 1
thola 1
title 1
ı 1
▁Slut 1
▁WI 1
▁Ż 1
System 1
ropa 1
▁Cic 1
▁Styr 1
▁Veli 1
▁spu 1
田 1
edd 1
uncu 1
wasa 1
jie 1
▁Kada 1
▁Slip 1
▁Ulrich 1
▁here 1
▁rus 1
enden 1
gă 1
matica 1
tende 1
zda 1
zki 1
▁PSD 1
▁Ubisoft 1
▁quinque 1
-04- 1
madi 1
raud 1
sata 1
tui 1
▁Pode 1
▁last 1
和 1
Rhythm 1
rade 1
▁Lui 1
▁Surya 1
000000 1
Full 1
bolu 1
diya 1
gall 1
inius 1
▁Contr 1
▁Favorit 1
▁Juma 1
▁care 1
File 1
Matt 1
TIA 1
archi 1
cute 1
▁Cerc 1
▁Morten 1
Sub 1
asin 1
jack 1
peda 1
sav 1
▁Drie 1
▁Midtjylland 1
▁backup 1
▁coba 1
▁kn 1
india 1
tent 1
ulat 1
▁wood 1
Kor 1
dok 1
schreib 1
vec 1
österreich 1
▁Cocktail 1
▁KARA 1
▁MAG 1
▁Teacher 1
▁Tinder 1
BANG 1
Find 1
[15] 1
hran 1
kva 1
quier 1
▁Commission 1
ANO 1
Prov 1
drag 1
▁found 1
▁well 1
cred 1
thetha 1
venue 1
Maria 1
deal 1
estro 1
meister 1
▁Affairs 1
▁Communi 1
▁Database 1
▁Ons 1
▁quattro 1
Daniel 1
lona 1
panel 1
siya 1
▁Kaspar 1
▁apa 1
dija 1
fact 1
heil 1
journal 1
mination 1
▁Alu 1
▁Kalla 1
▁Organ 1
▁Pater 1
▁kra 1
ganda 1
heti 1
roso 1
tono 1
uomo 1
zero 1
» 1
▁Bolsonaro 1
▁Federal 1
▁Perform 1
▁pt 1
▁tron 1
OLO 1
astro 1
ecký 1
ungs 1
▁GEN 1
▁Lexi 1
▁Skip 1
▁boom 1
GY 1
UNI 1
icht 1
mok 1
oise 1
psu 1
▁Norbert 1
▁TRU 1
▁Toilet 1
▁fat 1
▁need 1
angle 1
mant 1
▁Banner 1
▁Bho 1
▁Minecraft 1
▁PAL 1
Arti 1
Kom 1
kio 1
usten 1
▁Gök 1
▁right 1
▁title 1
4,000 1
nih 1
ǎ 1
▁Kavi 1
▁Tres 1
▁lux 1
▁trendy 1
More 1
Project 1
uis 1
▁Very 1
▁platin 1
Cel 1
General 1
TIT 1
ço 1
▁Tudor 1
▁most 1
End 1
ambo 1
bier 1
▁rec 1
ESP 1
ETTE 1
amaz 1
esha 1
rako 1
sali 1
▁Consulta 1
▁Irfan 1
iani 1
▁Strom 1
▁bau 1
▁drive 1
CAM 1
gele 1
izing 1
▁Medium 1
▁ay 1
▁mel 1
君 1
mood 1
▁Arne 1
▁cry 1
afi 1
ofer 1
▁Dei 1
gada 1
imas 1
atan 1
bant 1
nnan 1
pensi 1
tka 1
▁Când 1
▁PAS 1
▁Plot 1
▁Què 1
▁Vide 1
▁cel 1
▁stella 1
lok 1
obra 1
rych 1
▁Afla 1
▁GST 1
▁Haku 1
▁Intre 1
▁ev 1
▁pá 1
Invest 1
ringen 1
tyr 1
uts 1
▁Pois 1
▁Yet 1
sif 1
ukka 1
çi 1
▁elast 1
▁pet 1
▁sales 1
▁screen 1
:03 1
Rad 1
dane 1
erto 1
▁11:30 1
▁Galleri 1
▁Platon 1
▁súa 1
▁€ 1
gier 1
nggang 1
public 1
szcza 1
verat 1
▁Babe 1
▁Kristian 1
▁hook 1
▁margar 1
▁slip 1
wed 1
▁Fél 1
▁SHA 1
0001 1
dalen 1
eiros 1
ffar 1
zum 1
▁Damen 1
▁Seif 1
▁eta 1
▁fum 1
▁vis 1
clear 1
kre 1
mud 1
▁$3 1
▁Foto 1
▁Retro 1
▁invert 1
Map 1
inat 1
ková 1
storm 1
ü 1
▁XML 1
▁pasta 1
elect 1
▁Yadav 1
alp 1
kula 1
ranno 1
▁Bö 1
▁Nei 1
alin 1
cava 1
heb 1
uje 1
vino 1
▁BAT 1
▁Legion 1
▁Vig 1
▁bru 1
▁parallel 1
▁zi 1
▁MAT 1
▁chy 1
▁cupcake 1
▁port 1
▁tech 1
Emp 1
monte 1
tut 1
uus 1
▁Intelligent 1
2-0 1
▁Esper 1
▁Nazi 1
▁Oi 1
khwa 1
multi 1
sphere 1
zko 1
łow 1
▁Krista 1
▁Memori 1
▁Remove 1
▁away 1
▁spar 1
alt 1
ères 1
▁hub 1
:01 1
bruk 1
gé 1
hawa 1
ndu 1
▁978- 1
▁Hakan 1
▁Maja 1
▁Panga 1
▁kera 1
▁suite 1
isu 1
lement 1
ře 1
spil 1
▁Erde 1
▁Mö 1
▁ich 1
▁natal 1
OPS 1
iams 1
iem 1
linder 1
selt 1
▁Bhi 1
▁PES 1
▁Pour 1
▁hosting 1
Prim 1
erat 1
▁Blom 1
▁Iba 1
▁virgin 1
americana 1
dami 1
veta 1
▁Giv 1
▁Nuk 1
▁guide 1
▁small 1
Tim 1
attu 1
bling 1
iar 1
lgan 1
matu 1
usu 1
▁Emo 1
▁Register 1
▁Wet 1
TAI 1
reak 1
▁Bilal 1
▁cle 1
▁sac 1
EEN 1
▁Budi 1
▁Nuevo 1
▁cep 1
▁twin 1
Health 1
bato 1
tinga 1
ulet 1
▁Tesco 1
▁Yeh 1
Pil 1
gama 1
minut 1
uerit 1
zaro 1
▁Div 1
▁Kuna 1
▁Montessori 1
▁SUN 1
▁octo 1
▁paradox 1
。 1
CID 1
OUR 1
ffor 1
laan 1
▁Ferenc 1
▁Insurance 1
▁Surat 1
▁Ö 1
:02 1
ORA 1
SET 1
aus 1
ić 1
▁dei 1
▁testa 1
till 1
wehr 1
▁FR 1
▁Polis 1
▁VISA 1
▁diversi 1
TION 1
rob 1
▁Odisha 1
▁compost 1
▁entry 1
nir 1
ntul 1
}} 1
▁Balıkesir 1
▁Klang 1
▁croc 1
▁folder 1
IND 1
chasi 1
kowo 1
rsat 1
zas 1
▁América 1
▁Botanic 1
▁Sett 1
▁són 1
▁ên 1
America 1
Audi 1
▁Guia 1
▁rip 1
habi 1
ombe 1
▁Rink 1
0) 1
alum 1
▁Success 1
▁delicat 1
▁mich 1
▁spaghetti 1
▁Edel 1
▁Faj 1
▁Wednesday 1
▁bore 1
▁telenovel 1
OY 1
VIT 1
change 1
cza 1
▁Darmstadt 1
▁GU 1
▁cinn 1
OUT 1
alto 1
pinna 1
white 1
▁Fier 1
▁Mathias 1
▁Tanjung 1
▁content 1
▁trump 1
NIM 1
▁Adem 1
▁FTP 1
▁Glob 1
▁Haag 1
▁Slov 1
道 1
:11 1
BET 1
ITY 1
▁Exclusive 1
▁Slovak 1
▁brown 1
chas 1
erte 1
▁Once 1
▁enzim 1
GON 1
dono 1
elmi 1
ndre 1
tusi 1
▁Sonntag 1
▁Verk 1
▁ani 1
▁medio 1
AW 1
Bio 1
RIT 1
TOM 1
frica 1
metro 1
order 1
zini 1
▁fem 1
▁pli 1
imba 1
ovali 1
weise 1
▁Bashk 1
▁Mersin 1
gress 1
iques 1
ivit 1
lisa 1
pah 1
reti 1
▁Soci 1
▁extension 1
END 1
bib 1
culo 1
▁INC 1
▁act 1
▁dont 1
kind 1
▁kids 1
Pir 1
boom 1
catur 1
heit 1
ities 1
kro 1
melo 1
rios 1
▁Gastro 1
▁Phase 1
▁Barbosa 1
▁bez 1
silo 1
wka 1
▁Destina 1
▁FIT 1
▁Kenyatta 1
▁sound 1
milli 1
▁Két 1
▁Scientific 1
bf 1
boni 1
zul 1
▁Kemal 1
▁Prze 1
Design 1
Poli 1
tivo 1
▁Nato 1
▁Risk 1
▁Und 1
▁military 1
burger 1
ollywood 1
peli 1
▁wax 1
:06 1
lanka 1
stol 1
▁(23) 1
▁Andersson 1
▁Denn 1
▁Mele 1
▁Utili 1
▁index 1
ル 1
1300 1
rava 1
▁Putra 1
▁Zanzibar 1
▁award 1
▁never 1
▁scho 1
▁Bundes 1
▁bet 1
▁granul 1
10.2012 1
div 1
gp 1
gü 1
ivi 1
juk 1
local 1
▁Punta 1
ANNA 1
LIA 1
berri 1
dán 1
elas 1
ups 1
ustus 1
▁Volta 1
▁serra 1
LINK 1
dır 1
istu 1
▁Ehren 1
▁Kett 1
▁Myth 1
▁Norma 1
▁Uno 1
▁double 1
▁pani 1
wini 1
▁Deci 1
▁deci 1
bka 1
econom 1
google 1
lage 1
tato 1
vella 1
▁Follow 1
▁Primul 1
▁Traffic 1
▁catalogue 1
▁ski 1
gend 1
mpf 1
▁PDV 1
ALI 1
beg 1
kil 1
▁Numa 1
▁lead 1
pele 1
rth 1
tsi 1
▁Episode 1
▁Kemer 1
ffo 1
▁Spon 1
▁Vah 1
▁lobby 1
DIA 1
GRI 1
NGO 1
geli 1
irt 1
ritu 1
▁EH 1
▁Kedah 1
▁Már 1
▁Valent 1
▁blu 1
▁desert 1
▁hyd 1
RUS 1
based 1
hti 1
rizo 1
sels 1
▁Botox 1
▁Italian 1
▁Kort 1
▁Rast 1
blon 1
report 1
▁Targ 1
▁cinc 1
▁ind 1
nist 1
tual 1
zik 1
▁SVT 1
▁[3 1
maso 1
rka 1
shni 1
▁Vesel 1
▁week 1
Kir 1
dade 1
duo 1
Ỡ 1
▁currently 1
LTE 1
ZU 1
dau 1
gino 1
gitt 1
nav 1
▁Eta 1
▁Tira 1
KAI 1
Search 1
müş 1
ndal 1
ovice 1
patu 1
rigo 1
visión 1
▁Adult 1
▁Growth 1
▁NEW 1
▁Prasad 1
▁cs 1
QU 1
activ 1
dano 1
▁APK 1
▁Horror 1
▁Karol 1
海 1
西 1
長 1
kale 1
ków 1
talan 1
tube 1
ć 1
▁Geb 1
▁RU 1
▁decor 1
▁ger 1
▁ina 1
▁oc 1
PDF 1
čina 1
▁Filter 1
▁Hercegovina 1
▁Pozna 1
▁must 1
mbol 1
papa 1
tegia 1
zos 1
▁Deck 1
▁Maggio 1
ape 1
bond 1
brow 1
ded 1
elve 1
vist 1
yaka 1
▁14:30 1
▁Estrada 1
▁HIS 1
▁Š 1
celer 1
zina 1
▁Kapoor 1
▁reduc 1
ANI 1
Mate 1
huma 1
maran 1
▁07:30 1
▁Aşağı 1
▁Convention 1
▁cook 1
▁fragil 1
leti 1
pek 1
torium 1
vall 1
▁Sint 1
▁classic 1
▁mind 1
▁script 1
▁Å 1
ells 1
kens 1
stem 1
▁Paypal 1
▁smar 1
▁tube 1
宮 1
capital 1
ndus 1
▁Unicode 1
▁Yog 1
▁bookmark 1
Non 1
rota 1
▁Helle 1
▁Seu 1
1111 1
alu 1
lichen 1
ığ 1
▁pot 1
▁Gdańsk 1
▁arbor 1
▁fre 1
▁rost 1
陳 1
iru 1
tid 1
tsy 1
▁Nasa 1
BAT 1
ival 1
kera 1
lazi 1
nl 1
▁Frederik 1
▁trươ 1
▁word 1
martin 1
prost 1
veli 1
volta 1
▁Begin 1
WAR 1
ratu 1
stress 1
▁Fond 1
▁old 1
Sie 1
ahin 1
gura 1
xio 1
▁Divi 1
▁Fantas 1
▁Krem 1
▁Mercado 1
▁Nagy 1
▁pinna 1
▁spl 1
jel 1
magazin 1
onate 1
▁Akan 1
▁Magda 1
▁four 1
▁rain 1
▁vit 1
原 1
blu 1
heni 1
stron 1
▁Dato 1
▁Kone 1
▁building 1
-05- 1
WAS 1
cd 1
hely 1
zabal 1
▁Article 1
▁Merci 1
▁Federation 1
▁Tapa 1
▁violet 1
ERC 1
ONS 1
Stand 1
Tag 1
aron 1
▁Jardim 1
▁Pump 1
▁falla 1
▁fr 1
▁simula 1
▁south 1
raba 1
rep 1
▁Lois 1
▁between 1
ules 1
ñ 1
▁Disa 1
▁EK 1
▁Lieb 1
KW 1
chir 1
gging 1
roman 1
▁Boulevard 1
▁Yogyakarta 1
▁jun 1
▁Św 1
Dec 1
interes 1
toa 1
▁Luxemburg 1
▁Topic 1
▁Trabzon 1
▁joh 1
▁mark 1
▁oo 1
▁tria 1
MBA 1
OVI 1
arri 1
blue 1
even 1
jol 1
tionis 1
yta 1
▁armat 1
▁step 1
forum 1
köp 1
▁10:30 1
▁Aydın 1
▁Weight 1
▁têm 1
[11] 1
▁Ponta 1
▁iu 1
▁oil 1
:09 1
ZA 1
athu 1
avana 1
fix 1
heart 1
lipa 1
skat 1
urre 1
▁Psycholog 1
▁Qay 1
▁channel 1
▁Petrus 1
▁files 1
▁fish 1
▁variabil 1
▁Ángel 1
SSR 1
ahir 1
buka 1
cool 1
isho 1
racia 1
ς 1
▁Gór 1
▁Kosta 1
▁Lond 1
▁Quality 1
▁cheese 1
XXX 1
chick 1
foss 1
gave 1
hild 1
mog 1
stru 1
▁Córdoba 1
▁Dosto 1
▁Qual 1
▁social 1
rende 1
seg 1
ɪ 1
▁Arre 1
▁Deo 1
▁Export 1
▁Hafiz 1
▁Raspberry 1
▁SMART 1
▁nươ 1
fant 1
ibus 1
▁Gelo 1
▁Hada 1
▁Loop 1
▁hero 1
▁sapien 1
hesab 1
▁Asif 1
▁Bav 1
▁Bü 1
▁Pest 1
▁bella 1
▁soup 1
brok 1
pain 1
▁edition 1
▁leader 1
Secret 1
eń 1
lase 1
struct 1
tamina 1
▁Stanisław 1
▁baro 1
▁twee 1
indra 1
nello 1
statt 1
▁Something 1
▁Tant 1
▁Workshop 1
▁million 1
▁nin 1
江 1
[12] 1
eso 1
timer 1
▁Skor 1
▁Weekend 1
:08 1
bito 1
hada 1
nana 1
▁Anima 1
▁Banco 1
▁ut 1
gnu 1
inio 1
joh 1
pito 1
▁BBM 1
▁dra 1
▁mir 1
▁rad 1
▁report 1
Hey 1
oner 1
rance 1
sual 1
▁Berri 1
▁Jakub 1
▁Jubil 1
▁Medan 1
▁mine 1
▁minima 1
▁stand 1
Speed 1
VOR 1
bore 1
kuk 1
torio 1
istus 1
posi 1
éré 1
▁BNG 1
▁Domain 1
▁kill 1
昭 1
MON 1
fog 1
▁Duna 1
▁Jaipur 1
▁stati 1
TOL 1
player 1
shit 1
▁Colour 1
▁Jalan 1
▁NFL 1
▁Strategi 1
▁Trag 1
▁Treasure 1
▁cloud 1
▁shan 1
CEL 1
iju 1
vate 1
width 1
yh 1
▁Repubblica 1
▁Shafi 1
▁atra 1
▁recu 1
estero 1
moda 1
nding 1
peti 1
ukai 1
zou 1
▁Azad 1
▁Ero 1
▁arc 1
Tal 1
hash 1
lapse 1
élé 1
▁Blanca 1
▁Diyarbakır 1
▁Fonda 1
▁Ibu 1
▁Kasu 1
▁before 1
TSI 1
ři 1
▁Aslan 1
▁corda 1
▁family 1
CIN 1
pilot 1
solve 1
▁Fail 1
▁Morgen 1
▁colo 1
▁sie 1
親 1
German 1
ONO 1
edici 1
http 1
ober 1
umu 1
▁andro 1
:17 1
OGA 1
oren 1
▁Baga 1
Vel 1
cert 1
irat 1
▁Blend 1
▁Nasi 1
▁Sampai 1
▁crack 1
▁machine 1
Thomas 1
badan 1
ganj 1
guen 1
vite 1
▁Nothing 1
▁alde 1
▁domain 1
▁factor 1
ağa 1
fag 1
tile 1
▁Gür 1
▁TNI 1
し 1
!), 1
Special 1
▁(25) 1
▁APA 1
▁Exam 1
▁movie 1
▁record 1
iyat 1
neb 1
xar 1
▁Aprili 1
▁Loca 1
▁Lugo 1
▁health 1
▁podcast 1
Berlin 1
hail 1
iling 1
oci 1
ogi 1
palle 1
▁NGHIỆP 1
▁Woll 1
▁deal 1
▁quadra 1
6,000 1
:04 1
LIM 1
erer 1
szcze 1
édi 1
▁Vrij 1
▁Wada 1
▁como 1
DVD 1
kup 1
▁dy 1
▁mentor 1
▁rat 1
EAR 1
UCI 1
arreta 1
comp 1
eret 1
ruti 1
▁Garcinia 1
▁Municipal 1
▁distinct 1
EH 1
ELL 1
gung 1
lister 1
saba 1
▁Buena 1
▁Guest 1
▁colla 1
▁gut 1
▁task 1
asti 1
digital 1
iyang 1
remont 1
reta 1
veda 1
▁Guara 1
▁global 1
光 1
aban 1
stant 1
▁Integra 1
▁Panta 1
郡 1
== 1
goda 1
hele 1
ibu 1
irse 1
pê 1
thé 1
tkin 1
▁Infos 1
▁Japon 1
▁Perak 1
▁Vario 1
AAR 1
abay 1
guera 1
hh 1
limo 1
wiec 1
▁Carte 1
▁ESC 1
▁Iskandar 1
▁Ova 1
▁Pueblo 1
▁soundtrack 1
上 1
cense 1
hormon 1
inte 1
lesi 1
Ras 1
Tie 1
WL 1
ility 1
jum 1
shta 1
▁Horizonte 1
▁gl 1
▁pau 1
9,000 1
fill 1
godi 1
lho 1
lif 1
če 1
▁Plug 1
▁Thank 1
▁hau 1
▁trop 1
張 1
:07 1
▁MMORPG 1
▁Pasi 1
▁Speech 1
ciu 1
▁Donc 1
▁Nueva 1
▁OT 1
▁bilir 1
CET 1
GER 1
amor 1
pair 1
▁Patro 1
▁Unter 1
▁mexi 1
▁schi 1
0.01 1
Toyota 1
lew 1
zna 1
▁MMC 1
▁Weil 1
bare 1
gem 1
lare 1
BIN 1
Oct 1
logist 1
pom 1
▁Greek 1
▁Virtu 1
belt 1
bez 1
▁Witte 1
▁rota 1
▁vulgar 1
♪ 1
HUB 1
cón 1
loha 1
ž 1
▁hidro 1
▁magnific 1
▁tibi 1
devi 1
kovski 1
▁(24) 1
▁use 1
cf 1
fier 1
hiye 1
monta 1
oppa 1
sens 1
ık 1
▁Comedy 1
▁LIVE 1
▁central 1
angi 1
dde 1
yya 1
▁Arme 1
▁Medal 1
nul 1
urban 1
▁SAV 1
▁condensa 1
▁three 1
:42 1
LAR 1
planet 1
sade 1
▁Kodi 1
▁Teheran 1
▁ud 1
vri 1
▁Barat 1
▁Bosh 1
▁Cricket 1
▁Item 1
▁Palazzo 1
▁Süd 1
ス 1
:19 1
arda 1
polo 1
▁Leit 1
▁Muslim 1
▁Plzeň 1
▁drap 1
▁eva 1
▁friend 1
馬 1
Amour 1
CHE 1
shad 1
▁dal 1
JO 1
YAN 1
jp 1
tud 1
▁CRIS 1
▁Soviet 1
▁area 1
▁far 1
Ak 1
PIN 1
iat 1
kung 1
puccino 1
帝 1
:32 1
impl 1
jak 1
nado 1
ovna 1
pice 1
▁Orta 1
▁Pré 1
▁launch 1
▁tree 1
istri 1
pour 1
shon 1
▁Brno 1
▁Justicia 1
aring 1
itel 1
lanti 1
ngkong 1
riti 1
ssé 1
uj 1
▁Nika 1
▁serial 1
:38 1
jai 1
▁Chili 1
▁Llan 1
▁Puc 1
▁Rua 1
▁history 1
神 1
fte 1
ération 1
▁Niall 1
▁Zoran 1
▁lor 1
:14 1
hallen 1
lui 1
ntu 1
ramos 1
▁Alegre 1
▁Fug 1
▁Kamar 1
▁interrupt 1
:16 1
moli 1
tje 1
upi 1
upload 1
▁funk 1
super 1
vala 1
▁Deg 1
▁Otel 1
▁Prakash 1
With 1
bern 1
gey 1
paro 1
rf 1
ubo 1
vaz 1
▁1+1 1
▁Cosa 1
▁ring 1
:18 1
:33 1
Biz 1
ż 1
▁blo 1
▁bri 1
MENA 1
arma 1
pori 1
worm 1
▁Karta 1
▁pili 1
▁shin 1
河 1
Natur 1
TOP 1
bug 1
deg 1
ría 1
▁Asturias 1
▁dl 1
▁seal 1
▁some 1
:13 1
Jes 1
LAP 1
Ok 1
That 1
ansa 1
entes 1
née 1
ollo 1
rawat 1
rén 1
▁colli 1
▁ending 1
TIM 1
cipit 1
irano 1
robe 1
ği 1
▁Laboratori 1
▁Upload 1
▁andre 1
▁arena 1
▁tener 1
1/ 1
PTA 1
zama 1
▁Mér 1
▁Renaissance 1
▁Sath 1
▁bou 1
▁okay 1
angka 1
kler 1
lc 1
ÍN 1
ül 1
▁Pussy 1
▁RFE 1
▁images 1
▁luz 1
▁zone 1
From 1
▁+7 1
▁3:1 1
▁Balti 1
▁Buhari 1
atori 1
platz 1
rda 1
unge 1
vasta 1
wordpress 1
▁Schau 1
▁nor 1
500,000 1
bamba 1
camera 1
ești 1
stans 1
station 1
▁BAR 1
▁peta 1
▁porter 1
▁selle 1
UTC 1
beni 1
doma 1
zab 1
▁Lakshmi 1
▁Ljub 1
▁Wasser 1
▁volt 1
CSS 1
duction 1
niz 1
nr 1
plasma 1
ribu 1
source 1
tli 1
uwen 1
vela 1
▁Carrefour 1
▁Libra 1
▁Shko 1
▁salsa 1
BLUE 1
POL 1
meg 1
▁Arabi 1
▁Josip 1
▁Pien 1
▁Potom 1
▁very 1
:36 1
ORD 1
adura 1
driv 1
esen 1
look 1
yap 1
▁Rö 1
▁confession 1
▁signat 1
▁sua 1
lık 1
▁Oma 1
▁Porta 1
▁Zürich 1
▁fitness 1
▁gin 1
▁hil 1
axe 1
bura 1
ibles 1
▁Krat 1
▁Person 1
▁ging 1
▁integr 1
▁kas 1
hte 1
ptica 1
▁Vader 1
新 1
8,000 1
CZ 1
Journal 1
epe 1
kad 1
xeta 1
▁GTA 1
▁Sandal 1
ZI 1
alach 1
fond 1
gola 1
shish 1
úl 1
▁December 1
▁Groß 1
▁Lubi 1
▁Uppsala 1
▁gem 1
▁ry 1
ADH 1
dici 1
layan 1
xir 1
▁Cea 1
▁WordPress 1
▁seo 1
:37 1
TEA 1
buru 1
ddar 1
italia 1
▁Minu 1
▁kur 1
:44 1
atay 1
lula 1
solution 1
▁HEL 1
▁value 1
:53 1
math 1
tulo 1
▁Lue 1
▁Zeland 1
▁Ziel 1
▁pool 1
▁today 1
cado 1
ffet 1
ionis 1
olan 1
▁versi 1
ZS 1
bide 1
gazi 1
shak 1
È 1
▁Bachelor 1
▁Fé 1
▁configure 1
NAD 1
hore 1
inc 1
zane 1
▁Arriva 1
▁Krom 1
▁geni 1
▁hell 1
▁pour 1
analys 1
casa 1
chou 1
lil 1
pasi 1
yey 1
▁Asad 1
▁contact 1
▁harmoni 1
▁kin 1
▁little 1
DZ 1
MAIL 1
pped 1
▁Anar 1
▁Canaria 1
▁Rabb 1
▁aby 1
▁chal 1
▁obo 1
lasse 1
oak 1
▁Kannada 1
▁Tempo 1
▁pad 1
▁unit 1
TEAM 1
guzi 1
tsiya 1
▁Menge 1
▁Ramón 1
▁Reddy 1
▁keta 1
▁vesti 1
dense 1
hotel 1
kkonen 1
lét 1
▁Wrocław 1
▁YOU 1
▁alternative 1
▁bando 1
▁find 1
▁tram 1
6-7 1
Mb 1
Test 1
fine 1
pomorskie 1
▁Ampli 1
▁Ağrı 1
▁Kongo 1
▁currency 1
▁minutu 1
▁pata 1
IGO 1
ief 1
tourism 1
▁Abs 1
▁always 1
▁delta 1
▁mach 1
成 1
gine 1
hlav 1
▁Ordu 1
▁costat 1
▁ker 1
▁neuro 1
▁slot 1
み 1
mano 1
ysis 1
▁Drift 1
▁Muhammed 1
▁Sv 1
▁Tod 1
▁Trabzonspor 1
▁alle 1
PAL 1
direct 1
pje 1
pone 1
viy 1
▁19:30 1
▁Kwe 1
▁Lumin 1
▁Pasqua 1
▁TAL 1
▁Thread 1
▁ag 1
▁heavy 1
KU 1
joy 1
él 1
▁Dach 1
▁Familia 1
▁Heide 1
▁Merdeka 1
▁Playstation 1
▁limba 1
福 1
plet 1
sorti 1
upa 1
yos 1
▁FUN 1
▁Recon 1
cã 1
trud 1
▁vina 1
陵 1
ayu 1
sourcing 1
veiro 1
zung 1
受 1
▁Bitte 1
▁Mexican 1
▁Vec 1
▁tõ 1
7.00 1
dant 1
itse 1
mpu 1
sker 1
▁Greenpeace 1
▁Practic 1
▁cop 1
▁rugby 1
一 1
1400 1
:52 1
GAT 1
styr 1
▁Client 1
▁Parallel 1
▁Pub 1
▁Webcam 1
▁future 1
▁negle 1
▁scor 1
▁tart 1
amas 1
america 1
argent 1
arta 1
hamn 1
logic 1
vou 1
▁November 1
▁Shenzhen 1
▁mam 1
▁synonym 1
evento 1
gib 1
gulat 1
oby 1
oms 1
seen 1
▁VU 1
▁candida 1
▁things 1
▁trap 1
ん 1
산 1
Bundes 1
ient 1
maan 1
mete 1
▁Committee 1
▁Putrajaya 1
ARI 1
NAR 1
▁Poznań 1
▁chap 1
▁compa 1
▁crush 1
▁til 1
侯 1
akin 1
▁Raha 1
▁pir 1
▁sweat 1
Est 1
dido 1
ksyon 1
leben 1
ème 1
▁Atelier 1
▁Maastricht 1
▁Prag 1
▁arcu 1
▁cookies 1
▁impress 1
▁ALT 1
▁Abba 1
▁Qe 1
▁Tv 1
▁rosa 1
花 1
2,000 1
atio 1
stur 1
▁Aha 1
▁October 1
▁action 1
▁barbat 1
▁viral 1
2,50 1
amar 1
jam 1
trol 1
xal 1
▁Düz 1
▁Poland 1
▁Raya 1
▁Scene 1
▁pero 1
IRE 1
MUS 1
Svobod 1
anu 1
deck 1
lih 1
▁BJP 1
▁Luki 1
▁Pita 1
▁RH 1
▁Regula 1
▁geo 1
Alba 1
UBE 1
tib 1
uara 1
uw 1
▁capita 1
▁motion 1
andre 1
▁Slobo 1
▁Thermo 1
▁haute 1
▁Blok 1
▁Fet 1
▁RTL 1
▁SIA 1
:31 1
DIO 1
biti 1
liche 1
rank 1
▁Moj 1
▁Nov 1
Esp 1
Quest 1
kang 1
▁Erd 1
▁Fare 1
▁Gül 1
▁Lö 1
▁Srinivas 1
▁goal 1
:22 1
▁Figur 1
▁ele 1
:49 1
chte 1
dav 1
grade 1
ometr 1
uwa 1
vald 1
ák 1
▁(27) 1
▁21:30 1
▁Complete 1
▁Esto 1
▁Verme 1
▁calca 1
▁metres 1
▁simplici 1
林 1
onas 1
tweet 1
▁Fredrik 1
▁Present 1
▁hotel 1
▁layout 1
brze 1
gant 1
rette 1
scheid 1
▁Sinu 1
▁aqua 1
▁lave 1
DEF 1
Galaxy 1
INO 1
rêp 1
▁Prior 1
▁front 1
30,000 1
:21 1
AVE 1
UAN 1
mell 1
▁Inf 1
▁Köln 1
▁Mineral 1
▁luci 1
▁where 1
flow 1
nita 1
tici 1
ére 1
▁cola 1
▁late 1
▁meridional 1
▁pla 1
Alt 1
GUE 1
Wer 1
▁Lifestyle 1
▁Zeit 1
▁creati 1
▁gradi 1
▁moc 1
:48 1
bergen 1
liz 1
rmi 1
yy 1
▁Cultural 1
▁Movement 1
▁Princip 1
▁girls 1
ANC 1
Tool 1
Um 1
▁Government 1
▁Publisher 1
▁Sulaiman 1
▁Tariq 1
▁koi 1
▁rib 1
▁still 1
:28 1
:58 1
ONA 1
fjord 1
inchi 1
lte 1
md 1
▁lig 1
▁range 1
Azur 1
atul 1
follow 1
▁Md 1
▁Mida 1
▁Teri 1
▁android 1
herr 1
▁Debe 1
▁Leia 1
▁MIK 1
▁limon 1
永 1
OME 1
[13] 1
gud 1
kreis 1
tiya 1
tunt 1
▁Bogu 1
▁Ew 1
▁Haq 1
Nar 1
fru 1
hug 1
llu 1
nale 1
nyt 1
rza 1
yazı 1
▁15:30 1
▁Ege 1
▁Nama 1
▁Pahang 1
▁Relation 1
▁Sancti 1
▁Sanjay 1
▁ari 1
▁filter 1
▁said 1
VOD 1
alai 1
folio 1
mee 1
nok 1
toko 1
▁Hacı 1
▁Release 1
▁Visit 1
▁would 1
▁zir 1
LIT 1
LUS 1
kse 1
kuri 1
llari 1
lul 1
▁Sofa 1
▁Verdi 1
水 1
:27 1
erant 1
iPad 1
rabia 1
shay 1
▁17:30 1
▁Bahar 1
▁Deutschland 1
▁Garmin 1
▁Ukrain 1
▁park 1
ORE 1
invest 1
laza 1
metal 1
▁Dho 1
▁Hér 1
▁Jau 1
▁Jest 1
▁SEP 1
▁taka 1
Bil 1
HIN 1
centi 1
gah 1
lgi 1
▁Antón 1
▁Dictionary 1
▁Sept 1
▁stock 1
▁Álvaro 1
CEN 1
carna 1
dessus 1
guli 1
kien 1
oire 1
▁Buddha 1
▁DỤNG 1
▁fel 1
▁lade 1
Demo 1
Om 1
rasa 1
sze 1
telo 1
▁Alber 1
▁Portugal 1
▁catalog 1
▁ever 1
▁woman 1
matta 1
mpang 1
plug 1
stige 1
▁Oer 1
▁Statist 1
▁allo 1
▁aus 1
▁local 1
STER 1
erade 1
safe 1
özü 1
▁Reason 1
▁These 1
▁field 1
▁peti 1
▁push 1
nnen 1
pm 1
uden 1
urra 1
▁CCM 1
▁Giresun 1
▁Gé 1
▁Knut 1
▁angol 1
▁mara 1
rapat 1
vv 1
▁Kalam 1
▁Later 1
▁Leadership 1
▁Todo 1
▁ble 1
▁swing 1
:54 1
pell 1
▁Karimov 1
▁league 1
blas 1
krati 1
pach 1
that 1
▁16:30 1
▁Fahr 1
▁Telekom 1
▁gé 1
▁kami 1
▁mori 1
Click 1
Patri 1
[14] 1
▁Bazar 1
▁Fisch 1
▁Selim 1
CRA 1
Control 1
Page 1
liza 1
pere 1
▁Meeting 1
TTI 1
insa 1
thema 1
▁Diamant 1
▁bunge 1
▁hry 1
▁pac 1
聖 1
ADO 1
LOC 1
amos 1
brig 1
dv 1
▁Guarda 1
▁Mater 1
▁Qab 1
:34 1
:46 1
prat 1
tott 1
yv 1
▁Geri 1
▁OFF 1
▁İzmir 1
阮 1
hok 1
mpar 1
termin 1
website 1
▁Economy 1
▁Prac 1
▁Quel 1
▁bry 1
▁speed 1
FIN 1
® 1
▁Estudi 1
▁Hapa 1
▁kir 1
JET 1
nbsp 1
pendi 1
éra 1
▁Simba 1
▁render 1
Orient 1
odu 1
stos 1
sé 1
tram 1
ums 1
vc 1
′′ 1
▁Janne 1
▁Kristo 1
▁macar 1
▁sinua 1
duce 1
nag 1
nike 1
wet 1
▁Dzi 1
▁Narayan 1
▁TAB 1
▁cun 1
▁half 1
▁lien 1
Aus 1
▁Fy 1
▁Pinang 1
▁Sensor 1
▁Wert 1
▁dark 1
nze 1
qay 1
rde 1
rile 1
▁Iqbal 1
▁Krieg 1
▁tips 1
▁Çanakkale 1
YR 1
argi 1
fug 1
root 1
utan 1
▁BLACK 1
▁Selle 1
▁science 1
CHO 1
ILL 1
griff 1
ises 1
▁Lees 1
▁YA 1
▁mye 1
csi 1
diye 1
pression 1
puk 1
rinda 1
stille 1
▁Fren 1
▁Öz 1
:29 1
RIN 1
lando 1
male 1
masi 1
▁Equip 1
▁Sku 1
▁natural 1
cias 1
gels 1
heter 1
qin 1
zed 1
▁Hra 1
▁Province 1
▁Vella 1
deki 1
tado 1
▁(0) 1
▁(28) 1
▁Oder 1
▁PYD 1
▁ara 1
▁nota 1
木 1
.12.2018 1
menu 1
▁DES 1
There 1
centrum 1
levi 1
nnar 1
unting 1
▁Dhu 1
▁Józef 1
▁Rayon 1
▁spy 1
lko 1
oja 1
oral 1
orto 1
pada 1
phele 1
▁Kine 1
▁bill 1
▁ceramic 1
▁Battlefield 1
▁Groningen 1
▁Option 1
▁Pada 1
▁Stud 1
▁island 1
▁national 1
司 1
cp 1
ırı 1
▁BIO 1
▁Nerv 1
▁exp 1
陽 1
:47 1
glass 1
hesh 1
ppet 1
tav 1
zno 1
▁(26) 1
▁Coraz 1
▁Energi 1
▁Monument 1
▁cruci 1
▁death 1
▁product 1
▁una 1
RAI 1
find 1
spr 1
▁Alternative 1
▁Hoog 1
▁Merk 1
▁Schön 1
▁Venez 1
▁prin 1
:26 1
cked 1
ezi 1
haf 1
hagi 1
hew 1
hoek 1
▁Lublin 1
▁Vuo 1
▁language 1
▁sector 1
女 1
正 1
DAV 1
gott 1
hell 1
mandi 1
pion 1
rca 1
voz 1
▁agency 1
▁pole 1
▁state 1
izi 1
ńska 1
▁Administration 1
▁Bhag 1
▁Landes 1
▁Ludovic 1
▁Manau 1
▁Olomouc 1
▁Sadiq 1
▁Torrent 1
▁Translation 1
▁gli 1
▁schw 1
▁torrent 1
▁trading 1
Script 1
espera 1
minum 1
mn 1
position 1
tame 1
▁Cabe 1
▁Issue 1
▁Musi 1
▁Pela 1
:24 1
Imp 1
List 1
YY 1
aff 1
gies 1
sque 1
trina 1
▁Grau 1
▁HERE 1
▁tara 1
白 1
keria 1
sí 1
tanya 1
▁sopra 1
▁visit 1
August 1
huri 1
ssem 1
▁Blumen 1
▁Drug 1
▁ETA 1
▁Jadi 1
▁access 1
tere 1
▁Abubakar 1
▁Environmental 1
▁Firenze 1
▁Folk 1
▁Nema 1
▁Pedersen 1
▁ade 1
▁days 1
▁inte 1
datum 1
lainen 1
lg 1
▁22:30 1
▁Aar 1
▁Dans 1
▁propi 1
Ek 1
FAN 1
amara 1
bord 1
cour 1
ensi 1
manda 1
nelle 1
ūk 1
▁Kore 1
▁Spain 1
▁Łódź 1
7,000 1
IMP 1
eshwar 1
kuba 1
▁Floor 1
▁Roda 1
▁Wordpress 1
▁generation 1
▁het 1
▁many 1
ATION 1
MED 1
arak 1
dne 1
human 1
keeper 1
▁Divin 1
▁plant 1
Main 1
Single 1
klas 1
nska 1
▁Kart 1
▁international 1
[16] 1
tutu 1
▁Cod 1
▁Karu 1
▁Turku 1
▁Wagen 1
▁fb 1
▁money 1
▁vitamine 1
IWA 1
paşa 1
tad 1
▁Jesús 1
▁Terengganu 1
▁hasta 1
▁tiu 1
orang 1
skar 1
sob 1
▁Admin 1
▁Centri 1
▁Framework 1
▁January 1
▁Spanish 1
▁Tahir 1
▁freelance 1
▁mimo 1
溪 1
KIT 1
bete 1
lati 1
tiba 1
▁Krebs 1
▁Köp 1
▁ec 1
TAL 1
auf 1
barra 1
insu 1
rudi 1
tiri 1
vano 1
▁banc 1
▁together 1
い 1
arit 1
buff 1
fik 1
gry 1
lha 1
▁Keh 1
▁Should 1
▁windows 1
族 1
ALO 1
artha 1
hoz 1
naire 1
pá 1
vena 1
▁Amateur 1
▁Cré 1
▁Lyric 1
▁Spitze 1
▁Ü 1
▁Mudd 1
▁Olsztyn 1
▁Salo 1
▁Tarik 1
▁alti 1
▁drum 1
RIK 1
Yan 1
β 1
▁Momba 1
▁Whatsapp 1
▁styl 1
:23 1
English 1
ITI 1
aika 1
ative 1
haba 1
kite 1
lioni 1
normal 1
olta 1
ometer 1
visi 1
▁Anak 1
▁Franca 1
▁Kontakt 1
▁Moda 1
▁div 1
▁frame 1
▁sensor 1
▁õ 1
▁İn 1
国 1
dô 1
kw 1
lke 1
obla 1
rait 1
ybos 1
▁Akhtar 1
▁Basta 1
▁Baş 1
▁Isto 1
▁Lern 1
▁Processo 1
▁apps 1
▁fire 1
▁inci 1
▁kun 1
▁meme 1
10000 1
Commun 1
Yes 1
eja 1
ève 1
▁Alde 1
▁grand 1
▁litt 1
街道 1
Kol 1
ernes 1
raken 1
▁(30) 1
▁Vesti 1
朱 1
NIA 1
Social 1
pent 1
łu 1
▁Annu 1
▁Schwer 1
:51 1
FET 1
boga 1
marca 1
oana 1
solid 1
vare 1
е 1
▁Cervantes 1
▁SDS 1
▁change 1
eid 1
oran 1
patnam 1
torum 1
▁Christen 1
▁Kilimanjaro 1
▁Malatya 1
▁OCH 1
▁September 1
▁Teatro 1
▁cyst 1
▁sno 1
SES 1
koro 1
mbal 1
ncyclopedia 1
sulta 1
▁Ikea 1
▁skill 1
:57 1
finger 1
gence 1
▁Anal 1
▁Kyuhyun 1
▁bata 1
▁common 1
▁let 1
▁terra 1
ecko 1
esto 1
iec 1
jus 1
▁Competi 1
▁Kazimierz 1
▁Prof 1
▁Rela 1
▁Rodin 1
▁Turkey 1
▁asia 1
Check 1
Ein 1
assurance 1
vesi 1
▁Glan 1
▁kt 1
▁rou 1
▁tac 1
OLA 1
drive 1
▁Answer 1
▁Frem 1
▁gmin 1
▁hier 1
▁manager 1
▁snap 1
▁subtil 1
동 1
:41 1
structure 1
▁Isi 1
▁drop 1
▁football 1
▁gab 1
▁и 1
.12.2012 1
Festival 1
ICU 1
global 1
ká 1
nun 1
sila 1
vei 1
visible 1
▁Governo 1
▁Manual 1
▁Mikkel 1
▁Muth 1
▁Slu 1
▁Terme 1
▁ZA 1
▁cd 1
▁fis 1
イ 1
ー 1
People 1
Philosoph 1
dori 1
zit 1
ccup 1
katan 1
pharma 1
sani 1
ónica 1
▁Nám 1
▁known 1
▁used 1
:43 1
STRA 1
mbara 1
mbin 1
nab 1
nym 1
ün 1
▁Lik 1
▁director 1
▁put 1
GAR 1
Institut 1
ZH 1
mint 1
sib 1
▁2014-2020 1
▁Bayan 1
▁Marcin 1
▁did 1
▁ol 1
ange 1
dhan 1
euse 1
ikud 1
▁Doma 1
▁Erasmus 1
▁HER 1
▁Pardubic 1
▁forward 1
▁such 1
MAR 1
Movie 1
NOW 1
Pack 1
azh 1
haz 1
ković 1
stitu 1
и 1
▁Gw 1
▁Hockey 1
▁joj 1
▁lateral 1
▁pse 1
buh 1
ifier 1
rupa 1
▁Dubrovnik 1
▁Guerra 1
▁Urdu 1
▁Vasile 1
▁dau 1
き 1
▁Habita 1
▁Saada 1
▁beautiful 1
▁bilin 1
▁mars 1
▁yê 1
!) 1
BOR 1
WY 1
bole 1
mdan 1
rte 1
tagen 1
zah 1
▁Banc 1
▁Buda 1
▁Creo 1
▁Deve 1
▁HII 1
▁champion 1
▁easy 1
▁gale 1
CAL 1
EVE 1
Edit 1
NIH 1
SCH 1
cuba 1
elm 1
igilan 1
▁(29) 1
▁buy 1
と 1
legger 1
▁Experiment 1
▁rud 1
▁songs 1
MY 1
OOL 1
itos 1
sort 1
valle 1
œ 1
▁Bydgoszcz 1
▁Kera 1
▁Telangana 1
▁Wallpaper 1
▁lot 1
》 1
石 1
EDA 1
ICP 1
fashion 1
homme 1
lief 1
nça 1
▁Fik 1
▁apple 1
asu 1
jur 1
liya 1
scription 1
trou 1
uqa 1
▁Laba 1
▁Num 1
▁Region 1
▁monitor 1
enti 1
hund 1
ipu 1
rantz 1
tja 1
▁Gaba 1
▁much 1
▁north 1
cted 1
glas 1
urg 1
▁Forma 1
▁Jokowi 1
▁Tabi 1
▁pend 1
bn 1
hul 1
ije 1
legg 1
moral 1
resti 1
ór 1
▁bilo 1
▁paper 1
▁polit 1
Kel 1
Qué 1
apu 1
hier 1
huis 1
çu 1
▁Female 1
▁Hl 1
▁Nordrhein 1
▁Wunder 1
▁elegant 1
▁too 1
jón 1
lend 1
uste 1
zá 1
▁Ferro 1
▁Viel 1
▁agar 1
▁regi 1
う 1
川 1
OSI 1
agra 1
etas 1
nosi 1
perin 1
ravan 1
▁Schie 1
▁Shankar 1
▁Thriller 1
▁Zaman 1
▁infla 1
ン 1
ECE 1
LAD 1
VEN 1
hiana 1
▁Adıyaman 1
▁Ahmedabad 1
▁Doğan 1
▁Gunung 1
▁Lucr 1
▁Nr 1
Dame 1
cies 1
dahan 1
▁Blackjack 1
▁ING 1
bór 1
▁Hü 1
▁Tx 1
▁flight 1
▁membran 1
▁reg 1
1,00 1
DAS 1
IGH 1
ados 1
aid 1
hamba 1
▁Ayam 1
▁Engle 1
▁great 1
▁nervos 1
▁yeah 1
European 1
RÁ 1
▁Vittorio 1
▁XXIII 1
▁chart 1
▁imita 1
惠 1
Film 1
HAND 1
VII 1
lta 1
stica 1
▁Králové 1
▁NOT 1
▁angel 1
Det 1
domo 1
rete 1
▁Anja 1
▁Fatih 1
▁Haa 1
▁Survivor 1
▁TRT 1
▁Tarragona 1
▁playlist 1
40,000 1
upo 1
▁Chuo 1
▁Condi 1
▁Tunnel 1
東 1
beda 1
bira 1
ská 1
▁Sneaker 1
▁TAM 1
▁Terror 1
▁flat 1
藤 1
BOX 1
ODI 1
OPA 1
loom 1
▁sax 1
▁self 1
RIP 1
barang 1
fore 1
karan 1
▁2,000 1
▁Napi 1
▁Sigmund 1
▁begin 1
▁dispar 1
▁fent 1
Learning 1
chron 1
▁Broker 1
▁Ekran 1
▁GEO 1
▁Rolle 1
▁Tiru 1
▁alone 1
▁aux 1
▁pm 1
▁tropical 1
ZN 1
bomb 1
cante 1
heen 1
hull 1
pusti 1
roka 1
▁Yunus 1
Player 1
qat 1
vere 1
▁Kayseri 1
▁LIFE 1
▁Satu 1
▁Voz 1
▁americana 1
▁piper 1
DAP 1
ically 1
rski 1
▁bel 1
Amazon 1
VENT 1
Why 1
akan 1
anaya 1
bulan 1
ilt 1
jes 1
pali 1
toire 1
xl 1
▁Jus 1
▁Zucker 1
não 1
tev 1
▁Büyük 1
▁Hund 1
▁Import 1
▁Suresh 1
▁pc 1
-02- 1
AZA 1
Brabant 1
OZ 1
figur 1
nous 1
rasti 1
▁Biało 1
▁Cardinal 1
▁Yesu 1
▁confe 1
▁milk 1
LTA 1
Od 1
dila 1
hula 1
office 1
▁Fili 1
▁Maio 1
▁gaming 1
VAR 1
maat 1
puram 1
sats 1
umbu 1
▁Ett 1
▁Oost 1
▁anymore 1
▁espresso 1
▁palma 1
▁reggae 1
▁rem 1
fund 1
geno 1
keta 1
ě 1
▁Gori 1
▁Veliki 1
▁birthday 1
▁count 1
▁fle 1
▁slim 1
▁「 1
anse 1
jali 1
uq 1
yari 1
{ 1
▁Muq 1
▁Pedra 1
▁Servi 1
▁aromat 1
▁contract 1
▁rate 1
MIL 1
gili 1
▁Beograd 1
▁Cumar 1
▁Different 1
▁Gleich 1
▁dry 1
▁madu 1
▁punctul 1
▁trade 1
▁zum 1
KIP 1
PIA 1
bido 1
kv 1
zara 1
▁Pernambuco 1
▁dead 1
▁sna 1
2.00 1
YA 1
czek 1
mom 1
yuu 1
▁Anglia 1
▁Frid 1
▁Karlsruhe 1
▁liste 1
▁magni 1
▁pulver 1
ikan 1
jik 1
mh 1
schau 1
sent 1
▁MILF 1
▁Tribut 1
▁Trick 1
▁für 1
VER 1
bawa 1
thira 1
▁Avto 1
▁Converter 1
▁Ganesh 1
▁feel 1
▁finger 1
▁plo 1
世 1
rene 1
▁Sida 1
▁dor 1
▁gross 1
▁lap 1
▁paste 1
▁present 1
▁wear 1
ías 1
▁Miquel 1
▁Size 1
▁Wala 1
▁tas 1
:56 1
VITA 1
enses 1
istica 1
ligen 1
pir 1
▁13:30 1
▁Tous 1
▁minuti 1
▁tenebr 1
▁training 1
appel 1
lingu 1
wiz 1
▁Dost 1
▁Durango 1
▁Hanne 1
▁Though 1
▁Veronika 1
▁aequa 1
▁anal 1
▁designer 1
▁gemi 1
inci 1
lecti 1
lje 1
mortal 1
pira 1
quina 1
agoa 1
novi 1
ront 1
▁Nilsson 1
▁Sardegna 1
▁couple 1
▁eng 1
小 1
阿 1
IKE 1
JK 1
puls 1
▁Cred 1
▁Elisabet 1
▁Extension 1
▁Kapa 1
▁Lise 1
▁RAZ 1
▁mille 1
▁neuron 1
▁splendid 1
diel 1
jale 1
langa 1
lendi 1
▁Ingen 1
▁JI 1
▁globo 1
▁hey 1
alom 1
▁Francisc 1
▁Hela 1
▁Motorsport 1
▁circum 1
▁uniform 1
NAP 1
eurs 1
lahan 1
lost 1
parent 1
▁Maq 1
▁Mladi 1
▁POR 1
▁rom 1
▁singular 1
軍 1
Person 1
appui 1
bam 1
bost 1
brott 1
ksen 1
▁Jesu 1
▁boyfriend 1
▁robo 1
kool 1
naga 1
verne 1
▁Coelho 1
▁Historic 1
▁Title 1
▁Zwei 1
▁alta 1
▁rand 1
ched 1
▁Alter 1
▁Pentagon 1
▁TOUR 1
▁Toko 1
▁dans 1
▁door 1
▁plumb 1
日 1
TIN 1
▁Ident 1
▁Ond 1
▁Salz 1
▁turn 1
Nem 1
RAL 1
dja 1
iny 1
ullo 1
▁guy 1
▁security 1
▁solid 1
AIN 1
kbps 1
tko 1
▁Catalog 1
▁Eger 1
▁Lied 1
▁Txi 1
kli 1
ís 1
▁Navigation 1
▁Teach 1
院 1
Fel 1
IRI 1
lge 1
tva 1
▁Meena 1
▁cont 1
▁grab 1
GRA 1
SAP 1
UTI 1
brit 1
standing 1
vija 1
viol 1
zali 1
▁Helga 1
▁Mendi 1
▁bell 1
▁device 1
▁dir 1
▁gaz 1
▁pol 1
▁uma 1
Europ 1
KEN 1
SED 1
ZZ 1
runu 1
tesi 1
ungu 1
▁Denizli 1
▁POST 1
▁SET 1
▁large 1
▁nobili 1
Thank 1
pest 1
▁Encore 1
▁Leiden 1
▁based 1
▁costi 1
▁hair 1
▁masa 1
▁plag 1
恭 1
GRO 1
fet 1
gjin 1
iyar 1
kiem 1
lasi 1
lato 1
≥ 1
▁Bueno 1
▁Tako 1
▁mousse 1
▁sultan 1
ivat 1
shiq 1
▁2018/19 1
▁Niin 1
▁Tid 1
▁Vak 1
▁enter 1
▁nel 1
▁urban 1
AKA 1
did 1
penda 1
▁Gees 1
▁Hej 1
▁Jah 1
▁Jel 1
▁samo 1
Indi 1
mpan 1
stani 1
yti 1
▁Fortaleza 1
▁Moli 1
▁Reference 1
▁arte 1
▁hua 1
▁pedi 1
月 1
5.00 1
Public 1
hanga 1
laman 1
loft 1
roku 1
through 1
▁Alka 1
▁Bem 1
▁Cit 1
▁Response 1
▁SEN 1
▁Skriv 1
▁miles 1
▁nas 1
夫人 1
arias 1
hova 1
rela 1
service 1
▁Albani 1
▁Gradu 1
▁SEM 1
▁Saor 1
▁against 1
▁eri 1
周 1
antan 1
ały 1
edad 1
geh 1
ggan 1
mér 1
schal 1
shield 1
▁Granollers 1
▁Professor 1
▁Publi 1
▁Sze 1
▁human 1
▁kis 1
▁process 1
▁salat 1
▁yes 1
aldia 1
aty 1
▁09:30 1
▁decorat 1
conta 1
leva 1
rila 1
ör 1
▁Corpus 1
▁Dharma 1
▁Gotland 1
▁INTERNET 1
▁Pazar 1
▁Ś 1
趙 1
POR 1
bres 1
circ 1
lagun 1
trof 1
tuo 1
▁Bhr 1
▁Deux 1
▁Fot 1
▁Ulla 1
▁mad 1
▁oxygen 1
AUS 1
dare 1
iker 1
nimo 1
sexual 1
▁CHE 1
▁Muda 1
▁Salaam 1
▁bent 1
commerce 1
fot 1
ukas 1
▁Bila 1
▁Certifica 1
▁Cookies 1
▁MAL 1
▁Makassar 1
▁Speaker 1
▁Sunt 1
▁Tivoli 1
▁ant 1
▁tattoo 1
▁wag 1
akor 1
▁Aroma 1
▁Daud 1
▁Handel 1
▁Neste 1
▁Tirana 1
▁Udal 1
▁Vala 1
▁cen 1
▁farm 1
▁gau 1
▁sept 1
riq 1
▁ONG 1
▁frater 1
▁mont 1
▁occ 1
リ 1
arski 1
▁Tolkien 1
▁carne 1
ERIA 1
Math 1
business 1
grav 1
indu 1
ordina 1
▁$5 1
▁Cada 1
▁Orhan 1
▁kron 1
▁obsolet 1
▁zen 1
vais 1
ÁM 1
▁Espiritu 1
▁Lift 1
▁Portu 1
▁Toscana 1
▁minut 1
▁sanguine 1
GNO 1
Milli 1
Refresh 1
energi 1
rück 1
▁Hola 1
▁Yn 1
▁baba 1
▁bala 1
▁being 1
真 1
3,00 1
Ouest 1
chette 1
click 1
iei 1
isset 1
marketing 1
batu 1
dab 1
loga 1
resse 1
sori 1
ē 1
▁Bryn 1
▁Kolle 1
▁Marmara 1
YL 1
hlen 1
lisi 1
lovi 1
opp 1
▁Creu 1
▁challenge 1
▁clan 1
▁guia 1
▁rein 1
▁study 1
000$ 1
DAG 1
ILE 1
Total 1
▁puber 1
JPG 1
firm 1
kell 1
mít 1
rl 1
spirit 1
≤ 1
▁Beginn 1
▁Bohu 1
▁CHP 1
ENG 1
ruv 1
sible 1
▁Looking 1
▁Nagu 1
▁Tsy 1
▁should 1
▁verti 1
NIK 1
crat 1
hyr 1
nky 1
ovac 1
polski 1
quera 1
▁Buka 1
▁Jä 1
▁Lagi 1
▁Laika 1
▁Papp 1
▁Unha 1
▁aca 1
▁anda 1
▁drag 1
▁hele 1
dob 1
ivas 1
▁dys 1
▁moment 1
▁transfer 1
NAN 1
cultural 1
itu 1
lel 1
ologue 1
qq 1
tré 1
▁Assembl 1
▁Investiga 1
▁Nada 1
▁leh 1
▁male 1
北 1
STR 1
bhi 1
serve 1
▁Celebra 1
▁Rugby 1
▁alt 1
▁any 1
▁ces 1
▁mama 1
▁mass 1
▁sara 1
▁train 1
▁without 1
1,000 1
AMO 1
Balt 1
Service 1
pania 1
ponent 1
sene 1
zve 1
▁Funny 1
▁Hendrik 1
▁rif 1
▁stay 1
antara 1
gxi 1
ungen 1
zuk 1
▁Hatta 1
▁Neft 1
▁cost 1
▁gap 1
▁luna 1
▁teng 1
Esto 1
SIN 1
ezer 1
mik 1
zd 1
▁Curitiba 1
▁Daha 1
▁active 1
▁cavi 1
▁standard 1
」 1
都 1
PIE 1
[18] 1
bbel 1
guld 1
israel 1
latina 1
misi 1
soci 1
wd 1
▁Antara 1
▁Dies 1
▁Dik 1
▁Hispania 1
▁gent 1
▁notification 1
▁official 1
▁pdf 1
Kö 1
luka 1
odat 1
shab 1
▁Harmoni 1
▁Lisboa 1
▁Muna 1
▁While 1
龍 1
[17] 1
loos 1
▁Hostel 1
▁dun 1
▁reflex 1
美 1
貴 1
-08- 1
4,00 1
Original 1
edit 1
isation 1
vajo 1
▁$100 1
▁Corporate 1
▁Fira 1
▁Writing 1
▁maca 1
▁station 1
▁stu 1
嬪 1
ality 1
irao 1
txt 1
version 1
ř 1
▁Armada 1
▁Bangsa 1
▁Chord 1
▁Interface 1
▁Salom 1
▁Sinn 1
▁prop 1
▁rhy 1
▁《 1
kelet 1
kta 1
mpet 1
şe 1
▁Mange 1
▁NAG 1
▁SPM 1
▁booking 1
▁gard 1
▁left 1
▁rik 1
清 1
igas 1
ruit 1
txe 1
æ 1
▁Catholic 1
▁MES 1
▁Nepo 1
▁galaxy 1
▁medium 1
▁soft 1
▁vat 1
ア 1
adora 1
appar 1
install 1
vann 1
▁Przy 1
▁Weg 1
▁pack 1
▁uro 1
▁wind 1
DES 1
ifs 1
punk 1
quid 1
▁Elegant 1
▁Events 1
▁Gaar 1
▁LOVE 1
▁Munt 1
▁Muğla 1
▁dom 1
▁palla 1
▁spr 1
▁stigma 1
▁thing 1
fis 1
panga 1
şa 1
▁PER 1
▁Valor 1
GOS 1
dist 1
llar 1
nava 1
weis 1
ɛ 1
я 1
▁Gora 1
▁Ioannes 1
▁MOD 1
▁magna 1
▁mora 1
▁praec 1
▁same 1
LOR 1
LOT 1
arsi 1
domin 1
icu 1
kick 1
milit 1
ningen 1
suz 1
tives 1
▁Krzysztof 1
▁Marte 1
▁Messe 1
▁Nog 1
▁UMNO 1
▁entro 1
▁fall 1
Union 1
ndang 1
rvi 1
url 1
vola 1
▁Column 1
▁Ensemble 1
▁Veera 1
▁hos 1
▁minus 1
▁transit 1
HAR 1
Word 1
cev 1
guar 1
laisia 1
lhe 1
▁Benedikt 1
▁Colonia 1
▁Error 1
▁Flexi 1
▁Uj 1
▁eco 1
▁sanguin 1
法 1
asha 1
beba 1
cane 1
ips 1
loka 1
▁Calcul 1
▁Kjell 1
▁Meter 1
▁lady 1
▁program 1
▁rhe 1
UMA 1
bitur 1
korea 1
truck 1
▁(31) 1
▁Deposit 1
▁Rund 1
▁Topp 1
▁ammo 1
SER 1
ciones 1
funk 1
ising 1
patti 1
rki 1
tare 1
tiae 1
tw 1
usto 1
ían 1
▁(“ 1
▁Avo 1
▁Bj 1
▁MAD 1
▁SAD 1
▁oro 1
▁scar 1
LIS 1
Motor 1
azio 1
deva 1
çon 1
▁Hradec 1
▁Ljubljana 1
dress 1
edig 1
ysta 1
zet 1
▁Bambi 1
▁Norwegian 1
▁Paulus 1
▁pred 1
▁π 1
カ 1
ラ 1
왕 1
Temp 1
kela 1
▁Basilica 1
▁Bucuresti 1
▁Dieu 1
▁Millet 1
▁Susanne 1
Dev 1
ULA 1
cipe 1
evit 1
liwa 1
▁Fiske 1
▁Lle 1
▁Rate 1
▁Tila 1
▁Universidad 1
▁bun 1
▁casual 1
▁company 1
OMA 1
dyn 1
▁Cicero 1
▁Jog 1
▁Reme 1
▁folk 1
YE 1
jord 1
kron 1
plication 1
▁Absolut 1
▁Algo 1
▁Usu 1
▁coral 1
▁deadline 1
▁gift 1
▁registr 1
But 1
bere 1
garten 1
hef 1
jd 1
pien 1
▁Deniz 1
▁Dhi 1
▁Dwi 1
▁Plac 1
▁wish 1
TAG 1
serta 1
× 1
▁Katarina 1
▁Oral 1
▁Tuna 1
▁Ukra 1
▁circ 1
▁heb 1
▁help 1
▁horri 1
▁pancake 1
▁tool 1
gled 1
nade 1
rania 1
stil 1
▁Because 1
▁alcohol 1
▁robi 1
▁sec 1
▁strand 1
9.00 1
USI 1
elu 1
oty 1
ysty 1
▁Bhd 1
▁Bring 1
▁License 1
▁SharePoint 1
▁tax 1
8,00 1
Kre 1
ferenc 1
gane 1
gim 1
ivan 1
patia 1
łę 1
▁Czar 1
▁Misi 1
Apa 1
esque 1
lõ 1
mmat 1
ninger 1
odd 1
onte 1
▁Compar 1
▁GOLD 1
▁Kahramanmaraş 1
▁lounge 1
▁table 1
hv 1
klo 1
vell 1
Ỵ 1
▁Barang 1
▁Chowdhury 1
▁IK 1
▁Kann 1
▁Khamis 1
▁Opis 1
▁SZ 1
▁close 1
▁electronic 1
▁force 1
姬 1
-09- 1
.01.2017 1
ERT 1
MEN 1
Pak 1
dded 1
dlo 1
dynamic 1
golf 1
hvi 1
llab 1
nadi 1
ов 1
▁books 1
▁lei 1
▁ska 1
楊 1
Histoire 1
OBO 1
antar 1
ettes 1
zaka 1
ühl 1
▁Altın 1
▁Certifi 1
▁Exhibition 1
▁framework 1
▁tes 1
1705 1
PUT 1
adore 1
cılar 1
dyk 1
greb 1
lege 1
rimin 1
viden 1
▁Arnhem 1
▁Duis 1
▁border 1
▁christ 1
▁digit 1
▁humb 1
▁inca 1
이 1
hoor 1
scribe 1
sht 1
static 1
utha 1
ário 1
▁Nett 1
▁SPORT 1
▁appro 1
▁duc 1
▁stage 1
▁terminal 1
▁venez 1
▁́ 1
TIV 1
WAY 1
fani 1
php 1
uthu 1
▁Keb 1
▁SER 1
▁bl 1
▁collection 1
▁final 1
家 1
ENS 1
NOR 1
bruch 1
faq 1
flix 1
ining 1
itsi 1
laud 1
▁10.00 1
▁Inner 1
▁Knowledge 1
▁Kuba 1
▁Posa 1
▁SDP 1
Ich 1
adas 1
ël 1
▁Kv 1
▁Retrieve 1
▁feature 1
▁lat 1
▁paci 1
ド 1
03.2017 1
Kita 1
present 1
tres 1
uhu 1
âl 1
▁Henk 1
▁Segunda 1
▁spil 1
▁М 1
主 1
ARIA 1
Model 1
Rama 1
UBA 1
bahn 1
dary 1
▁Anta 1
▁Aslam 1
▁DIY 1
▁Franci 1
▁Huu 1
▁Reng 1
▁Tadeusz 1
▁dem 1
▁kya 1
UKI 1
ajo 1
shwa 1
tk 1
▁Deus 1
▁Sobra 1
▁Univers 1
▁Zlatko 1
▁sto 1
康 1
玉 1
-07- 1
Mercedes 1
SOL 1
bulu 1
enc 1
uak 1
venti 1
▁Heil 1
▁Jeremia 1
▁function 1
▁management 1
▁morning 1
敬 1
NAY 1
Of 1
bben 1
internet 1
krat 1
toxic 1
urbo 1
▁Immun 1
▁children 1
▁gate 1
▁в 1
adam 1
macht 1
wane 1
▁Continue 1
▁Llu 1
▁MEM 1
▁Netherlands 1
▁Piazza 1
▁Pilates 1
▁Volks 1
▁canal 1
▁gim 1
▁rex 1
府 1
bios 1
illé 1
▁Dimension 1
▁Downtown 1
▁Grzegorz 1
▁Hypno 1
▁Twee 1
▁cake 1
▁pl 1
▁secret 1
▁sms 1
延 1
里 1
AAN 1
LES 1
ería 1
khti 1
kora 1
shib 1
čí 1
▁Polyester 1
▁Voj 1
▁charter 1
▁pluri 1
▁varia 1
KING 1
SHO 1
TOA 1
banda 1
sab 1
▁Balik 1
▁bomb 1
▁traffic 1
OOT 1
andu 1
hend 1
ional 1
ologie 1
prog 1
rve 1
vene 1
▁Groen 1
▁Switzerland 1
▁Zona 1
▁bach 1
▁following 1
DNI 1
Iz 1
LAV 1
gesi 1
mend 1
pew 1
social 1
transfer 1
▁Filo 1
▁Hamil 1
▁Olen 1
▁around 1
▁everything 1
▁maxima 1
▁nen 1
生 1
XXXX 1
cii 1
havn 1
velo 1
▁mem 1
▁monte 1
ZP 1
liye 1
umas 1
▁Inge 1
▁Lleida 1
▁Mercat 1
▁Mondo 1
▁Morbi 1
▁Officer 1
▁adi 1
▁born 1
▁clean 1
▁pedal 1
KIN 1
disi 1
prie 1
urd 1
▁Debrecen 1
▁Küçük 1
▁Masar 1
▁Oui 1
▁adventure 1
▁information 1
Associazione 1
PEN 1
PET 1
communication 1
ijo 1
js 1
lateral 1
▁Gadget 1
▁Gana 1
▁Grund 1
▁Listen 1
▁butter 1
▁eur 1
▁loss 1
▁topo 1
門 1
bü 1
dika 1
sain 1
tira 1
uum 1
ylab 1
▁Disease 1
▁Dobro 1
▁Sakarya 1
▁Sö 1
▁address 1
▁hel 1
▁mask 1
▁soba 1
ク 1
inden 1
urri 1
▁Gré 1
▁Jürgen 1
▁Pili 1
▁Tenggara 1
▁age 1
▁pila 1
華 1
順 1
ERI 1
THE 1
[20] 1
coach 1
config 1
kumi 1
pais 1
ø 1
▁Archives 1
▁EI 1
▁appen 1
▁hostel 1
▁mayo 1
春 1
行 1
RZ 1
alat 1
haha 1
itate 1
iño 1
kne 1
rect 1
yog 1
youtube 1
ÃO 1
▁Cze 1
▁SON 1
▁Ultima 1
▁artist 1
▁jin 1
▁sleep 1
00.00 1
2,00 1
HZ 1
mudi 1
nada 1
ranje 1
▁sever 1
五 1
愛 1
ained 1
aja 1
rwa 1
skog 1
▁Dialog 1
▁Tare 1
▁development 1
▁jan 1
▁panto 1
▁river 1
TIG 1
gori 1
puter 1
rrera 1
string 1
ues 1
vak 1
ók 1
▁PDP 1
▁Soekarno 1
▁coco 1
▁num 1
medic 1
rinha 1
zari 1
▁FIS 1
▁Regel 1
▁Saison 1
BEN 1
inan 1
jm 1
lande 1
lassa 1
▁PRU 1
▁edit 1
▁extra 1
▁independent 1
▁lima 1
は 1
ト 1
ICK 1
estre 1
graaf 1
lumba 1
muzik 1
posito 1
purna 1
èche 1
▁Curs 1
▁Sexual 1
▁anders 1
▁eyes 1
▁minim 1
Christian 1
YI 1
apte 1
buli 1
▁Bland 1
▁Introdu 1
▁Scratch 1
▁Sinon 1
▁Ticket 1
▁Tierra 1
▁aber 1
▁assist 1
▁ek 1
▁vida 1
Ord 1
buti 1
dla 1
gueira 1
jesh 1
kalan 1
oze 1
zida 1
▁Org 1
▁leave 1
▁score 1
AUT 1
cand 1
doras 1
idh 1
igra 1
ixa 1
laska 1
queira 1
▁Sebe 1
▁cere 1
▁mother 1
▁parti 1
▁performance 1
▁remo 1
▁scop 1
3.00 1
Ut 1
ikat 1
lenia 1
▁Suku 1
▁kern 1
▁pie 1
▁sene 1
▁stol 1
Well 1
kani 1
kap 1
▁Balta 1
▁Einar 1
▁ak 1
▁apart 1
▁during 1
▁immun 1
▁scanner 1
Aug 1
mbala 1
tiq 1
zwa 1
▁Devo 1
▁Koki 1
▁STR 1
▁Valo 1
▁math 1
▁rules 1
1⁄4 1
arca 1
zok 1
▁Brief 1
▁Jesper 1
▁Wax 1
▁gru 1
▁important 1
▁ket 1
▁memory 1
▁tell 1
▁tuo 1
EER 1
MOR 1
Sloven 1
fti 1
madan 1
mbur 1
▁(32) 1
▁Maal 1
▁Martí 1
▁Víctor 1
▁district 1
▁magnesium 1
こ 1
LER 1
hanan 1
wab 1
waran 1
÷ 1
▁Diari 1
▁HAM 1
▁Madura 1
▁Problem 1
▁Script 1
▁carnaval 1
▁engineer 1
▁huo 1
▁lepi 1
▁prince 1
▁revol 1
▁tel 1
▁大 1
羅 1
GRE 1
izante 1
ntas 1
ovima 1
ulong 1
▁Espresso 1
▁Joh 1
▁kwa 1
▁peter 1
IRO 1
baka 1
balan 1
mando 1
rind 1
▁theory 1
淑 1
Hotel 1
IVI 1
enes 1
muna 1
nare 1
tarian 1
▁Author 1
▁Comment 1
▁Delivery 1
▁Mies 1
▁Premio 1
▁Sü 1
▁pneu 1
▁sham 1
定 1
ELI 1
ENTER 1
ajan 1
dna 1
esso 1
keli 1
ryk 1
на 1
▁Olav 1
▁Oru 1
▁own 1
▁valid 1
▁vivo 1
EET 1
bg 1
dka 1
kak 1
plant 1
toj 1
zag 1
▁Imi 1
▁Petter 1
▁Sain 1
▁basis 1
▁boat 1
▁gutt 1
▁muta 1
書 1
kna 1
ttu 1
ța 1
▁Elegan 1
▁Fá 1
▁PLAN 1
▁complex 1
▁leg 1
▁moli 1
▁mosaic 1
▁soli 1
▁ting 1
▁Álvarez 1
義 1
ITT 1
STAN 1
dotti 1
graf 1
ngan 1
ně 1
oks 1
pill 1
rais 1
versi 1
vne 1
▁Hati 1
▁KAT 1
▁Melaka 1
▁Minister 1
▁ear 1
▁garden 1
▁technology 1
▁Ø 1
6,00 1
istas 1
év 1
ří 1
▁Artes 1
▁Ministry 1
▁believe 1
▁warm 1
な 1
Gymnasium 1
PRESS 1
Tube 1
▁Kaki 1
▁Koca 1
▁mou 1
▁village 1
ま 1
PLAN 1
agar 1
arts 1
atto 1
flam 1
kiya 1
second 1
trie 1
uva 1
▁Geld 1
▁Therapy 1
▁bicarbonat 1
▁lite 1
▁lugu 1
▁near 1
▁save 1
URA 1
limi 1
liste 1
ка 1
▁Alterna 1
▁Azam 1
▁Museo 1
▁cir 1
▁maro 1
▁sign 1
alit 1
atis 1
download 1
ischer 1
meer 1
onde 1
pik 1
ufa 1
your 1
▁Germania 1
▁KPK 1
▁PLUS 1
▁Pove 1
▁Riad 1
▁Rü 1
▁abdominal 1
▁ala 1
▁cin 1
▁compre 1
▁software 1
ahan 1
chef 1
from 1
klin 1
tapa 1
▁Montréal 1
▁Mult 1
▁dicho 1
▁west 1
dó 1
flat 1
èse 1
▁Nietzsche 1
▁Section 1
▁both 1
▁connect 1
▁domestic 1
▁hart 1
▁mina 1
▁nap 1
▁pauper 1
▁stip 1
▁terre 1
▁trigo 1
▁why 1
clusi 1
harc 1
hwe 1
plod 1
posita 1
univers 1
▁Aan 1
▁Garan 1
▁Tibet 1
▁Varia 1
▁mani 1
手 1
GAM 1
SHA 1
align 1
dach 1
й 1
▁Druck 1
▁Inova 1
▁MySQL 1
▁Ndi 1
▁Somaliland 1
▁Ubi 1
▁Vegeta 1
▁message 1
▁tea 1
LUX 1
creati 1
haft 1
handi 1
mester 1
pies 1
think 1
▁Fala 1
▁Grupo 1
▁cogn 1
く 1
fano 1
pasta 1
ugur 1
▁Angli 1
▁Bhai 1
▁Gada 1
▁SRI 1
▁attack 1
▁plas 1
▁tenis 1
▁tyr 1
り 1
Job 1
hava 1
▁Belgi 1
▁Gener 1
▁Lehr 1
▁SEL 1
▁belli 1
▁cab 1
Este 1
machine 1
niec 1
ssimi 1
▁Artis 1
▁Ove 1
▁Political 1
▁lenti 1
▁shar 1
▁tourist 1
gb 1
ikal 1
imen 1
ntang 1
pdf 1
studio 1
surf 1
▁Bhatt 1
▁Handy 1
▁Juha 1
▁Kwi 1
▁motif 1
▁wan 1
▁Ör 1
ら 1
士 1
DAN 1
HIT 1
INTO 1
archive 1
beauty 1
corpora 1
llit 1
najua 1
pathy 1
turer 1
wag 1
ь 1
▁ANO 1
▁Nek 1
▁Pensa 1
内 1
風 1
HER 1
KRI 1
SIT 1
VES 1
YU 1
ieron 1
izza 1
mig 1
moz 1
temp 1
ulation 1
▁Irak 1
▁Prae 1
▁Puig 1
▁Sohn 1
▁argu 1
▁gras 1
▁loc 1
▁mob 1
▁triple 1
PON 1
aju 1
animation 1
jir 1
wach 1
êr 1
▁sweet 1
▁window 1
吉 1
昌 1
:0 1
ALE 1
AYA 1
besi 1
obraz 1
tsin 1
zinho 1
▁Hardware 1
▁TAN 1
▁dre 1
▁flac 1
▁pretty 1
▁while 1
-03- 1
IKO 1
IMU 1
Khmer 1
dash 1
have 1
zeli 1
▁Choose 1
▁INFO 1
▁Isra 1
▁Paradox 1
▁Secretary 1
▁each 1
▁fix 1
▁nie 1
▁toy 1
▁ts 1
bog 1
roj 1
ный 1
▁EXTRA 1
▁Helge 1
▁Institution 1
▁XXV 1
▁converti 1
野 1
equip 1
indo 1
mama 1
rings 1
▁Holz 1
▁Mwa 1
▁Nouveau 1
▁american 1
▁ea 1
▁friends 1
▁serpent 1
Jaa 1
LJ 1
cso 1
vd 1
▁ALL 1
▁Klan 1
▁Kristi 1
▁Occidental 1
▁PDK 1
▁Serial 1
▁intra 1
ała 1
dhu 1
eggia 1
imu 1
lado 1
tension 1
uwar 1
▁$10 1
▁Dib 1
▁GEL 1
▁Romantic 1
▁Scroll 1
▁dollars 1
▁effect 1
▁gro 1
▁lamp 1
▁recta 1
▁wireless 1
60,000 1
LET 1
engine 1
metra 1
rli 1
ruo 1
wend 1
új 1
▁Allgemein 1
▁Dü 1
▁assim 1
▁brit 1
▁rugi 1
郎 1
buku 1
kok 1
raden 1
resor 1
uu 1
▁Besi 1
▁Gogo 1
▁mann 1
▁wel 1
か 1
DRI 1
DRO 1
bici 1
dava 1
dels 1
demo 1
quot 1
▁Francia 1
▁RES 1
▁bp 1
▁express 1
▁member 1
▁multimedia 1
▁neem 1
▁sans 1
▁tak 1
▁using 1
▁vent 1
SIK 1
cios 1
sok 1
tely 1
ö 1
▁Quiz 1
▁rs 1
黎 1
glut 1
haan 1
heir 1
iding 1
ppan 1
▁Voor 1
▁audi 1
Standard 1
angarap 1
leis 1
melt 1
missa 1
▁Bodrum 1
▁Kadir 1
▁Patria 1
▁VER 1
阳 1
BUS 1
affi 1
aquí 1
cite 1
inom 1
▁GER 1
▁Staten 1
▁mando 1
▁moni 1
▁original 1
bent 1
pey 1
qab 1
tiu 1
▁Armen 1
▁Cathedral 1
▁Príncipe 1
▁Tura 1
▁button 1
▁obi 1
▁quin 1
▁С 1
懿 1
Allah 1
KOL 1
andin 1
plic 1
strand 1
strup 1
zom 1
▁Breakfast 1
▁Garda 1
▁Jörg 1
▁Kela 1
▁Kör 1
▁Maks 1
▁Sains 1
▁better 1
▁messenger 1
▁resto 1
▁sports 1
▁tort 1
▁women 1
景 1
祖 1
6.00 1
Text 1
tering 1
zg 1
▁Denmark 1
▁because 1
▁direct 1
Holland 1
legra 1
stava 1
tke 1
tā 1
ção 1
о 1
▁Videos 1
▁bv 1
▁libero 1
dhe 1
fili 1
ngga 1
rund 1
▁Aarhus 1
▁Haupt 1
▁Pilipinas 1
▁cala 1
▁det 1
Lie 1
barth 1
dust 1
mies 1
posa 1
ziya 1
üyü 1
▁Apr 1
▁Deutsch 1
▁Ember 1
英 1
............... 1
abbat 1
czka 1
kering 1
plac 1
prim 1
▁Kerk 1
▁Zlín 1
▁claus 1
▁karo 1
▁pal 1
▁pale 1
02.2017 1
jil 1
liq 1
menta 1
▁Insa 1
▁Ist 1
▁Presse 1
▁Veg 1
▁Wana 1
▁olymp 1
▁since 1
ROL 1
abil 1
atura 1
gged 1
gust 1
hik 1
illant 1
inform 1
jem 1
paka 1
tuba 1
voor 1
ša 1
▁GRA 1
▁Saat 1
▁Sweden 1
▁bed 1
▁qi 1
▁research 1
▁Çe 1
....... 1
ELA 1
RAR 1
ixe 1
lj 1
mem 1
▁Bookmark 1
▁barem 1
▁dell 1
▁hus 1
▁pap 1
ANDA 1
Java 1
ayn 1
format 1
gym 1
itza 1
verk 1
▁(40) 1
▁(50) 1
▁Alman 1
▁Batang 1
▁Besar 1
▁Fina 1
▁Itali 1
▁Sebastián 1
▁hill 1
▁lost 1
▁reng 1
[19] 1
[30] 1
gulo 1
mla 1
° 1
ós 1
▁ADA 1
▁Ime 1
▁Individual 1
▁Nationale 1
▁Vse 1
▁capital 1
▁frontal 1
▁sat 1
皇帝 1
YAL 1
^ 1
leven 1
reb 1
ʻ 1
▁Claro 1
▁Huis 1
▁Nej 1
▁Streaming 1
▁Uzun 1
▁canto 1
▁rei 1
▁twist 1
ABO 1
EVER 1
VET 1
balo 1
eten 1
prove 1
▁Dire 1
▁Kral 1
▁Perdana 1
▁Sergej 1
▁Syd 1
▁balans 1
▁options 1
▁pena 1
年 1
abot 1
halter 1
imper 1
lique 1
ács 1
▁Igual 1
▁Yara 1
▁anna 1
▁bright 1
▁give 1
▁labo 1
▁law 1
八 1
章 1
BIZ 1
IER 1
frac 1
hdi 1
iej 1
isht 1
koz 1
torii 1
what 1
▁Arad 1
▁Dema 1
▁Marzo 1
▁levi 1
▁mana 1
-06- 1
SPEC 1
Vlaanderen 1
natural 1
riet 1
▁Customer 1
▁Domina 1
▁FRE 1
▁Tev 1
▁edu 1
▁santa 1
古 1
Software 1
agrada 1
bhra 1
dega 1
fed 1
▁11.00 1
▁Iga 1
▁STA 1
▁ach 1
▁ago 1
▁cl 1
▁lives 1
▁rustic 1
▁sich 1
宣 1
寺 1
ISH 1
project 1
rodo 1
ópolis 1
▁Tug 1
▁fac 1
▁special 1
8.00 1
ndum 1
С 1
▁Keli 1
▁Klip 1
▁Maska 1
▁Medio 1
▁Türk 1
300,000 1
REL 1
aram 1
mă 1
ości 1
person 1
thir 1
tla 1
▁Marke 1
▁Punt 1
▁phr 1
さ 1
Ing 1
RTI 1
ingar 1
kking 1
ucht 1
vaka 1
▁Danes 1
▁Esti 1
▁GDPR 1
▁LEO 1
▁Myśl 1
▁Osteo 1
▁Pedr 1
▁cant 1
▁ret 1
容 1
Raja 1
TAY 1
pale 1
unti 1
▁Hj 1
▁Mittel 1
▁Oso 1
▁Schloss 1
▁hole 1
▁six 1
▁А 1
LEN 1
fila 1
isten 1
raca 1
rasi 1
rhythm 1
▁1394 1
▁Eskişehir 1
▁Ghosh 1
▁Innsbruck 1
▁Patrik 1
▁cuba 1
▁hic 1
▁indo 1
▁une 1
慈 1
有 1
DRA 1
alter 1
icis 1
▁Schreib 1
▁Toda 1
▁latte 1
▁tinc 1
UO 1
archae 1
felder 1
jek 1
meng 1
product 1
ulle 1
unar 1
veti 1
şan 1
▁Dewi 1
▁JU 1
▁Kranj 1
▁Norway 1
▁Slova 1
▁Stati 1
▁Suárez 1
▁hed 1
▁mell 1
▁orbit 1
▁round 1
▁stan 1
▁Ž 1
に 1
FORM 1
RDI 1
aint 1
eremo 1
randi 1
sound 1
uros 1
▁Aller 1
▁Mongolia 1
▁Patent 1
▁Quand 1
興 1
gji 1
labora 1
éz 1
▁BAB 1
▁Hiri 1
▁Koha 1
▁Nicolae 1
▁Puna 1
▁Quid 1
▁Simula 1
▁Traian 1
▁could 1
▁equi 1
▁fille 1
▁production 1
縣 1
ETE 1
MIR 1
ONI 1
SZ 1
arsa 1
fjall 1
iones 1
riat 1
route 1
straße 1
ukan 1
” 1
▁1397 1
▁Brak 1
▁Kassim 1
▁Litera 1
▁Specialist 1
▁Tirol 1
▁bale 1
▁incur 1
▁obes 1
▁salam 1
biy 1
ikka 1
kimi 1
koma 1
mping 1
âr 1
▁Alarm 1
▁INTER 1
▁Montserrat 1
▁Skal 1
～ 1
ECI 1
bd 1
stane 1
▁Bayram 1
▁Goiás 1
▁Paşa 1
▁ia 1
▁wild 1
Bud 1
csa 1
gabal 1
isana 1
nière 1
rky 1
treb 1
▁Edirne 1
▁Energia 1
▁Laga 1
▁Proti 1
▁Televi 1
▁Viena 1
▁bara 1
▁protected 1
▁suis 1
▁yum 1
TRE 1
efaso 1
ientes 1
tadi 1
tention 1
unum 1
ович 1
▁CER 1
▁Kalli 1
▁VAL 1
▁Voices 1
▁calor 1
▁lib 1
▁lips 1
弘 1
OOM 1
apan 1
dijk 1
handel 1
huizen 1
rangan 1
Ẽ 1
▁GUI 1
▁amor 1
▁bonus 1
▁contra 1
▁diff 1
▁diffusa 1
▁earth 1
▁euros 1
▁method 1
Report 1
flag 1
mely 1
modi 1
onge 1
zis 1
▁Institut 1
▁Konst 1
▁Pembe 1
▁Provo 1
▁Puzzle 1
▁gali 1
▁pont 1
▁print 1
▁private 1
▁these 1
儀 1
03.2018 1
ocht 1
security 1
▁Ezek 1
▁Handels 1
▁Narva 1
▁PRIM 1
▁posi 1
ウ 1
ARK 1
ctio 1
cym 1
stran 1
šov 1
▁Alat 1
▁Bulu 1
▁Nazir 1
▁Pasta 1
▁Snack 1
▁kiosk 1
▁kon 1
▁proxima 1
▁published 1
▁region 1
▁rod 1
▁services 1
▁viti 1
▁Çi 1
4.00 1
RID 1
cimento 1
erii 1
mulo 1
reya 1
tifica 1
▁Could 1
▁Français 1
▁Projekt 1
▁XXL 1
▁fil 1
▁move 1
▁ris 1
00000 1
EIS 1
ances 1
lja 1
rão 1
▁Ghazal 1
史 1
schaft 1
teurs 1
zito 1
¥ 1
▁CARA 1
▁Cet 1
▁Humanit 1
▁Meld 1
▁novo 1
▁photograph 1
▁santo 1
寧 1
brug 1
dk 1
gid 1
▁László 1
▁Pobla 1
▁centi 1
▁chain 1
▁god 1
▁juli 1
▁urat 1
▁Ła 1
貞 1
정 1
80,000 1
ONY 1
abel 1
agem 1
angalia 1
eño 1
kelia 1
lika 1
vok 1
ɔ 1
▁Baka 1
▁KY 1
▁Uyg 1
▁Veteran 1
漢 1
ELT 1
holder 1
laz 1
sza 1
urat 1
uring 1
▁Awesome 1
▁Malagasy 1
▁Recent 1
▁sorry 1
▁sup 1
▁wow 1
慶 1
munt 1
sabi 1
▁Kolon 1
▁Member 1
▁Xil 1
▁aka 1
▁another 1
▁glaz 1
▁ing 1
▁rami 1
EBC 1
TEEN 1
about 1
halt 1
ṣ 1
▁Tagalog 1
▁every 1
▁khas 1
▁prog 1
▁teacher 1
9,00 1
butan 1
gát 1
roko 1
▁Chine 1
▁DIS 1
▁Danske 1
▁Filho 1
▁GROUP 1
▁Natur 1
▁aga 1
▁venu 1
dje 1
gare 1
iet 1
mby 1
nten 1
▁Casal 1
▁Stato 1
▁five 1
▁focus 1
▁scala 1
东 1
ESO 1
awang 1
biri 1
filo 1
kaza 1
moder 1
organi 1
rín 1
tés 1
▁Diff 1
▁Hö 1
▁Já 1
▁Tanganyika 1
▁aeg 1
▁ist 1
▁magic 1
▁oral 1
▁stein 1
bisa 1
bred 1
flict 1
jū 1
mika 1
ν 1
▁Bonus 1
▁Düsseldorf 1
▁Knapp 1
▁Kont 1
▁Offer 1
▁Vázquez 1
▁include 1
........ 1
HAL 1
annu 1
fett 1
mk 1
propi 1
▁(33) 1
▁Florin 1
▁Mediterrane 1
▁Oleh 1
▁TIP 1
▁gir 1
▁read 1
DEM 1
OBI 1
lca 1
▁Login 1
▁Malam 1
▁Rasa 1
▁Thanks 1
▁phase 1
▁setup 1
GAN 1
diyo 1
frog 1
iin 1
kwe 1
stret 1
unde 1
än 1
ówka 1
▁Kampung 1
▁Uhuru 1
▁chlo 1
▁gonna 1
本 1
ellenes 1
imai 1
lender 1
quant 1
theater 1
▁BAY 1
▁Batal 1
▁Thiru 1
▁Verlag 1
▁barbar 1
▁klo 1
▁lug 1
▁sancta 1
▁xer 1
▁γ 1
あ 1
地 1
ANCE 1
IEL 1
Johan 1
SUS 1
desh 1
endelee 1
faat 1
mbong 1
yek 1
ÉT 1
▁12:30 1
▁DOM 1
▁Général 1
▁Programm 1
▁Romana 1
▁Telenor 1
▁battle 1
▁communi 1
▁nudi 1
DON 1
LIGHT 1
ament 1
bene 1
cidi 1
imme 1
isc 1
krad 1
pred 1
pö 1
ы 1
▁Arslan 1
▁Eller 1
▁Masuk 1
▁Nici 1
▁aiki 1
▁boutique 1
▁contain 1
▁council 1
▁hali 1
▁links 1
▁officina 1
▁rid 1
Wiki 1
alaba 1
chap 1
medicin 1
qiy 1
ṭ 1
▁Afonso 1
▁Ioan 1
▁Strategie 1
▁Trondheim 1
▁Zv 1
▁sli 1
njang 1
norm 1
ovy 1
phase 1
waz 1
▁Koop 1
▁Kreuz 1
▁REC 1
▁Sist 1
▁Usta 1
▁jos 1
▁tere 1
キ 1
EYE 1
Execut 1
qaba 1
ratta 1
ɑ 1
▁Bangla 1
▁Conven 1
▁February 1
▁Fins 1
▁Nime 1
▁stron 1
島 1
無 1
Source 1
qir 1
▁Schon 1
▁coming 1
▁influenza 1
▁kai 1
Ong 1
gemeinde 1
hain 1
ologi 1
oq 1
çı 1
▁Adsense 1
▁PAG 1
▁Rasul 1
▁SUR 1
▁dinner 1
▁etc 1
▁luo 1
克 1
eeuw 1
movie 1
pote 1
uwe 1
wort 1
▁Vă 1
▁episode 1
▁ili 1
▁powder 1
マ 1
曹 1
lokho 1
rimo 1
▁9.00 1
▁Dobre 1
▁Implant 1
▁Regard 1
▁Troms 1
▁YE 1
▁eros 1
▁hur 1
▁source 1
concert 1
geng 1
ngar 1
wm 1
ŭ 1
ży 1
▁Assessment 1
▁Bade 1
▁Campeonato 1
▁Dla 1
▁Grafi 1
▁PAT 1
▁POL 1
▁hihi 1
▁hue 1
▁limited 1
▁perfect 1
▁ps 1
▁summer 1
▁syndrome 1
▁videoclip 1
▁В 1
REP 1
VEL 1
bhar 1
liet 1
lup 1
rī 1
sept 1
wur 1
ский 1
▁Neue 1
▁PREMI 1
▁complet 1
▁forever 1
▁fro 1
▁gum 1
▁plac 1
▁return 1
▁vale 1
不 1
龙 1
Orang 1
chandra 1
gta 1
haram 1
oooo 1
sborg 1
tario 1
▁Dank 1
▁Mongol 1
▁NOS 1
▁Posi 1
▁bam 1
▁fl 1
▁rue 1
▁tumi 1
▁tw 1
▁„ 1
尔 1
MAI 1
Student 1
aggi 1
alma 1
bré 1
jn 1
lunga 1
munk 1
rando 1
ская 1
▁flow 1
▁magnet 1
▁photos 1
Linux 1
dependent 1
emos 1
rede 1
rolle 1
▁Agreement 1
▁Buna 1
▁Newspaper 1
▁Nürnberg 1
▁SOL 1
▁bug 1
▁hold 1
▁hui 1
dito 1
isce 1
pub 1
sione 1
tagna 1
▁Conf 1
▁alfa 1
▁bate 1
▁odo 1
▁vera 1
が 1
LGBT 1
aller 1
ulator 1
▁Ahl 1
▁Centra 1
▁Iru 1
▁Klass 1
▁Ligi 1
▁Textil 1
▁[-] 1
▁rie 1
SKI 1
accord 1
baru 1
fft 1
session 1
ungi 1
▁Getting 1
▁Nota 1
▁meli 1
▁tonight 1
▁victoria 1
▁李 1
星 1
ROP 1
biet 1
irala 1
lci 1
mysl 1
sportiv 1
vedere 1
▁Cando 1
▁Skol 1
▁Tog 1
CCM 1
geist 1
patri 1
ród 1
tenant 1
vedi 1
▁Byt 1
▁Kako 1
▁Matej 1
▁Nép 1
▁Pascual 1
▁Programme 1
▁Recipe 1
▁Suriya 1
▁child 1
▁commune 1
▁dam 1
▁muri 1
modul 1
reto 1
tett 1
tza 1
vies 1
ły 1
▁Kamu 1
▁Onu 1
▁Presidenti 1
▁Une 1
▁alla 1
▁computing 1
▁melo 1
▁pras 1
[...]
